<UNK>	0
<s>	0
<EOS>	0
▁b	-0
▁d	-1
ar	-2
er	-3
▁k	-4
in	-5
an	-6
en	-7
ir	-8
▁s	-9
▁h	-10
▁g	-11
ın	-12
▁a	-13
em	-14
▁y	-15
or	-16
▁t	-17
▁bir	-18
ca	-19
iş	-20
el	-21
▁o	-22
un	-23
am	-24
lar	-25
ak	-26
▁i	-27
▁v	-28
oca	-29
ır	-30
ay	-31
▁ç	-32
▁e	-33
▁hoca	-34
▁n	-35
ek	-36
ur	-37
iy	-38
▁m	-39
ün	-40
al	-41
im	-42
ey	-43
as	-44
il	-45
ad	-46
ed	-47
emiş	-48
aş	-49
ış	-50
et	-51
▁demiş	-52
az	-53
at	-54
ler	-55
ce	-56
iz	-57
ap	-58
▁ol	-59
▁ö	-60
ım	-61
um	-62
de	-63
on	-64
ah	-65
▁p	-66
ık	-67
▁bu	-68
ok	-69
▁tem	-70
es	-71
▁ad	-72
▁“	-73
▁de	-74
ab	-75
▁temel	-76
uş	-77
▁ş	-78
▁ve	-79
di	-80
le	-81
yor	-82
▁gi	-83
▁sor	-84
da	-85
miş	-86
▁adam	-87
▁da	-88
▁gö	-89
sun	-90
ıl	-91
ını	-92
ine	-93
ür	-94
mış	-95
▁der	-96
ağ	-97
▁al	-98
▁ver	-99
▁ben	-100
st	-101
öy	-102
dan	-103
▁gel	-104
▁ne	-105
▁ko	-106
▁ar	-107
iye	-108
▁nas	-109
uk	-110
ğr	-111
muş	-112
ini	-113
▁ki	-114
ına	-115
üz	-116
den	-117
ik	-118
la	-119
is	-120
aya	-121
▁baş	-122
▁iç	-123
▁son	-124
uz	-125
üş	-126
iyor	-127
ra	-128
din	-129
uy	-130
▁gün	-131
▁kar	-132
▁bak	-133
▁z	-134
▁an	-135
ol	-136
ız	-137
▁ev	-138
ıyor	-139
du	-140
▁sonra	-141
ken	-142
der	-143
red	-144
▁sen	-145
eye	-146
oc	-147
▁var	-148
▁dur	-149
▁yap	-150
ma	-151
▁f	-152
ul	-153
▁gör	-154
reddin	-155
▁diye	-156
▁nasreddin	-157
inde	-158
ük	-159
▁ay	-160
▁ge	-161
av	-162
▁on	-163
▁ce	-164
▁öğr	-165
iğ	-166
ıy	-167
eğ	-168
▁bil	-169
▁”	-170
unu	-171
tan	-172
ığ	-173
▁kom	-174
▁çoc	-175
▁eş	-176
endi	-177
▁kal	-178
ana	-179
▁çık	-180
ki	-181
ıs	-182
▁c	-183
lam	-184
▁git	-185
şu	-186
▁ist	-187
▁et	-188
▁cev	-189
▁kad	-190
▁için	-191
▁i̇	-192
▁yan	-193
ları	-194
▁düş	-195
▁çocuk	-196
af	-197
ta	-198
cak	-199
öyl	-200
▁ak	-201
eden	-202
ında	-203
▁biri	-204
aç	-205
eri	-206
▁r	-207
aman	-208
öyle	-209
ada	-210
▁geç	-211
üm	-212
ince	-213
▁yok	-214
men	-215
▁komşu	-216
i̇	-217
▁han	-218
▁üz	-219
▁dok	-220
ıp	-221
▁ark	-222
▁kap	-223
dır	-224
ekt	-225
tor	-226
▁ama	-227
▁biz	-228
eyi	-229
▁do	-230
▁zaman	-231
▁dö	-232
ez	-233
▁çok	-234
ut	-235
▁cevap	-236
▁u	-237
▁ef	-238
▁sorar	-239
▁sormuş	-240
▁mi	-241
▁ön	-242
etmen	-243
▁at	-244
iler	-245
inin	-246
▁her	-247
lı	-248
maya	-249
▁el	-250
▁doktor	-251
▁öğretmen	-252
aha	-253
▁dursun	-254
dı	-255
iç	-256
▁in	-257
▁kon	-258
li	-259
ya	-260
▁eşeğ	-261
hoca	-262
▁par	-263
▁karş	-264
▁gider	-265
lan	-266
▁yol	-267
mak	-268
▁bun	-269
▁hay	-270
▁çal	-271
eş	-272
ayı	-273
ası	-274
▁ot	-275
erek	-276
it	-277
enc	-278
sa	-279
▁mı	-280
anın	-281
▁oldu	-282
▁üzer	-283
▁bo	-284
▁yer	-285
sin	-286
▁daha	-287
..	-288
▁değ	-289
bi	-290
ev	-291
se	-292
ının	-293
nın	-294
▁siz	-295
edi	-296
adaş	-297
eki	-298
uyor	-299
üyor	-300
▁del	-301
te	-302
▁iş	-303
▁or	-304
ver	-305
▁yaz	-306
▁çıkar	-307
ep	-308
esi	-309
▁hem	-310
lamış	-311
▁en	-312
aşır	-313
ından	-314
▁düşün	-315
▁verir	-316
ül	-317
▁l	-318
▁ağ	-319
▁efendi	-320
▁öl	-321
acak	-322
tır	-323
▁mu	-324
▁dön	-325
▁iki	-326
uğ	-327
end	-328
lay	-329
maz	-330
▁hiç	-331
▁sır	-332
▁eder	-333
▁nasıl	-334
▁arkadaş	-335
▁kö	-336
▁hanım	-337
anı	-338
cek	-339
▁ya	-340
inden	-341
üy	-342
ğl	-343
müş	-344
▁ses	-345
▁söyl	-346
eyince	-347
▁gitmiş	-348
isi	-349
ten	-350
▁uy	-351
ağır	-352
leri	-353
▁kadar	-354
üç	-355
▁çocuklar	-356
▁su	-357
▁kur	-358
hocam	-359
ti	-360
tı	-361
▁aç	-362
▁er	-363
▁bin	-364
▁neden	-365
arak	-366
lad	-367
▁ok	-368
öz	-369
▁tek	-370
ip	-371
ığı	-372
▁olur	-373
iyorum	-374
▁1	-375
▁bul	-376
▁ner	-377
▁tar	-378
▁deyince	-379
▁otur	-380
▁as	-381
adan	-382
▁bab	-383
▁bur	-384
▁kay	-385
▁kim	-386
▁yar	-387
▁bana	-388
cı	-389
▁iy	-390
▁oğl	-391
▁tut	-392
▁gelir	-393
ars	-394
mek	-395
azar	-396
▁yem	-397
▁hocam	-398
cağ	-399
▁doğr	-400
▁pazar	-401
▁biraz	-402
op	-403
▁has	-404
▁ile	-405
▁kaç	-406
▁sab	-407
▁şey	-408
▁konuş	-409
dir	-410
meye	-411
▁hep	-412
▁yüz	-413
larını	-414
▁benim	-415
▁başlar	-416
aki	-417
▁gir	-418
dur	-419
etir	-420
▁şöyle	-421
aat	-422
ahu	-423
edir	-424
▁dol	-425
▁köyl	-426
▁değil	-427
▁üzerine	-428
ede	-429
lah	-430
▁ann	-431
▁bizim	-432
▁doğru	-433
▁kendi	-434
▁gelmiş	-435
met	-436
una	-437
▁so	-438
ilir	-439
▁getir	-440
▁günün	-441
eniz	-442
ıyorsun	-443
ağı	-444
ediğ	-445
▁hak	-446
▁olm	-447
▁söz	-448
▁öğrenc	-449
▁birinde	-450
verir	-451
su	-452
lat	-453
üst	-454
ıya	-455
▁il	-456
amaz	-457
üler	-458
▁iyi	-459
▁sür	-460
▁olan	-461
▁böyle	-462
▁bey	-463
▁bunun	-464
ece	-465
▁tam	-466
▁tan	-467
▁ter	-468
alı	-469
san	-470
ınız	-471
▁yak	-472
▁sana	-473
diğ	-474
lik	-475
ayan	-476
▁mer	-477
▁olduğ	-478
▁senin	-479
▁adamın	-480
üt	-481
mez	-482
▁tak	-483
▁yıl	-484
bet	-485
lık	-486
▁mis	-487
▁sah	-488
ef	-489
▁uz	-490
alar	-491
▁deyi	-492
tü	-493
...	-494
bir	-495
amış	-496
▁ayn	-497
▁bunu	-498
▁yine	-499
▁hemen	-500
▁sabah	-501
eb	-502
len	-503
ınca	-504
▁dem	-505
▁hal	-506
▁kaz	-507
asına	-508
eh	-509
çi	-510
man	-511
sar	-512
▁kır	-513
▁sat	-514
▁top	-515
▁yanına	-516
dum	-517
gün	-518
orb	-519
üzel	-520
▁göz	-521
▁onu	-522
asını	-523
▁ister	-524
tir	-525
ıyı	-526
iniz	-527
▁alt	-528
▁kız	-529
▁bağır	-530
▁vermiş	-531
ci	-532
dü	-533
dim	-534
dun	-535
eler	-536
▁hav	-537
▁koy	-538
▁sal	-539
▁saat	-540
▁soru	-541
▁önce	-542
uv	-543
dür	-544
▁ed	-545
acağ	-546
▁gül	-547
arson	-548
iyorsun	-549
ark	-550
ili	-551
üne	-552
▁duy	-553
▁taş	-554
▁tel	-555
▁ayak	-556
▁gibi	-557
▁kend	-558
▁anlat	-559
▁şaşır	-560
▁karşıl	-561
sen	-562
▁mü	-563
lara	-564
▁kes	-565
▁köy	-566
▁küç	-567
▁akıl	-568
▁deli	-569
▁kalk	-570
mışlar	-571
▁garson	-572
lem	-573
sın	-574
▁şu	-575
daki	-576
▁dil	-577
▁san	-578
▁yaş	-579
▁başlamış	-580
gi	-581
abı	-582
▁eve	-583
▁fak	-584
▁yür	-585
▁bakar	-586
▁sırada	-587
▁temele	-588
ka	-589
tık	-590
▁akş	-591
▁diğ	-592
▁gid	-593
▁yen	-594
▁çar	-595
▁üst	-596
larak	-597
ığını	-598
▁evet	-599
up	-600
ör	-601
üp	-602
ısı	-603
ayım	-604
▁koş	-605
▁kul	-606
▁köp	-607
▁sak	-608
ların	-609
▁sahi	-610
▁ensar	-611
ee	-612
arı	-613
rar	-614
▁ah	-615
alım	-616
atır	-617
▁dav	-618
▁lir	-619
▁sin	-620
▁dedi	-621
▁güzel	-622
▁merak	-623
lü	-624
om	-625
oş	-626
▁2	-627
iyi	-628
laş	-629
▁sı	-630
▁bit	-631
▁büy	-632
▁ula	-633
▁alır	-634
▁bilm	-635
▁ters	-636
▁çorb	-637
ıyorum	-638
▁durum	-639
▁fakat	-640
▁yapar	-641
▁çalış	-642
▁birisi	-643
▁deyiverir	-644
00	-645
bu	-646
mi	-647
ağa	-648
han	-649
kaç	-650
sız	-651
▁yo	-652
ster	-653
▁bek	-654
▁sev	-655
▁tab	-656
▁tav	-657
▁yat	-658
esine	-659
▁eşek	-660
▁para	-661
▁taraf	-662
kü	-663
duğ	-664
▁ek	-665
▁ik	-666
▁üç	-667
eyim	-668
▁ağr	-669
▁beş	-670
▁i̇n	-671
▁kah	-672
▁çek	-673
▁süre	-674
▁yahu	-675
abilir	-676
▁küçük	-677
▁oğlum	-678
▁birkaç	-679
▁köylüler	-680
aa	-681
yı	-682
dım	-683
ser	-684
suz	-685
deki	-686
▁bah	-687
▁bel	-688
▁herk	-689
▁kadı	-690
lerini	-691
▁sorun	-692
▁çağır	-693
▁olarak	-694
▁komşusu	-695
fa	-696
▁3	-697
adı	-698
tiğ	-699
tür	-700
▁aş	-701
eyen	-702
▁akç	-703
▁bal	-704
▁kav	-705
▁ona	-706
asında	-707
▁allah	-708
▁büyük	-709
▁olsun	-710
▁göster	-711
▁hanımı	-712
▁olacak	-713
ete	-714
▁es	-715
▁öy	-716
alan	-717
iyle	-718
ünce	-719
▁ilk	-720
▁pap	-721
▁yet	-722
▁çay	-723
▁şim	-724
▁aynı	-725
▁evde	-726
▁olmuş	-727
▁kaldır	-728
aze	-729
gil	-730
ret	-731
uyu	-732
ünü	-733
▁am	-734
▁boş	-735
▁etm	-736
▁hoc	-737
▁kaf	-738
▁sık	-739
▁çün	-740
▁şek	-741
▁dost	-742
▁dayan	-743
▁evine	-744
▁hayır	-745
▁herkes	-746
▁kapıyı	-747
tim	-748
tur	-749
uya	-750
▁av	-751
unda	-752
ımız	-753
▁cem	-754
▁dün	-755
▁kahv	-756
▁peki	-757
▁yeni	-758
larına	-759
▁efend	-760
▁karşı	-761
▁nedir	-762
▁çünkü	-763
▁olduğunu	-764
dın	-765
▁uç	-766
edim	-767
elim	-768
ırak	-769
▁haz	-770
▁kas	-771
▁kor	-772
▁arab	-773
▁kurt	-774
▁bilet	-775
▁hakim	-776
▁tekrar	-777
▁hocanın	-778
▁pazarda	-779
if	-780
lu	-781
ob	-782
ça	-783
tin	-784
tım	-785
ecek	-786
yahu	-787
ılır	-788
ıyla	-789
▁ber	-790
▁ise	-791
▁say	-792
▁tat	-793
▁baba	-794
▁niye	-795
▁yolc	-796
▁bırak	-797
▁götür	-798
▁şimdi	-799
ec	-800
dük	-801
asın	-802
eceğ	-803
ehir	-804
enin	-805
ulur	-806
▁bor	-807
▁dağ	-808
▁dev	-809
▁dik	-810
▁ken	-811
▁man	-812
sunuz	-813
▁karar	-814
▁yemek	-815
▁hastan	-816
▁kayser	-817
ime	-818
liğ	-819
mad	-820
▁ac	-821
▁em	-822
aber	-823
edik	-824
ütün	-825
▁bağ	-826
▁boz	-827
▁diy	-828
lerin	-829
ıştır	-830
▁beni	-831
▁lira	-832
lerden	-833
▁ancak	-834
▁gelen	-835
▁gören	-836
▁kadın	-837
▁kazan	-838
▁içinde	-839
si	-840
yn	-841
dik	-842
sün	-843
tik	-844
ğur	-845
▁is	-846
ladı	-847
▁giy	-848
▁haf	-849
▁kıs	-850
▁sok	-851
▁tur	-852
▁yağ	-853
▁bakk	-854
▁geri	-855
▁koca	-856
▁bütün	-857
▁diğer	-858
▁hazır	-859
▁tutar	-860
▁çocuğ	-861
▁öğrenci	-862
iv	-863
ön	-864
duk	-865
imi	-866
siz	-867
▁ca	-868
afir	-869
ünde	-870
▁din	-871
▁gen	-872
▁gez	-873
▁pir	-874
▁sağ	-875
▁unu	-876
▁içer	-877
▁i̇ki	-878
▁kork	-879
▁sını	-880
▁taze	-881
▁öyle	-882
lardan	-883
▁başka	-884
▁etmiş	-885
▁olmaz	-886
▁sizin	-887
▁karşıs	-888
▁efendim	-889
▁misafir	-890
▁yapıyorsun	-891
ıt	-892
▁5	-893
▁‘	-894
ara	-895
ceğ	-896
eme	-897
ere	-898
▁eğ	-899
adır	-900
iyet	-901
▁gaz	-902
▁göl	-903
▁hoş	-904
▁miy	-905
▁bile	-906
▁fark	-907
▁gide	-908
▁onun	-909
▁size	-910
▁yere	-911
▁akşam	-912
▁almış	-913
▁eşeği	-914
▁gerek	-915
iyorlar	-916
▁derler	-917
▁öğrenciler	-918
me	-919
us	-920
ant	-921
dık	-922
eli	-923
ilo	-924
mis	-925
▁iz	-926
amam	-927
▁dış	-928
abını	-929
allah	-930
erken	-931
siniz	-932
▁hayv	-933
adeniz	-934
▁değiş	-935
▁insan	-936
▁sordu	-937
▁annesi	-938
▁bakkal	-939
larından	-940
▁gelince	-941
▁arkadaşı	-942
▁demişler	-943
▁karadeniz	-944
eç	-945
ran	-946
yon	-947
ımı	-948
▁af	-949
▁az	-950
dığı	-951
lere	-952
ınav	-953
▁vur	-954
▁çev	-955
ekten	-956
ektir	-957
▁hast	-958
▁mekt	-959
▁tane	-960
esinde	-961
▁adama	-962
▁hangi	-963
▁sınav	-964
ıyorlar	-965
ıyormuş	-966
▁birden	-967
▁sahibi	-968
▁giderken	-969
▁öğretmenim	-970
eği	-971
i̇ş	-972
may	-973
ter	-974
▁ha	-975
▁ıs	-976
▁ask	-977
▁ağz	-978
▁cen	-979
▁gön	-980
▁hız	-981
▁kaş	-982
▁kuy	-983
▁oda	-984
▁tür	-985
▁zat	-986
meden	-987
▁anlam	-988
▁bugün	-989
▁görür	-990
▁papağ	-991
▁sinir	-992
▁söyle	-993
▁sınıf	-994
▁derken	-995
▁dilenc	-996
▁hocaya	-997
▁temelin	-998
▁şaşırmış	-999
▁cevaplamış	-1000
ga	-1001
üc	-1002
mam	-1003
raf	-1004
sam	-1005
ğuk	-1006
▁öt	-1007
...”	-1008
imiz	-1009
▁bas	-1010
▁hır	-1011
▁kiş	-1012
▁kıy	-1013
▁yük	-1014
ileri	-1015
ladım	-1016
likte	-1017
ılmış	-1018
▁hemş	-1019
▁unut	-1020
▁deniz	-1021
▁devam	-1022
▁istem	-1023
▁onlar	-1024
▁yoksa	-1025
▁zaten	-1026
▁başını	-1027
▁doktora	-1028
▁eşeğini	-1029
ba	-1030
aka	-1031
baş	-1032
can	-1033
deş	-1034
kat	-1035
kom	-1036
sek	-1037
▁mo	-1038
arım	-1039
ayet	-1040
utan	-1041
▁can	-1042
▁cüm	-1043
▁ger	-1044
▁har	-1045
▁hat	-1046
▁kat	-1047
▁mak	-1048
▁ort	-1049
▁rah	-1050
▁vak	-1051
▁yor	-1052
▁zor	-1053
esini	-1054
▁ders	-1055
▁uzun	-1056
▁adamı	-1057
▁bulun	-1058
▁girer	-1059
▁içeri	-1060
▁köpek	-1061
▁müdür	-1062
▁ondan	-1063
▁temiz	-1064
▁çorba	-1065
ektedir	-1066
▁bakmış	-1067
▁hırsız	-1068
▁dayanam	-1069
▁görünce	-1070
▁cevabını	-1071
▁komşusun	-1072
▁üzerinde	-1073
▁kayserili	-1074
oz	-1075
üs	-1076
bul	-1077
rum	-1078
sey	-1079
uğu	-1080
ükk	-1081
eyin	-1082
tesi	-1083
tığı	-1084
unca	-1085
▁bi̇	-1086
▁dal	-1087
▁duv	-1088
▁i̇ç	-1089
▁kol	-1090
▁oku	-1091
▁sol	-1092
▁şik	-1093
giliz	-1094
ırlar	-1095
▁dükk	-1096
▁uyan	-1097
asının	-1098
tıktan	-1099
ıyordu	-1100
▁ayakk	-1101
▁bilir	-1102
▁halde	-1103
▁manav	-1104
▁misin	-1105
▁tatlı	-1106
▁yolda	-1107
ediğini	-1108
iyormuş	-1109
▁eşeğin	-1110
▁hayvan	-1111
▁olduğu	-1112
▁varmış	-1113
▁bakalım	-1114
▁komutan	-1115
▁sınıfta	-1116
▁birlikte	-1117
âl	-1118
azı	-1119
düğ	-1120
eti	-1121
gın	-1122
mem	-1123
▁od	-1124
▁tu	-1125
efon	-1126
erin	-1127
esin	-1128
hbet	-1129
ilde	-1130
iyat	-1131
unun	-1132
urum	-1133
uval	-1134
▁akl	-1135
▁ali	-1136
▁ard	-1137
▁den	-1138
▁fil	-1139
▁hey	-1140
▁kuz	-1141
▁kür	-1142
▁lok	-1143
▁mem	-1144
▁uyk	-1145
▁ziy	-1146
▁eğer	-1147
▁kötü	-1148
lerine	-1149
▁anlay	-1150
▁güler	-1151
▁hayat	-1152
▁kasab	-1153
▁soğuk	-1154
▁yoğur	-1155
▁cevabı	-1156
▁geçmiş	-1157
▁hiçbir	-1158
▁kaybet	-1159
▁kendis	-1160
▁sohbet	-1161
▁şekilde	-1162
ac	-1163
be	-1164
düm	-1165
eng	-1166
eğe	-1167
i̇n	-1168
▁bi	-1169
▁tr	-1170
▁uş	-1171
için	-1172
olis	-1173
▁dör	-1174
▁fad	-1175
▁hâl	-1176
▁seb	-1177
▁tah	-1178
▁yuk	-1179
isine	-1180
madan	-1181
mamış	-1182
▁ağız	-1183
▁bahç	-1184
▁defa	-1185
▁gece	-1186
▁kağı	-1187
▁kısa	-1188
▁okul	-1189
▁seni	-1190
▁yanl	-1191
muşlar	-1192
▁ahmet	-1193
▁asker	-1194
▁geldi	-1195
▁geçen	-1196
▁geçir	-1197
▁hafta	-1198
▁iyice	-1199
▁kavga	-1200
▁kenar	-1201
▁köylü	-1202
▁öldür	-1203
▁ertesi	-1204
▁geldiğ	-1205
▁seslen	-1206
▁yoğurt	-1207
▁çıkmış	-1208
▁ağrıyor	-1209
▁deliler	-1210
▁düşünür	-1211
▁telefon	-1212
▁ardından	-1213
▁sorarlar	-1214
ber	-1215
ele	-1216
sem	-1217
tığ	-1218
▁ih	-1219
▁ip	-1220
▁öd	-1221
edin	-1222
emez	-1223
▁doğ	-1224
▁pek	-1225
▁sad	-1226
▁sar	-1227
▁tuz	-1228
▁yön	-1229
amaya	-1230
arken	-1231
ediği	-1232
isini	-1233
urken	-1234
ünden	-1235
▁ayağ	-1236
▁inan	-1237
▁olsa	-1238
▁otob	-1239
▁yolu	-1240
dükten	-1241
ındaki	-1242
▁arada	-1243
▁cemal	-1244
▁davet	-1245
▁mektu	-1246
▁niçin	-1247
▁sevin	-1248
▁verdi	-1249
▁çevir	-1250
▁öğren	-1251
▁burada	-1252
▁dikkat	-1253
▁durumu	-1254
▁nerede	-1255
▁nereye	-1256
▁yerine	-1257
lerinden	-1258
▁akşehir	-1259
▁merakla	-1260
▁oturuyor	-1261
va	-1262
üğ	-1263
şe	-1264
ali	-1265
mağ	-1266
tem	-1267
usu	-1268
▁ey	-1269
▁pr	-1270
adım	-1271
aret	-1272
erim	-1273
eyle	-1274
inci	-1275
unuz	-1276
▁def	-1277
▁döv	-1278
▁fır	-1279
▁kan	-1280
▁mah	-1281
▁pen	-1282
▁sof	-1283
▁tok	-1284
▁tır	-1285
▁çöz	-1286
eleri	-1287
encer	-1288
komşu	-1289
▁elin	-1290
▁görm	-1291
▁kapı	-1292
▁kolt	-1293
▁oğlu	-1294
▁tart	-1295
▁yani	-1296
iyordu	-1297
tikten	-1298
üyorum	-1299
▁almak	-1300
▁başım	-1301
▁dolaş	-1302
▁eşeğe	-1303
▁görev	-1304
▁güneş	-1305
▁haber	-1306
▁hızlı	-1307
▁kaşık	-1308
▁motor	-1309
▁musun	-1310
▁sahib	-1311
▁salak	-1312
▁yolcu	-1313
▁çuval	-1314
üyorsun	-1315
▁binmiş	-1316
▁dışarı	-1317
▁gönder	-1318
▁karısı	-1319
▁pazara	-1320
▁verdiğ	-1321
▁yanlış	-1322
▁diyerek	-1323
▁ederler	-1324
▁eşeğine	-1325
▁istemiş	-1326
▁ayakkabı	-1327
▁karşılaş	-1328
▁taraftan	-1329
ag	-1330
dr	-1331
ke	-1332
uc	-1333
uç	-1334
dak	-1335
kın	-1336
lük	-1337
mur	-1338
▁10	-1339
ekte	-1340
emem	-1341
etin	-1342
eyse	-1343
işir	-1344
▁abi	-1345
▁boy	-1346
▁buy	-1347
▁huy	-1348
▁kab	-1349
▁kek	-1350
▁kuş	-1351
▁mat	-1352
▁mey	-1353
▁söy	-1354
▁uğr	-1355
▁yal	-1356
▁yav	-1357
▁yık	-1358
tadır	-1359
▁açık	-1360
▁bekl	-1361
▁bize	-1362
▁borç	-1363
▁canı	-1364
▁dört	-1365
▁eski	-1366
▁hava	-1367
▁kedi	-1368
▁odun	-1369
▁tabi	-1370
▁yazı	-1371
▁yorg	-1372
allahi	-1373
▁anlar	-1374
▁aşağı	-1375
▁döner	-1376
▁dünya	-1377
▁düşer	-1378
▁düştü	-1379
▁gelip	-1380
▁giden	-1381
▁hatır	-1382
▁orada	-1383
▁polis	-1384
▁yarın	-1385
asından	-1386
aşırken	-1387
▁cemaat	-1388
▁diğeri	-1389
▁söyler	-1390
▁yağmur	-1391
▁yolcul	-1392
▁çalmış	-1393
▁ağızdan	-1394
▁dilenci	-1395
▁dursuna	-1396
▁dönerek	-1397
▁getirir	-1398
▁sonunda	-1399
▁başlarlar	-1400
▁karşılaşır	-1401
ne	-1402
ri	-1403
ây	-1404
amı	-1405
bür	-1406
dığ	-1407
hal	-1408
ilm	-1409
inc	-1410
luk	-1411
par	-1412
pey	-1413
tın	-1414
ılı	-1415
▁oy	-1416
▁öz	-1417
▁ış	-1418
duğu	-1419
ekim	-1420
elik	-1421
laya	-1422
umur	-1423
usun	-1424
ünün	-1425
▁bar	-1426
▁i̇l	-1427
▁kez	-1428
▁mad	-1429
▁pat	-1430
▁vaz	-1431
▁yiy	-1432
▁çab	-1433
▁şah	-1434
ektim	-1435
larda	-1436
mıştı	-1437
sanız	-1438
undan	-1439
▁alan	-1440
▁ağaç	-1441
▁aşağ	-1442
▁borc	-1443
▁buna	-1444
▁eden	-1445
▁epey	-1446
▁evin	-1447
▁günü	-1448
▁komş	-1449
▁sofr	-1450
▁verm	-1451
amazan	-1452
dığını	-1453
▁altın	-1454
▁duvar	-1455
▁duyan	-1456
▁görün	-1457
▁hasta	-1458
▁yeter	-1459
▁şikây	-1460
meyecek	-1461
▁başına	-1462
▁birbir	-1463
▁girmiş	-1464
▁görsün	-1465
▁gülmüş	-1466
▁hemşer	-1467
▁lokant	-1468
▁parayı	-1469
▁vardır	-1470
▁yahudi	-1471
▁yaklaş	-1472
▁yolunu	-1473
▁başladı	-1474
▁konuşur	-1475
▁oturmuş	-1476
▁yürüyor	-1477
▁değiştir	-1478
▁gösterir	-1479
▁i̇ngiliz	-1480
▁sormuşlar	-1481
re	-1482
tu	-1483
za	-1484
ama	-1485
ben	-1486
day	-1487
ene	-1488
son	-1489
tar	-1490
tiy	-1491
tum	-1492
uma	-1493
ünc	-1494
üye	-1495
▁30	-1496
▁be	-1497
aban	-1498
akik	-1499
alık	-1500
emat	-1501
tiği	-1502
ılan	-1503
ılık	-1504
ınır	-1505
ısın	-1506
▁ara	-1507
▁bay	-1508
▁bed	-1509
▁boğ	-1510
▁diş	-1511
▁gar	-1512
▁kör	-1513
▁mas	-1514
▁mes	-1515
▁müş	-1516
▁nef	-1517
▁pas	-1518
▁sav	-1519
▁tal	-1520
▁tes	-1521
▁tuh	-1522
▁çiv	-1523
▁şaş	-1524
bette	-1525
lanır	-1526
lerde	-1527
ısını	-1528
▁akçe	-1529
▁dinl	-1530
▁etti	-1531
▁gelm	-1532
▁göle	-1533
▁kayb	-1534
▁kilo	-1535
▁kuyr	-1536
▁köye	-1537
▁tanı	-1538
▁tavş	-1539
▁yola	-1540
▁çarp	-1541
dıktan	-1542
eceğim	-1543
esinin	-1544
▁bende	-1545
▁dakik	-1546
▁deyip	-1547
▁hamam	-1548
▁kalır	-1549
▁namaz	-1550
▁olanı	-1551
▁olmad	-1552
▁sıcak	-1553
▁tamam	-1554
▁yalan	-1555
layarak	-1556
▁babası	-1557
▁buraya	-1558
▁elinde	-1559
▁kardeş	-1560
▁kullan	-1561
▁nasret	-1562
▁sadece	-1563
▁soruyu	-1564
▁yukarı	-1565
▁bakkala	-1566
▁beraber	-1567
▁biletçi	-1568
▁duruyor	-1569
▁gidecek	-1570
▁gülerek	-1571
▁içinden	-1572
▁kendine	-1573
▁kendini	-1574
▁matemat	-1575
▁mektubu	-1576
▁nereden	-1577
▁papağan	-1578
▁sorunca	-1579
▁söylemiş	-1580
▁lokantada	-1581
▁karşısında	-1582
▁karadenizli	-1583
of	-1584
rı	-1585
sı	-1586
yi	-1587
çe	-1588
aca	-1589
ayi	-1590
bis	-1591
cuz	-1592
dip	-1593
hay	-1594
lak	-1595
lek	-1596
mus	-1597
ığa	-1598
▁dü	-1599
▁si	-1600
akta	-1601
eğin	-1602
stan	-1603
uyla	-1604
üncü	-1605
▁100	-1606
▁ayı	-1607
▁dam	-1608
▁ede	-1609
▁esn	-1610
▁gür	-1611
▁had	-1612
▁hel	-1613
▁işe	-1614
▁may	-1615
▁maç	-1616
▁met	-1617
▁mez	-1618
▁oyn	-1619
▁sir	-1620
▁çak	-1621
▁çam	-1622
▁öde	-1623
▁şük	-1624
anlık	-1625
ağını	-1626
ladık	-1627
layıp	-1628
manın	-1629
mayın	-1630
uğunu	-1631
▁ayşe	-1632
▁boyn	-1633
▁cenn	-1634
▁geçm	-1635
▁gitm	-1636
▁iler	-1637
▁işte	-1638
▁i̇lk	-1639
▁ucuz	-1640
▁uyku	-1641
▁uzat	-1642
▁yedi	-1643
▁öbür	-1644
asıyla	-1645
dikten	-1646
lanmış	-1647
▁delik	-1648
▁dokuz	-1649
▁etmez	-1650
▁geçer	-1651
▁gülüm	-1652
▁ihtiy	-1653
▁kimin	-1654
▁kolay	-1655
▁kulak	-1656
▁niyet	-1657
▁sakin	-1658
▁subaş	-1659
▁tuhaf	-1660
▁türlü	-1661
▁vardı	-1662
▁yaşlı	-1663
▁şeker	-1664
elerini	-1665
larımız	-1666
larında	-1667
lerinde	-1668
▁berber	-1669
▁epeyce	-1670
▁görmüş	-1671
▁hocayı	-1672
▁kurtul	-1673
▁senden	-1674
▁söylem	-1675
▁tartış	-1676
▁tursun	-1677
▁yardım	-1678
▁yoktur	-1679
▁yüksek	-1680
▁çocuğa	-1681
▁adamlar	-1682
▁anlatır	-1683
▁aşağıya	-1684
▁çalışır	-1685
▁şikâyet	-1686
▁dayanamaz	-1687
▁kenarında	-1688
▁matematik	-1689
▁nasrettin	-1690
▁bilmiyorum	-1691
▁komşularından	-1692
oo	-1693
tt	-1694
nun	-1695
oğl	-1696
ram	-1697
ste	-1698
umu	-1699
ümr	-1700
ıcı	-1701
şiş	-1702
▁ro	-1703
▁öğ	-1704
anız	-1705
avuş	-1706
ayıp	-1707
erik	-1708
ilot	-1709
mayı	-1710
ıldı	-1711
ıyım	-1712
▁ceb	-1713
▁cin	-1714
▁ded	-1715
▁erk	-1716
▁fen	-1717
▁gec	-1718
▁gev	-1719
▁hap	-1720
▁inc	-1721
▁mar	-1722
▁pil	-1723
▁ser	-1724
▁sey	-1725
▁val	-1726
▁yay	-1727
adığı	-1728
dinin	-1729
ediye	-1730
hanım	-1731
larım	-1732
manda	-1733
seniz	-1734
ıldır	-1735
▁bi̇r	-1736
▁cami	-1737
▁gözü	-1738
▁hakk	-1739
▁hani	-1740
▁heyb	-1741
▁işit	-1742
▁kere	-1743
▁kürs	-1744
▁olay	-1745
▁parç	-1746
▁sözü	-1747
▁torb	-1748
▁önem	-1749
▁üzüm	-1750
amadım	-1751
efendi	-1752
lamaya	-1753
lemeye	-1754
mişler	-1755
▁anlaş	-1756
▁artık	-1757
▁atmış	-1758
▁ayağa	-1759
▁balık	-1760
▁belli	-1761
▁bitir	-1762
▁bitti	-1763
▁bulur	-1764
▁dedik	-1765
▁ekmek	-1766
▁elbis	-1767
▁etraf	-1768
▁gidin	-1769
▁gitti	-1770
▁gürül	-1771
▁hatun	-1772
▁kapat	-1773
▁mezar	-1774
▁rahat	-1775
▁talim	-1776
▁tanım	-1777
▁tıraş	-1778
▁vakit	-1779
▁yarış	-1780
▁yumur	-1781
▁yürüy	-1782
▁çabuk	-1783
▁çalar	-1784
▁önüne	-1785
▁şahit	-1786
arkadaş	-1787
▁altına	-1788
▁aradan	-1789
▁aralar	-1790
▁ağzını	-1791
▁bahşiş	-1792
▁benden	-1793
▁düşmüş	-1794
▁evinin	-1795
▁gazete	-1796
▁huysuz	-1797
▁kekeme	-1798
▁makbul	-1799
▁onları	-1800
▁parmağ	-1801
▁sesler	-1802
▁önünde	-1803
▁garsona	-1804
▁geliyor	-1805
▁gidiyor	-1806
▁kahvede	-1807
▁musunuz	-1808
▁ramazan	-1809
▁sofraya	-1810
▁soruyor	-1811
▁tutarsa	-1812
▁yapacağ	-1813
▁çağırır	-1814
▁arasında	-1815
▁düşünmüş	-1816
▁komşular	-1817
▁yapıştır	-1818
▁yerinden	-1819
▁konuşmaya	-1820
▁arkadaşlar	-1821
▁arkadaşına	-1822
▁dolaşırken	-1823
▁istiyorsun	-1824
▁düşündükten	-1825
▁oturuyormuş	-1826
fk	-1827
gı	-1828
ro	-1829
aaz	-1830
ann	-1831
ans	-1832
bur	-1833
dız	-1834
kar	-1835
sak	-1836
ven	-1837
zan	-1838
ıma	-1839
şey	-1840
▁bö	-1841
▁du	-1842
▁gü	-1843
▁ök	-1844
adık	-1845
caba	-1846
esiz	-1847
işah	-1848
oför	-1849
ımda	-1850
ışır	-1851
▁alb	-1852
▁atı	-1853
▁beğ	-1854
▁gi̇	-1855
▁hiz	-1856
▁kam	-1857
▁kir	-1858
▁kum	-1859
▁küp	-1860
▁laz	-1861
▁muz	-1862
▁sef	-1863
▁sil	-1864
▁tüm	-1865
▁yed	-1866
▁yut	-1867
▁zey	-1868
▁çif	-1869
▁öfk	-1870
▁şiş	-1871
anlar	-1872
ceğim	-1873
emeye	-1874
erler	-1875
mıyor	-1876
ümrük	-1877
ısına	-1878
▁alıp	-1879
▁anne	-1880
▁ateş	-1881
▁ağır	-1882
▁bazı	-1883
▁bilg	-1884
▁edil	-1885
▁fran	-1886
▁gerç	-1887
▁ince	-1888
▁iyil	-1889
▁pili	-1890
▁sesi	-1891
▁sıra	-1892
▁öldü	-1893
▁ısır	-1894
▁ışık	-1895
incisi	-1896
masını	-1897
▁acaba	-1898
▁aslan	-1899
▁beyaz	-1900
▁bulam	-1901
▁buyur	-1902
▁cümle	-1903
▁demek	-1904
▁demis	-1905
▁erken	-1906
▁filan	-1907
▁miyim	-1908
▁nasil	-1909
▁okula	-1910
▁pilot	-1911
▁sinem	-1912
▁teker	-1913
▁telaş	-1914
▁veren	-1915
▁yaban	-1916
▁yerde	-1917
▁şoför	-1918
vallahi	-1919
▁aferin	-1920
▁birşey	-1921
▁dakika	-1922
▁derece	-1923
▁doldur	-1924
▁gümrük	-1925
▁hizmet	-1926
▁oluyor	-1927
▁rahmet	-1928
▁satıcı	-1929
▁vermek	-1930
▁yandan	-1931
▁yemeye	-1932
▁yemeği	-1933
▁bakayım	-1934
▁elbette	-1935
▁evladım	-1936
▁eşekten	-1937
▁fransız	-1938
▁götürür	-1939
▁isteyen	-1940
▁olmamış	-1941
▁yanında	-1942
▁yapmaya	-1943
üyorsunuz	-1944
▁eşeğinin	-1945
▁herkesin	-1946
▁sinirlen	-1947
▁yolculuk	-1948
ıyorlarmış	-1949
▁bağırmaya	-1950
▁istiyorum	-1951
▁komşuları	-1952
▁konuşuyor	-1953
▁ayaklarını	-1954
▁hastanesinde	-1955
ih	-1956
mı	-1957
üb	-1958
alt	-1959
bak	-1960
dat	-1961
dün	-1962
eee	-1963
eze	-1964
hem	-1965
i̇m	-1966
laç	-1967
leş	-1968
nız	-1969
say	-1970
▁bm	-1971
▁id	-1972
▁im	-1973
▁os	-1974
▁pu	-1975
▁un	-1976
▁ün	-1977
amak	-1978
ayın	-1979
enir	-1980
ette	-1981
eviz	-1982
imin	-1983
kadı	-1984
mağa	-1985
sana	-1986
taki	-1987
tanı	-1988
ulan	-1989
umuz	-1990
▁bat	-1991
▁ciğ	-1992
▁dür	-1993
▁faz	-1994
▁hab	-1995
▁hor	-1996
▁ilg	-1997
▁i̇k	-1998
▁i̇ş	-1999
▁kok	-2000
▁mel	-2001
▁men	-2002
▁mil	-2003
▁mol	-2004
▁mut	-2005
▁pad	-2006
▁peş	-2007
▁reç	-2008
▁saç	-2009
▁çat	-2010
acağı	-2011
cağız	-2012
diniz	-2013
duğum	-2014
ehmet	-2015
eyrum	-2016
layan	-2017
lemek	-2018
masın	-2019
▁alış	-2020
▁aman	-2021
▁atar	-2022
▁fars	-2023
▁gölü	-2024
▁heye	-2025
▁koşu	-2026
▁kuru	-2027
▁okuy	-2028
▁sırt	-2029
▁tren	-2030
▁utan	-2031
▁vaaz	-2032
▁veri	-2033
▁yakl	-2034
▁zann	-2035
▁zeng	-2036
▁çarş	-2037
▁çift	-2038
▁ölür	-2039
cektim	-2040
larken	-2041
▁araba	-2042
▁ayağı	-2043
▁ağaca	-2044
▁babam	-2045
▁bakla	-2046
▁başar	-2047
▁belki	-2048
▁birde	-2049
▁dağıt	-2050
▁diyor	-2051
▁dönüp	-2052
▁düzel	-2053
▁elini	-2054
▁etmek	-2055
▁gazet	-2056
▁gener	-2057
▁geçti	-2058
▁indir	-2059
▁kahve	-2060
▁kalab	-2061
▁kasap	-2062
▁katır	-2063
▁olsay	-2064
▁sakal	-2065
▁sefer	-2066
▁tamir	-2067
▁varsa	-2068
▁yakal	-2069
▁ölmüş	-2070
▁öteki	-2071
▁şehir	-2072
evizyon	-2073
lerinin	-2074
▁akçeyi	-2075
▁amerik	-2076
▁birgün	-2077
▁burası	-2078
▁denize	-2079
▁dürüst	-2080
▁kapalı	-2081
▁kapısı	-2082
▁kapıya	-2083
▁kazanı	-2084
▁koymuş	-2085
▁kurtar	-2086
▁köyden	-2087
▁kızgın	-2088
▁meydan	-2089
▁parmak	-2090
▁pencer	-2091
▁sessiz	-2092
▁temeli	-2093
▁verdim	-2094
▁yalnız	-2095
▁yapmış	-2096
▁yıldız	-2097
▁çuvala	-2098
▁üstüne	-2099
▁altında	-2100
▁bunları	-2101
▁buradan	-2102
▁getirin	-2103
▁görevli	-2104
▁heyecan	-2105
▁karşıya	-2106
▁ormanda	-2107
▁padişah	-2108
▁vaziyet	-2109
▁vereyim	-2110
▁çaresiz	-2111
ıyorsunuz	-2112
▁babasına	-2113
▁elindeki	-2114
▁hanımına	-2115
▁karıştır	-2116
▁karşıdan	-2117
▁kasabaya	-2118
▁olabilir	-2119
▁sinemaya	-2120
▁kaldırmış	-2121
▁kaybettim	-2122
▁veriverir	-2123
▁çocuklara	-2124
▁bilmeyecek	-2125
▁televizyon	-2126
▁yürüyormuş	-2127
id	-2128
ye	-2129
ze	-2130
▁’	-2131
ast	-2132
ava	-2133
bil	-2134
dem	-2135
eçi	-2136
gah	-2137
i̇l	-2138
ura	-2139
üse	-2140
ınk	-2141
ızı	-2142
▁ab	-2143
▁ec	-2144
▁ku	-2145
▁kâ	-2146
▁ır	-2147
abil	-2148
ahat	-2149
ayla	-2150
gunu	-2151
imde	-2152
iyim	-2153
i̇i̇	-2154
onun	-2155
teri	-2156
ığım	-2157
ığın	-2158
▁500	-2159
▁acı	-2160
▁beb	-2161
▁buğ	-2162
▁cüb	-2163
▁dir	-2164
▁dua	-2165
▁erz	-2166
▁göm	-2167
▁haç	-2168
▁ked	-2169
▁res	-2170
▁riv	-2171
▁saz	-2172
▁seç	-2173
▁suç	-2174
▁sıv	-2175
▁sıç	-2176
▁tas	-2177
▁teş	-2178
▁til	-2179
▁yas	-2180
▁yir	-2181
▁önc	-2182
▁öyl	-2183
adaki	-2184
arıya	-2185
ağına	-2186
edeki	-2187
fendi	-2188
ilere	-2189
lacak	-2190
madım	-2191
makta	-2192
muyor	-2193
temel	-2194
▁anda	-2195
▁asıl	-2196
▁beri	-2197
▁beye	-2198
▁burn	-2199
▁fena	-2200
▁genç	-2201
▁göre	-2202
▁hadi	-2203
▁ilan	-2204
▁karn	-2205
▁kayn	-2206
▁kims	-2207
▁kişi	-2208
▁kuzu	-2209
▁kırk	-2210
▁otel	-2211
▁rast	-2212
▁taşı	-2213
▁yöne	-2214
▁yüzü	-2215
▁üzül	-2216
▁şaka	-2217
▁şeyi	-2218
acağız	-2219
ediğin	-2220
eyeyim	-2221
iyecek	-2222
tiğini	-2223
ılacak	-2224
ısında	-2225
▁annem	-2226
▁bakan	-2227
▁beğen	-2228
▁bilgi	-2229
▁biner	-2230
▁düdük	-2231
▁erkek	-2232
▁fadim	-2233
▁fazla	-2234
▁gidip	-2235
▁havuz	-2236
▁haydi	-2237
▁hepsi	-2238
▁ikram	-2239
▁ilerl	-2240
▁kağıt	-2241
▁kimse	-2242
▁kırık	-2243
▁madem	-2244
▁mahal	-2245
▁nefes	-2246
▁odaya	-2247
▁olduk	-2248
▁pişir	-2249
▁sanan	-2250
▁sesle	-2251
▁sirke	-2252
▁tabut	-2253
▁tarif	-2254
▁verin	-2255
▁yaptı	-2256
▁yavaş	-2257
▁yazar	-2258
▁yürüm	-2259
▁çavuş	-2260
▁üzere	-2261
▁üzgün	-2262
▁şükür	-2263
dakiler	-2264
layınca	-2265
seyerek	-2266
tığında	-2267
üyorlar	-2268
▁aklına	-2269
▁alacak	-2270
▁aynaya	-2271
▁bedava	-2272
▁birine	-2273
▁birini	-2274
▁deliye	-2275
▁durdur	-2276
▁duruma	-2277
▁fadime	-2278
▁farsça	-2279
▁geldim	-2280
▁geveze	-2281
▁hergün	-2282
▁istedi	-2283
▁içeris	-2284
▁işiten	-2285
▁kalmış	-2286
▁kağıdı	-2287
▁koltuğ	-2288
▁manava	-2289
▁mehmet	-2290
▁memnun	-2291
▁olunca	-2292
▁oradan	-2293
▁toplan	-2294
▁yıllar	-2295
▁yıllık	-2296
▁üçüncü	-2297
▁şaşkın	-2298
maktadır	-2299
▁anladım	-2300
▁aramaya	-2301
▁arkadan	-2302
▁biliyor	-2303
▁birinin	-2304
▁delinin	-2305
▁dostlar	-2306
▁erzurum	-2307
▁general	-2308
▁gerekir	-2309
▁giderek	-2310
▁kapının	-2311
▁müşteri	-2312
▁yumurta	-2313
▁ziyaret	-2314
▁çamaşır	-2315
▁allahtan	-2316
▁dersinde	-2317
▁dikkatli	-2318
▁doktorun	-2319
▁giderler	-2320
▁görmüyor	-2321
▁karşılık	-2322
▁günlerden	-2323
▁kalabalık	-2324
▁karşısına	-2325
▁kendisine	-2326
▁kendisini	-2327
▁otururken	-2328
▁seslenmiş	-2329
▁öğretmeni	-2330
▁aralarında	-2331
▁arkasından	-2332
▁karadenizl	-2333
▁olmadığını	-2334
▁arkadaşları	-2335
▁dayanamayıp	-2336
▁i̇çlerinden	-2337
▁gülümseyerek	-2338
cu	-2339
oh	-2340
ot	-2341
oğ	-2342
sk	-2343
tr	-2344
ân	-2345
üf	-2346
ıc	-2347
aly	-2348
bel	-2349
cın	-2350
dek	-2351
det	-2352
ebi	-2353
ekk	-2354
enn	-2355
fet	-2356
hoş	-2357
ina	-2358
inç	-2359
ire	-2360
ize	-2361
iğn	-2362
işe	-2363
kün	-2364
leğ	-2365
mal	-2366
mut	-2367
rat	-2368
▁50	-2369
▁pi	-2370
▁po	-2371
▁yu	-2372
▁şa	-2373
amet	-2374
anır	-2375
ağın	-2376
ebil	-2377
eder	-2378
ekli	-2379
eğim	-2380
henn	-2381
iydi	-2382
iyiz	-2383
lası	-2384
liğe	-2385
lığı	-2386
madı	-2387
sene	-2388
sini	-2389
taya	-2390
tayı	-2391
trol	-2392
uldu	-2393
uyum	-2394
ücük	-2395
üğün	-2396
ırım	-2397
▁biç	-2398
▁dök	-2399
▁evi	-2400
▁fat	-2401
▁fik	-2402
▁gem	-2403
▁kem	-2404
▁kep	-2405
▁kit	-2406
▁kop	-2407
▁muh	-2408
▁ney	-2409
▁rab	-2410
▁rüy	-2411
▁suy	-2412
▁tor	-2413
▁tık	-2414
▁ust	-2415
▁vap	-2416
▁vay	-2417
▁zıp	-2418
▁çeş	-2419
▁çır	-2420
ayrum	-2421
hayır	-2422
hekim	-2423
imizi	-2424
iymiş	-2425
lerle	-2426
madın	-2427
medim	-2428
menin	-2429
oblem	-2430
sanın	-2431
sınız	-2432
tırma	-2433
▁adet	-2434
▁adım	-2435
▁adın	-2436
▁aldı	-2437
▁bizi	-2438
▁ceza	-2439
▁düny	-2440
▁halk	-2441
▁hang	-2442
▁i̇yi	-2443
▁kime	-2444
▁konu	-2445
▁kuzi	-2446
▁maya	-2447
▁muay	-2448
▁okum	-2449
▁pire	-2450
▁sizi	-2451
▁tutt	-2452
▁türk	-2453
▁uyuy	-2454
▁uçak	-2455
▁çiğn	-2456
▁öküz	-2457
▁öldi	-2458
acağım	-2459
düğünü	-2460
ebilir	-2461
ememiş	-2462
larmış	-2463
liğini	-2464
masına	-2465
seydim	-2466
tığını	-2467
ısının	-2468
▁adını	-2469
▁aldın	-2470
▁ağrım	-2471
▁batır	-2472
▁belir	-2473
▁derin	-2474
▁derki	-2475
▁dokun	-2476
▁dostu	-2477
▁dönen	-2478
▁dövüş	-2479
▁eline	-2480
▁fiyat	-2481
▁gayet	-2482
▁girip	-2483
▁görem	-2484
▁görül	-2485
▁gözüm	-2486
▁hekim	-2487
▁işten	-2488
▁i̇şte	-2489
▁kabul	-2490
▁kalın	-2491
▁karış	-2492
▁kesil	-2493
▁molla	-2494
▁nerde	-2495
▁olmak	-2496
▁parça	-2497
▁sabun	-2498
▁salon	-2499
▁sebep	-2500
▁sorma	-2501
▁sıvaz	-2502
▁tabii	-2503
▁yanıt	-2504
▁yemiş	-2505
▁yüzme	-2506
▁çetin	-2507
esinden	-2508
▁adamla	-2509
▁bıldır	-2510
▁cehenn	-2511
▁cenaze	-2512
▁defter	-2513
▁demi̇ş	-2514
▁dönmüş	-2515
▁ediyor	-2516
▁etmeye	-2517
▁gözüne	-2518
▁kıymet	-2519
▁oğlunu	-2520
▁rotanı	-2521
▁sesini	-2522
▁sevinç	-2523
▁yapars	-2524
▁yokmuş	-2525
▁yorgan	-2526
▁zengin	-2527
▁çocuğu	-2528
▁önemli	-2529
ladıktan	-2530
mektedir	-2531
▁anlamlı	-2532
▁anlayan	-2533
▁bakıyor	-2534
▁bağırır	-2535
▁bulduğu	-2536
▁böylece	-2537
▁diyecek	-2538
▁evinden	-2539
▁gürültü	-2540
▁kontrol	-2541
▁kürsüye	-2542
▁misiniz	-2543
▁otobüse	-2544
▁problem	-2545
▁söyledi	-2546
▁söyleye	-2547
▁sırtına	-2548
▁uyandır	-2549
▁verdiği	-2550
▁yapacak	-2551
▁yapalım	-2552
▁çalınır	-2553
▁çıkarıp	-2554
▁önünden	-2555
▁bunların	-2556
▁ettikten	-2557
▁getirmiş	-2558
▁gezerken	-2559
▁geçerken	-2560
▁geçirmiş	-2561
▁kafasını	-2562
▁köylünün	-2563
▁oldugunu	-2564
▁yaklaşır	-2565
▁bakıyorum	-2566
▁beyefendi	-2567
▁bunlardan	-2568
▁bıldırcın	-2569
▁gidiyorum	-2570
▁görüyorum	-2571
▁komşusuna	-2572
▁sırasında	-2573
▁üzerinden	-2574
▁başlayınca	-2575
▁biliyorsun	-2576
▁geldiğinde	-2577
▁komşusundan	-2578
▁öğrencilerine	-2579
aj	-2580
fi	-2581
gr	-2582
ic	-2583
ii	-2584
pt	-2585
rr	-2586
şi	-2587
▁â	-2588
aaa	-2589
acı	-2590
asi	-2591
cez	-2592
di̇	-2593
eni	-2594
fat	-2595
gar	-2596
geç	-2597
gun	-2598
gıç	-2599
ile	-2600
ing	-2601
ist	-2602
i̇k	-2603
kem	-2604
kim	-2605
kin	-2606
laf	-2607
let	-2608
lul	-2609
mas	-2610
nin	-2611
oto	-2612
rak	-2613
ron	-2614
sik	-2615
sil	-2616
siy	-2617
tiş	-2618
çoc	-2619
ğul	-2620
▁12	-2621
▁kı	-2622
▁us	-2623
▁öp	-2624
akal	-2625
arın	-2626
ates	-2627
aval	-2628
ayum	-2629
azen	-2630
dayı	-2631
diği	-2632
dris	-2633
edum	-2634
emek	-2635
eyip	-2636
gara	-2637
ilen	-2638
inip	-2639
iğim	-2640
lahi	-2641
lama	-2642
ması	-2643
mi̇ş	-2644
urat	-2645
uğum	-2646
uğun	-2647
ırla	-2648
▁alç	-2649
▁ata	-2650
▁ayr	-2651
▁ban	-2652
▁böl	-2653
▁daa	-2654
▁düz	-2655
▁ekm	-2656
▁giz	-2657
▁gök	-2658
▁hes	-2659
▁huz	-2660
▁işi	-2661
▁keş	-2662
▁kov	-2663
▁köş	-2664
▁laf	-2665
▁lan	-2666
▁müm	-2667
▁num	-2668
▁pah	-2669
▁pam	-2670
▁pey	-2671
▁piş	-2672
▁ren	-2673
▁sel	-2674
▁süz	-2675
▁tep	-2676
▁tey	-2677
▁tez	-2678
▁çik	-2679
▁ölç	-2680
▁ölü	-2681
▁öne	-2682
▁şık	-2683
aliba	-2684
arlar	-2685
cılar	-2686
cığım	-2687
diler	-2688
diven	-2689
dılar	-2690
ekkür	-2691
inizi	-2692
larla	-2693
latır	-2694
lendi	-2695
lenin	-2696
lerim	-2697
saret	-2698
veriş	-2699
çocuk	-2700
ürler	-2701
ınızı	-2702
ıymış	-2703
▁altı	-2704
▁amel	-2705
▁anon	-2706
▁arar	-2707
▁arka	-2708
▁arız	-2709
▁ayrı	-2710
▁açar	-2711
▁ağrı	-2712
▁başı	-2713
▁cübb	-2714
▁cüml	-2715
▁dağı	-2716
▁dolu	-2717
▁edin	-2718
▁elma	-2719
▁foto	-2720
▁hakl	-2721
▁hala	-2722
▁iken	-2723
▁ilaç	-2724
▁itir	-2725
▁izin	-2726
▁kara	-2727
▁maçı	-2728
▁olup	-2729
▁oyun	-2730
▁salı	-2731
▁suyu	-2732
▁tası	-2733
▁test	-2734
▁uzak	-2735
▁zenc	-2736
▁çeng	-2737
▁ödev	-2738
▁ötek	-2739
▁şuna	-2740
cağını	-2741
eceğiz	-2742
gilter	-2743
ilerim	-2744
indeki	-2745
isinin	-2746
kardeş	-2747
mesine	-2748
sonlar	-2749
▁annec	-2750
▁açmış	-2751
▁basın	-2752
▁bazen	-2753
▁biçim	-2754
▁canım	-2755
▁durur	-2756
▁düşür	-2757
▁eksik	-2758
▁evden	-2759
▁garip	-2760
▁gelin	-2761
▁hafif	-2762
▁hancı	-2763
▁harit	-2764
▁hatta	-2765
▁haçan	-2766
▁helva	-2767
▁ileri	-2768
▁inmiş	-2769
▁kaldı	-2770
▁kanat	-2771
▁keser	-2772
▁kocas	-2773
▁kopar	-2774
▁metre	-2775
▁miyav	-2776
▁neler	-2777
▁oraya	-2778
▁osman	-2779
▁pilav	-2780
▁rabbi	-2781
▁saate	-2782
▁sakın	-2783
▁satar	-2784
▁savaş	-2785
▁sayın	-2786
▁sonuç	-2787
▁tilki	-2788
▁turşu	-2789
▁unutk	-2790
▁uğraş	-2791
▁uşaka	-2792
▁vapur	-2793
▁yarım	-2794
▁yatak	-2795
▁yazıp	-2796
▁yetiş	-2797
▁yirmi	-2798
▁zaval	-2799
▁çalın	-2800
▁çıkıp	-2801
▁üstüm	-2802
acağını	-2803
edikten	-2804
ilerden	-2805
▁balığa	-2806
▁beklem	-2807
▁bildir	-2808
▁bilmem	-2809
▁bilmez	-2810
▁bindir	-2811
▁boşalt	-2812
▁bundan	-2813
▁duvara	-2814
▁dükkan	-2815
▁düşünc	-2816
▁edecez	-2817
▁edilir	-2818
▁galiba	-2819
▁geldik	-2820
▁gitmek	-2821
▁giymiş	-2822
▁haberi	-2823
▁hediye	-2824
▁i̇nsan	-2825
▁kaybol	-2826
▁koltuk	-2827
▁kurdun	-2828
▁kuyuya	-2829
▁masada	-2830
▁mayası	-2831
▁mektup	-2832
▁meleğe	-2833
▁meyhan	-2834
▁mümkün	-2835
▁olursa	-2836
▁otobüs	-2837
▁oturan	-2838
▁oğluna	-2839
▁pahalı	-2840
▁sebebi	-2841
▁subaşı	-2842
▁tavşan	-2843
▁tembel	-2844
▁tencer	-2845
▁tutmuş	-2846
▁verdum	-2847
▁yazmam	-2848
▁yemeğe	-2849
▁yoldan	-2850
▁zanned	-2851
▁çiftçi	-2852
▁çiviyi	-2853
lamışlar	-2854
▁adamdan	-2855
▁anlamak	-2856
▁ayağına	-2857
▁ağaçtan	-2858
▁bilirim	-2859
▁borcunu	-2860
▁bulunan	-2861
▁bırakır	-2862
▁cennete	-2863
▁duyulur	-2864
▁dönüyor	-2865
▁ingiliz	-2866
▁kahveye	-2867
▁kalksın	-2868
▁kendime	-2869
▁kocaman	-2870
▁konuşma	-2871
▁koyulur	-2872
▁kıyamet	-2873
▁motorla	-2874
▁odasına	-2875
▁okuldan	-2876
▁oldukça	-2877
▁sinirli	-2878
▁sözleri	-2879
▁sürekli	-2880
▁çalışan	-2881
▁çuvalın	-2882
▁öyleyse	-2883
▁üstünde	-2884
▁şaşırır	-2885
iyorlardı	-2886
▁ameliyat	-2887
▁annesine	-2888
▁arkasına	-2889
▁arızalan	-2890
▁bağırmış	-2891
▁başhekim	-2892
▁bilmiyor	-2893
▁değildir	-2894
▁ediyorum	-2895
▁hayırdır	-2896
▁karısına	-2897
▁kenarına	-2898
▁kulağını	-2899
▁merdiven	-2900
▁parçalar	-2901
▁sahibine	-2902
▁sakalını	-2903
▁seslenir	-2904
▁sevinçle	-2905
▁tanıdığı	-2906
▁teşekkür	-2907
▁verdiğim	-2908
▁verirken	-2909
▁yaparlar	-2910
▁çorbanız	-2911
▁çıkarken	-2912
arkadaşlar	-2913
iyorlarmış	-2914
▁alışveriş	-2915
▁anlatmaya	-2916
▁anlayınca	-2917
▁babacığım	-2918
▁baktıktan	-2919
▁delilerin	-2920
▁dürüstlük	-2921
▁düşünerek	-2922
▁gerçekten	-2923
▁gitmişler	-2924
▁gözlerini	-2925
▁hanımının	-2926
▁heyecanlı	-2927
▁sahibinin	-2928
▁vaziyette	-2929
▁çıkmışlar	-2930
▁şikâyetçi	-2931
▁etmektedir	-2932
▁içerisinde	-2933
▁yapıştırır	-2934
▁başlamışlar	-2935
▁söylüyorsun	-2936
50	-2937
kk	-2938
ğı	-2939
▁j	-2940
aba	-2941
abz	-2942
ang	-2943
ban	-2944
cih	-2945
dey	-2946
değ	-2947
ehr	-2948
fır	-2949
ica	-2950
iri	-2951
ite	-2952
i̇r	-2953
kel	-2954
ley	-2955
lüğ	-2956
min	-2957
muz	-2958
mıs	-2959
oğu	-2960
pek	-2961
rik	-2962
tas	-2963
urt	-2964
yüz	-2965
çok	-2966
üph	-2967
üsü	-2968
üğü	-2969
▁13	-2970
▁25	-2971
▁ho	-2972
▁if	-2973
▁of	-2974
▁sp	-2975
▁st	-2976
▁tl	-2977
ayak	-2978
bire	-2979
bula	-2980
bunu	-2981
düğü	-2982
edes	-2983
eket	-2984
enen	-2985
eri̇	-2986
eğer	-2987
gini	-2988
ilik	-2989
iliğ	-2990
işey	-2991
laka	-2992
mesi	-2993
reyi	-2994
tara	-2995
tarı	-2996
ucum	-2997
udan	-2998
udur	-2999
ukat	-3000
urur	-3001
uvar	-3002
ünüz	-3003
ğraf	-3004
ıydı	-3005
▁200	-3006
▁afa	-3007
▁ahb	-3008
▁bis	-3009
▁bük	-3010
▁cam	-3011
▁diz	-3012
▁don	-3013
▁eee	-3014
▁eti	-3015
▁etk	-3016
▁eşi	-3017
▁fin	-3018
▁hin	-3019
▁idi	-3020
▁ipi	-3021
▁izl	-3022
▁ker	-3023
▁kus	-3024
▁kıl	-3025
▁kıp	-3026
▁mor	-3027
▁pis	-3028
▁rüz	-3029
▁sap	-3030
▁sek	-3031
▁sim	-3032
▁siv	-3033
▁siy	-3034
▁soy	-3035
▁sus	-3036
▁sön	-3037
▁toz	-3038
▁tör	-3039
▁tıp	-3040
▁uyy	-3041
▁yam	-3042
▁zar	-3043
▁zek	-3044
▁çür	-3045
▁şak	-3046
▁şap	-3047
▁şun	-3048
▁şur	-3049
ahmet	-3050
angoz	-3051
ansör	-3052
asyon	-3053
benim	-3054
ceğiz	-3055
cının	-3056
dunuz	-3057
dınız	-3058
eceği	-3059
ektaş	-3060
elere	-3061
endir	-3062
iyeye	-3063
iyler	-3064
lamak	-3065
landı	-3066
lardı	-3067
lenir	-3068
lıkla	-3069
mamak	-3070
mesin	-3071
müyor	-3072
oğlum	-3073
senin	-3074
tihan	-3075
ürken	-3076
ımızı	-3077
▁ahir	-3078
▁ahır	-3079
▁aram	-3080
▁arap	-3081
▁atın	-3082
▁avuc	-3083
▁açıl	-3084
▁ağac	-3085
▁benz	-3086
▁berb	-3087
▁düşü	-3088
▁ekşi	-3089
▁emri	-3090
▁erim	-3091
▁eyüp	-3092
▁ezan	-3093
▁gene	-3094
▁isim	-3095
▁karı	-3096
▁kepç	-3097
▁keçi	-3098
▁kuyu	-3099
▁köpr	-3100
▁neye	-3101
▁okun	-3102
▁oldi	-3103
▁orad	-3104
▁oğul	-3105
▁plan	-3106
▁renk	-3107
▁sağa	-3108
▁sonr	-3109
▁söze	-3110
▁taha	-3111
▁topr	-3112
▁uyum	-3113
▁uyur	-3114
▁uşak	-3115
▁uşağ	-3116
▁yaşl	-3117
▁çekt	-3118
▁çivi	-3119
▁öğüt	-3120
▁ünlü	-3121
▁şüph	-3122
apları	-3123
ceksin	-3124
cektir	-3125
fettiş	-3126
iyatro	-3127
lenmiş	-3128
lerken	-3129
leştir	-3130
mesini	-3131
mıştır	-3132
pekiyi	-3133
suzluk	-3134
uyorum	-3135
▁albay	-3136
▁anons	-3137
▁armut	-3138
▁bacak	-3139
▁bakın	-3140
▁bilen	-3141
▁bişey	-3142
▁bozuk	-3143
▁buldu	-3144
▁bunda	-3145
▁değer	-3146
▁doğur	-3147
▁duran	-3148
▁dönüş	-3149
▁fikir	-3150
▁filmi	-3151
▁gardr	-3152
▁gediğ	-3153
▁gördü	-3154
▁görüş	-3155
▁gülüş	-3156
▁hayal	-3157
▁hâlde	-3158
▁hızla	-3159
▁idrar	-3160
▁ikisi	-3161
▁ikiye	-3162
▁ilgil	-3163
▁incel	-3164
▁içine	-3165
▁kalan	-3166
▁kesin	-3167
▁keşke	-3168
▁konya	-3169
▁koyul	-3170
▁koşup	-3171
▁kuşun	-3172
▁köyde	-3173
▁memur	-3174
▁mesaj	-3175
▁mısın	-3176
▁numar	-3177
▁olmas	-3178
▁pamuk	-3179
▁papag	-3180
▁papaz	-3181
▁penum	-3182
▁reçet	-3183
▁serin	-3184
▁sokak	-3185
▁sözüm	-3186
▁sıfır	-3187
▁sıkın	-3188
▁tabak	-3189
▁tabur	-3190
▁takıl	-3191
▁tekme	-3192
▁tokat	-3193
▁topar	-3194
▁trabz	-3195
▁tutul	-3196
▁valla	-3197
▁vefat	-3198
▁yakın	-3199
▁yerim	-3200
▁yuvar	-3201
▁yılan	-3202
▁zenci	-3203
▁ziyaf	-3204
▁ziyar	-3205
▁çeker	-3206
▁çıkan	-3207
▁çıktı	-3208
▁şıkır	-3209
larının	-3210
layacak	-3211
uyorsun	-3212
▁afacan	-3213
▁akçeye	-3214
▁akıllı	-3215
▁akşama	-3216
▁alarak	-3217
▁alırım	-3218
▁arkaya	-3219
▁asılır	-3220
▁avukat	-3221
▁açarak	-3222
▁baktım	-3223
▁bağdat	-3224
▁bektaş	-3225
▁bindin	-3226
▁bunlar	-3227
▁camide	-3228
▁dalgın	-3229
▁damdan	-3230
▁dinlem	-3231
▁dolayı	-3232
▁durmuş	-3233
▁dükkân	-3234
▁gelmez	-3235
▁gittiğ	-3236
▁gördüm	-3237
▁görevl	-3238
▁havuza	-3239
▁hocası	-3240
▁ikinci	-3241
▁iyileş	-3242
▁işaret	-3243
▁kalkıp	-3244
▁kapağı	-3245
▁kaptan	-3246
▁kediyi	-3247
▁kendin	-3248
▁kesmiş	-3249
▁komşum	-3250
▁korkut	-3251
▁kurban	-3252
▁memlek	-3253
▁müşter	-3254
▁nerden	-3255
▁okulda	-3256
▁olmadı	-3257
▁olmalı	-3258
▁olmaya	-3259
▁onlara	-3260
▁ortaya	-3261
▁oturur	-3262
▁sarhoş	-3263
▁sokağa	-3264
▁sordun	-3265
▁sınava	-3266
▁temizl	-3267
▁tercih	-3268
▁tutmaz	-3269
▁unutur	-3270
▁uykuya	-3271
▁yanmış	-3272
▁yargıç	-3273
▁yazmış	-3274
▁yöntem	-3275
▁zeytin	-3276
▁önceki	-3277
▁şeyler	-3278
abiliriz	-3279
amıyorum	-3280
hayırdır	-3281
mıyorsun	-3282
▁alırken	-3283
▁arabası	-3284
▁asansör	-3285
▁bakarak	-3286
▁baklava	-3287
▁baltayı	-3288
▁bağırıp	-3289
▁başında	-3290
▁benimle	-3291
▁binerek	-3292
▁cemaate	-3293
▁cesaret	-3294
▁denizin	-3295
▁değişir	-3296
▁dönünce	-3297
▁düşündü	-3298
▁ederken	-3299
▁elinden	-3300
▁gelirse	-3301
▁gidelim	-3302
▁gidince	-3303
▁gittiği	-3304
▁gözleri	-3305
▁haberim	-3306
▁hepiniz	-3307
▁hepsini	-3308
▁ihtiyac	-3309
▁istedim	-3310
▁istediğ	-3311
▁içeriye	-3312
▁kaşıkla	-3313
▁kendisi	-3314
▁koşmaya	-3315
▁olmayan	-3316
▁patates	-3317
▁sesleri	-3318
▁seyahat	-3319
▁sohbeti	-3320
▁sokakta	-3321
▁sorunum	-3322
▁tahtaya	-3323
▁tanıdık	-3324
▁temelle	-3325
▁tiyatro	-3326
▁vallahi	-3327
▁vererek	-3328
▁vermeye	-3329
▁yabancı	-3330
▁yakalan	-3331
▁yapayım	-3332
▁yapıyor	-3333
▁yiyecek	-3334
▁zavallı	-3335
▁çocuğum	-3336
▁çıkarır	-3337
▁şaşıran	-3338
▁şikayet	-3339
▁ayakları	-3340
▁bilirsin	-3341
▁bilmeyen	-3342
▁cevaplar	-3343
▁diğerine	-3344
▁dursunun	-3345
▁dışarıya	-3346
▁eşeğimin	-3347
▁fotoğraf	-3348
▁gediğine	-3349
▁geçmeden	-3350
▁geçmekte	-3351
▁görenler	-3352
▁hayvanat	-3353
▁istersin	-3354
▁kayseril	-3355
▁marangoz	-3356
▁müfettiş	-3357
▁papağanı	-3358
▁pastırma	-3359
▁söyleyin	-3360
▁sıkıştır	-3361
▁verirler	-3362
▁verirsen	-3363
▁yaparsın	-3364
▁yürümeye	-3365
▁zamandır	-3366
▁çıkarlar	-3367
▁öldürmüş	-3368
▁öğrenmiş	-3369
▁anneciğim	-3370
▁arkadaşım	-3371
▁arkasında	-3372
▁birincisi	-3373
▁cehenneme	-3374
▁dolaşmaya	-3375
▁hastasına	-3376
▁kaybetmiş	-3377
▁komutanım	-3378
▁vereceğim	-3379
▁çocukları	-3380
▁bekliyorum	-3381
▁birdenbire	-3382
▁diyecektim	-3383
▁düşünmeden	-3384
▁gidiyorsun	-3385
▁göstererek	-3386
▁gülüyorsun	-3387
▁istediğini	-3388
▁misafirler	-3389
▁parmağınız	-3390
▁pencereden	-3391
▁unutkanlık	-3392
▁çocukların	-3393
▁arkadaşının	-3394
▁başlamıştır	-3395
▁dayanamamış	-3396
▁karşılaşmış	-3397
▁dediklerinde	-3398
▁istiyorsunuz	-3399
▁karşılaştığı	-3400
▁karşısındaki	-3401
hş	-3402
ib	-3403
oç	-3404
yo	-3405
akl	-3406
ani	-3407
ata	-3408
aşa	-3409
bab	-3410
bar	-3411
boş	-3412
cik	-3413
cık	-3414
del	-3415
düt	-3416
eis	-3417
evs	-3418
fen	-3419
gel	-3420
las	-3421
naz	-3422
net	-3423
ort	-3424
pat	-3425
sat	-3426
sel	-3427
ska	-3428
sor	-3429
ton	-3430
tuk	-3431
tün	-3432
var	-3433
vet	-3434
üyü	-3435
ızr	-3436
ışı	-3437
şek	-3438
şum	-3439
▁fi	-3440
▁he	-3441
▁le	-3442
▁ma	-3443
▁sö	-3444
▁ül	-3445
abın	-3446
adam	-3447
arda	-3448
arkı	-3449
cağı	-3450
ceği	-3451
cıya	-3452
dana	-3453
deli	-3454
deye	-3455
ebaş	-3456
erif	-3457
esip	-3458
etle	-3459
eyla	-3460
hemş	-3461
inca	-3462
iver	-3463
iyum	-3464
lari	-3465
liği	-3466
lığa	-3467
mana	-3468
memi	-3469
meyi	-3470
mızı	-3471
olur	-3472
ptal	-3473
rafa	-3474
rail	-3475
resi	-3476
rola	-3477
sine	-3478
skoç	-3479
udum	-3480
ukur	-3481
zacı	-3482
örek	-3483
ülür	-3484
üstü	-3485
ütük	-3486
üyle	-3487
ıyan	-3488
▁aff	-3489
▁ana	-3490
▁art	-3491
▁arz	-3492
▁ayş	-3493
▁bol	-3494
▁cad	-3495
▁caf	-3496
▁cim	-3497
▁dum	-3498
▁ein	-3499
▁evl	-3500
▁fas	-3501
▁fay	-3502
▁giş	-3503
▁güc	-3504
▁ham	-3505
▁hop	-3506
▁hıy	-3507
▁ine	-3508
▁ipe	-3509
▁jür	-3510
▁kut	-3511
▁kış	-3512
▁lüt	-3513
▁mal	-3514
▁muy	-3515
▁nal	-3516
▁nur	-3517
▁ola	-3518
▁pak	-3519
▁per	-3520
▁piz	-3521
▁rad	-3522
▁sis	-3523
▁süt	-3524
▁sığ	-3525
▁taz	-3526
▁tef	-3527
▁yeş	-3528
▁yör	-3529
▁çim	-3530
▁çor	-3531
▁ögr	-3532
aktan	-3533
alığı	-3534
arsak	-3535
aştır	-3536
cedes	-3537
dasın	-3538
derel	-3539
ebini	-3540
ecekt	-3541
enize	-3542
esene	-3543
etmez	-3544
evsim	-3545
eğini	-3546
gahta	-3547
halde	-3548
hemen	-3549
irdeğ	-3550
irmen	-3551
ivers	-3552
izliğ	-3553
i̇li̇	-3554
i̇şte	-3555
lamız	-3556
larsa	-3557
likle	-3558
lında	-3559
meyen	-3560
ormal	-3561
rafik	-3562
stein	-3563
tanın	-3564
timal	-3565
tmi̇ş	-3566
tınız	-3567
ulduğ	-3568
usunu	-3569
uştur	-3570
yorum	-3571
çiyim	-3572
ılmaz	-3573
ımdan	-3574
▁1000	-3575
▁amir	-3576
▁avuç	-3577
▁ayın	-3578
▁ayır	-3579
▁bekç	-3580
▁boya	-3581
▁bran	-3582
▁burc	-3583
▁böyl	-3584
▁cuma	-3585
▁dehş	-3586
▁emin	-3587
▁erik	-3588
▁eşya	-3589
▁gönl	-3590
▁güle	-3591
▁hapı	-3592
▁harc	-3593
▁harf	-3594
▁hele	-3595
▁imam	-3596
▁işin	-3597
▁i̇st	-3598
▁kalb	-3599
▁kana	-3600
▁kata	-3601
▁kova	-3602
▁koşa	-3603
▁kurş	-3604
▁kâğı	-3605
▁mızr	-3606
▁olun	-3607
▁poyn	-3608
▁rece	-3609
▁reis	-3610
▁rica	-3611
▁sanc	-3612
▁stad	-3613
▁sust	-3614
▁tarz	-3615
▁tatl	-3616
▁tura	-3617
▁usul	-3618
▁uyar	-3619
▁uğur	-3620
▁vakt	-3621
▁vura	-3622
▁yana	-3623
▁yetk	-3624
▁yürü	-3625
▁âdet	-3626
▁çalı	-3627
▁çant	-3628
▁çoğu	-3629
▁öder	-3630
▁önde	-3631
▁önün	-3632
▁özür	-3633
▁öğle	-3634
▁üstü	-3635
alarda	-3636
diğini	-3637
duktan	-3638
edeyse	-3639
elerde	-3640
emedim	-3641
encere	-3642
haneye	-3643
ilerin	-3644
ininin	-3645
isiyle	-3646
keleti	-3647
komşum	-3648
ladığı	-3649
laması	-3650
larlar	-3651
lasına	-3652
laştır	-3653
liğine	-3654
lıktan	-3655
lığını	-3656
ulacak	-3657
çasına	-3658
ıverir	-3659
ışında	-3660
▁aldır	-3661
▁anlad	-3662
▁aptal	-3663
▁atlam	-3664
▁atlar	-3665
▁baban	-3666
▁bacağ	-3667
▁baktı	-3668
▁bakış	-3669
▁barış	-3670
▁basar	-3671
▁bebek	-3672
▁binen	-3673
▁bizde	-3674
▁bizum	-3675
▁bi̇tt	-3676
▁borcu	-3677
▁boğaz	-3678
▁bulup	-3679
▁cenaz	-3680
▁ciğer	-3681
▁dağın	-3682
▁dedim	-3683
▁dedin	-3684
▁dediğ	-3685
▁dilek	-3686
▁duruş	-3687
▁dönem	-3688
▁düşen	-3689
▁eczan	-3690
▁eller	-3691
▁ettiğ	-3692
▁giren	-3693
▁giyer	-3694
▁güven	-3695
▁haklı	-3696
▁herif	-3697
▁horoz	-3698
▁hoşaf	-3699
▁huzur	-3700
▁ishal	-3701
▁istan	-3702
▁içmiş	-3703
▁i̇mad	-3704
▁katta	-3705
▁kavuk	-3706
▁kaçan	-3707
▁kaçır	-3708
▁kesip	-3709
▁kitap	-3710
▁komad	-3711
▁koyar	-3712
▁kulağ	-3713
▁köprü	-3714
▁kütük	-3715
▁kıpır	-3716
▁kızıl	-3717
▁lazım	-3718
▁leyla	-3719
▁lokan	-3720
▁meğer	-3721
▁murat	-3722
▁mıdır	-3723
▁nasul	-3724
▁neydi	-3725
▁odaci	-3726
▁okuma	-3727
▁olana	-3728
▁oralı	-3729
▁orası	-3730
▁orhan	-3731
▁pasta	-3732
▁prize	-3733
▁sahip	-3734
▁sahte	-3735
▁sekiz	-3736
▁silah	-3737
▁sivri	-3738
▁soran	-3739
▁sıkıl	-3740
▁takip	-3741
▁tanim	-3742
▁tavan	-3743
▁tavuk	-3744
▁taşın	-3745
▁teyze	-3746
▁torun	-3747
▁tuzlu	-3748
▁türkü	-3749
▁uygun	-3750
▁uğrar	-3751
▁vakti	-3752
▁varmı	-3753
▁varır	-3754
▁yarar	-3755
▁yasak	-3756
▁yokuş	-3757
▁zehir	-3758
▁çadır	-3759
▁çukur	-3760
▁çörek	-3761
▁çözüm	-3762
▁önden	-3763
▁üzümü	-3764
adığını	-3765
alardan	-3766
amazsın	-3767
amışlar	-3768
amıştır	-3769
diğinde	-3770
dukları	-3771
eceksin	-3772
ecektir	-3773
larınız	-3774
lasının	-3775
masıyla	-3776
mayayım	-3777
tıkları	-3778
ulduğum	-3779
ılmıştı	-3780
▁altını	-3781
▁arkada	-3782
▁ayaklı	-3783
▁azrail	-3784
▁açılır	-3785
▁açınca	-3786
▁ağacın	-3787
▁ağzına	-3788
▁baklav	-3789
▁bardak	-3790
▁baston	-3791
▁batıya	-3792
▁bayrak	-3793
▁başlam	-3794
▁belirt	-3795
▁beyler	-3796
▁boşuna	-3797
▁buldum	-3798
▁buğday	-3799
▁cebime	-3800
▁davacı	-3801
▁davalı	-3802
▁deliyi	-3803
▁derhal	-3804
▁derste	-3805
▁dolabı	-3806
▁doğuya	-3807
▁duymuş	-3808
▁düzelt	-3809
▁düştüğ	-3810
▁eczacı	-3811
▁ederek	-3812
▁ederim	-3813
▁edince	-3814
▁ekmeği	-3815
▁elbise	-3816
▁etrafa	-3817
▁evinde	-3818
▁fincan	-3819
▁fırsat	-3820
▁fırtın	-3821
▁gerçek	-3822
▁gitsin	-3823
▁gömleğ	-3824
▁görmek	-3825
▁gürült	-3826
▁halkın	-3827
▁hayret	-3828
▁hoşuna	-3829
▁hâlini	-3830
▁itiraz	-3831
▁i̇skoç	-3832
▁i̇stan	-3833
▁kalmaz	-3834
▁kamyon	-3835
▁kapıda	-3836
▁kaşığı	-3837
▁kocası	-3838
▁koşsam	-3839
▁kurnaz	-3840
▁kusura	-3841
▁kuyruk	-3842
▁köyüne	-3843
▁kırmış	-3844
▁kırtas	-3845
▁lütfen	-3846
▁mahkem	-3847
▁memuru	-3848
▁meslek	-3849
▁mevsim	-3850
▁milyon	-3851
▁nereli	-3852
▁olmasa	-3853
▁olması	-3854
▁paraya	-3855
▁patron	-3856
▁pirinç	-3857
▁ressam	-3858
▁reçete	-3859
▁saatte	-3860
▁saklan	-3861
▁sallar	-3862
▁saniye	-3863
▁sağına	-3864
▁seyred	-3865
▁sigara	-3866
▁soluna	-3867
▁sormus	-3868
▁soruya	-3869
▁suçsuz	-3870
▁söyley	-3871
▁sözünü	-3872
▁sınavı	-3873
▁sınıfa	-3874
▁tahmin	-3875
▁takdir	-3876
▁tambur	-3877
▁tamirc	-3878
▁tanesi	-3879
▁tarafa	-3880
▁tavuğu	-3881
▁tezgah	-3882
▁tokadı	-3883
▁trafik	-3884
▁tuttun	-3885
▁tırman	-3886
▁uzatır	-3887
▁versin	-3888
▁vurdum	-3889
▁yapmak	-3890
▁yapmiş	-3891
▁yerini	-3892
▁yoktum	-3893
▁yorgun	-3894
▁yüzüne	-3895
▁yüzünü	-3896
▁çaldır	-3897
▁çekmiş	-3898
▁çektir	-3899
▁çoktan	-3900
▁çıkart	-3901
▁çıkmaz	-3902
▁ölünce	-3903
▁üstünü	-3904
▁şükred	-3905
abilirim	-3906
asındaki	-3907
ebaşları	-3908
▁adamsın	-3909
▁altıncı	-3910
▁anlamış	-3911
▁aşağıda	-3912
▁bakınca	-3913
▁başucum	-3914
▁bilelim	-3915
▁birinci	-3916
▁bizimki	-3917
▁bozuldu	-3918
▁bulamaz	-3919
▁bulunur	-3920
▁buyurun	-3921
▁bırakıp	-3922
▁cemalin	-3923
▁demişti	-3924
▁dokuzda	-3925
▁doğurdu	-3926
▁dükkana	-3927
▁efendum	-3928
▁etmeden	-3929
▁etmeyin	-3930
▁gazetec	-3931
▁gelerek	-3932
▁geçirir	-3933
▁giriyor	-3934
▁görülen	-3935
▁görünür	-3936
▁görüyor	-3937
▁güneşin	-3938
▁güzelce	-3939
▁hanımın	-3940
▁hemşire	-3941
▁heybeyi	-3942
▁ihtimal	-3943
▁ihtiyar	-3944
▁imtihan	-3945
▁insanın	-3946
▁istemez	-3947
▁içeride	-3948
▁i̇kinci	-3949
▁kadılık	-3950
▁kadının	-3951
▁kalacak	-3952
▁kalkmış	-3953
▁kapıdan	-3954
▁kendimi	-3955
▁kişiyiz	-3956
▁konuşan	-3957
▁koşarak	-3958
▁köylüye	-3959
▁küçücük	-3960
▁olmasın	-3961
▁olsaydı	-3962
▁onlarda	-3963
▁onların	-3964
▁seninle	-3965
▁sesiyle	-3966
▁sorular	-3967
▁sıkılan	-3968
▁taburcu	-3969
▁takıldı	-3970
▁tamirci	-3971
▁tavşanı	-3972
▁tersine	-3973
▁trabzon	-3974
▁veremem	-3975
▁veriyor	-3976
▁yakalar	-3977
▁yaptığı	-3978
▁yazıver	-3979
▁yazıyor	-3980
▁yerinde	-3981
▁çağırıp	-3982
▁çevirir	-3983
▁çorbayı	-3984
▁çıkınca	-3985
▁çıkışır	-3986
▁öfkeyle	-3987
▁ünivers	-3988
▁şunları	-3989
giltereye	-3990
▁akçeleri	-3991
▁alacağım	-3992
▁altından	-3993
▁amerikan	-3994
▁anlatmış	-3995
▁annesini	-3996
▁bakarken	-3997
▁başarılı	-3998
▁belediye	-3999
▁dağıstan	-4000
▁delikten	-4001
▁delileri	-4002
▁dinleyen	-4003
▁einstein	-4004
▁gişedeki	-4005
▁gi̇tmi̇ş	-4006
▁hakkında	-4007
▁hastalan	-4008
▁hayvanın	-4009
▁hırsızın	-4010
▁ikincisi	-4011
▁insanlar	-4012
▁iskeleti	-4013
▁izlemeye	-4014
▁kaldırır	-4015
▁kalırlar	-4016
▁kapısını	-4017
▁karanlık	-4018
▁kendiler	-4019
▁kimsenin	-4020
▁komşunun	-4021
▁korkudan	-4022
▁mercedes	-4023
▁nerenize	-4024
▁niyetini	-4025
▁pazardan	-4026
▁sebepten	-4027
▁seslendi	-4028
▁sıkılmış	-4029
▁tarafına	-4030
▁tuhafiye	-4031
▁vermeden	-4032
▁vermemiş	-4033
▁yanıtlar	-4034
▁yardımcı	-4035
▁yaylamız	-4036
▁yürürken	-4037
▁zamanlar	-4038
▁ziyarete	-4039
▁çekirdeğ	-4040
▁çıkarmış	-4041
▁annesinin	-4042
▁arkadaşın	-4043
▁babasının	-4044
▁bacaklara	-4045
▁bakmışlar	-4046
▁biliyorum	-4047
▁bulmuşlar	-4048
▁bulunduğu	-4049
▁defasında	-4050
▁dilenciye	-4051
▁düşüverir	-4052
▁farketmez	-4053
▁geldiğini	-4054
▁gideceğiz	-4055
▁gittikten	-4056
▁görmüşler	-4057
▁gümrükten	-4058
▁içerisine	-4059
▁i̇nsanlar	-4060
▁kapısında	-4061
▁komşusunu	-4062
▁koymuşlar	-4063
▁kuyruğunu	-4064
▁kıymetini	-4065
▁neredeyse	-4066
▁neresinde	-4067
▁soruların	-4068
▁süzdükten	-4069
▁tiyatroya	-4070
▁toplanmış	-4071
▁vermişler	-4072
▁yapılacak	-4073
▁çalmışlar	-4074
▁çıkararak	-4075
▁çıktıktan	-4076
▁şaşırarak	-4077
▁bahçesinde	-4078
▁dokunsanız	-4079
▁düşünceler	-4080
▁içlerinden	-4081
▁mahallenin	-4082
▁meydanında	-4083
▁sinirlenir	-4084
▁talimgahta	-4085
▁tanımadığı	-4086
▁yakaladığı	-4087
▁yapıyorlar	-4088
▁komşularına	-4089
▁komşularını	-4090
▁sıkıştırmak	-4091
▁çocuklardan	-4092
▁öğrencilere	-4093
▁birbirlerine	-4094
▁yolcularımız	-4095
▁olmamışçasına	-4096
▁sıvazladıktan	-4097
gö	-4098
gü	-4099
mm	-4100
mu	-4101
oj	-4102
os	-4103
sl	-4104
uh	-4105
uu	-4106
ât	-4107
çı	-4108
üv	-4109
ği	-4110
̇m	-4111
▁ı	-4112
art	-4113
bey	-4114
beş	-4115
bol	-4116
dad	-4117
dal	-4118
diy	-4119
duy	-4120
düz	-4121
eff	-4122
emi	-4123
ess	-4124
est	-4125
fle	-4126
gam	-4127
gin	-4128
güz	-4129
hop	-4130
ima	-4131
int	-4132
iği	-4133
jan	-4134
kap	-4135
kır	-4136
lif	-4137
luy	-4138
lım	-4139
mer	-4140
oks	-4141
opp	-4142
puz	-4143
run	-4144
sal	-4145
si̇	-4146
sup	-4147
sür	-4148
tam	-4149
tay	-4150
tih	-4151
tüm	-4152
unt	-4153
uro	-4154
uşu	-4155
vur	-4156
vün	-4157
yan	-4158
yer	-4159
çuk	-4160
ücc	-4161
ıyo	-4162
▁bı	-4163
▁di	-4164
▁ez	-4165
▁me	-4166
▁og	-4167
▁ul	-4168
▁um	-4169
▁vs	-4170
▁ye	-4171
▁ör	-4172
▁üc	-4173
aaaa	-4174
adar	-4175
ader	-4176
agir	-4177
aklı	-4178
ales	-4179
alum	-4180
anca	-4181
anda	-4182
arsa	-4183
asağ	-4184
atık	-4185
aydı	-4186
dini	-4187
diye	-4188
edil	-4189
eeee	-4190
eeey	-4191
ehre	-4192
elli	-4193
emli	-4194
esem	-4195
evet	-4196
eyfi	-4197
graf	-4198
hınk	-4199
dişe	-4200
hakl	-4201
icem	-4202
ilip	-4203
imon	-4204
iser	-4205
iyom	-4206
izde	-4207
izin	-4208
i̇ye	-4209
kaya	-4210
kiyi	-4211
kına	-4212
ladi	-4213
medi	-4214
oğlu	-4215
oğuk	-4216
part	-4217
reti	-4218
sinm	-4219
si̇n	-4220
tada	-4221
tere	-4222
çayı	-4223
çiye	-4224
ürüz	-4225
üste	-4226
ıcır	-4227
ımla	-4228
ısıt	-4229
▁131	-4230
▁150	-4231
▁300	-4232
▁adı	-4233
▁ail	-4234
▁bom	-4235
▁buz	-4236
▁bür	-4237
▁cel	-4238
▁cep	-4239
▁cid	-4240
▁cik	-4241
▁cir	-4242
▁dek	-4243
▁doy	-4244
▁düt	-4245
▁dıs	-4246
▁ekl	-4247
▁emr	-4248
▁ens	-4249
▁eşş	-4250
▁fer	-4251
▁fir	-4252
▁hah	-4253
▁hid	-4254
▁his	-4255
▁hur	-4256
▁iri	-4257
▁ism	-4258
▁i̇f	-4259
▁i̇m	-4260
▁i̇s	-4261
▁kil	-4262
▁kül	-4263
▁küv	-4264
▁lis	-4265
▁lon	-4266
▁mim	-4267
▁müj	-4268
▁mül	-4269
▁mıy	-4270
▁mış	-4271
▁nin	-4272
▁paç	-4273
▁paş	-4274
▁pes	-4275
▁pet	-4276
▁poş	-4277
▁raf	-4278
▁rüş	-4279
▁saf	-4280
▁sec	-4281
▁sez	-4282
▁sik	-4283
▁soğ	-4284
▁spi	-4285
▁sub	-4286
▁tad	-4287
▁tay	-4288
▁teb	-4289
▁ten	-4290
▁teğ	-4291
▁tik	-4292
▁tom	-4293
▁too	-4294
▁tün	-4295
▁tüy	-4296
▁vad	-4297
▁vit	-4298
▁yaa	-4299
▁yum	-4300
▁yün	-4301
▁yır	-4302
▁zil	-4303
▁çağ	-4304
▁çet	-4305
▁çob	-4306
▁çuv	-4307
▁öle	-4308
▁şer	-4309
▁şok	-4310
alara	-4311
arsam	-4312
ayıda	-4313
bilet	-4314
bilir	-4315
bulda	-4316
ceğum	-4317
cuğum	-4318
dedir	-4319
duğun	-4320
eddüt	-4321
endim	-4322
enler	-4323
esten	-4324
güzar	-4325
iklet	-4326
iyede	-4327
iyete	-4328
iğini	-4329
i̇nan	-4330
kiler	-4331
ladığ	-4332
lanan	-4333
lanıp	-4334
layım	-4335
layın	-4336
laşıp	-4337
leyen	-4338
leyin	-4339
luluk	-4340
luyum	-4341
lıkta	-4342
lıyor	-4343
lığın	-4344
madık	-4345
makla	-4346
mayan	-4347
mekte	-4348
memiş	-4349
miyor	-4350
siyah	-4351
skoca	-4352
sonra	-4353
tamam	-4354
tiler	-4355
tiniz	-4356
umaya	-4357
unuzu	-4358
urası	-4359
çavuş	-4360
ımıza	-4361
▁acen	-4362
▁acık	-4363
▁adal	-4364
▁ajan	-4365
▁aklı	-4366
▁alay	-4367
▁alın	-4368
▁amca	-4369
▁amma	-4370
▁anah	-4371
▁anır	-4372
▁ardı	-4373
▁atan	-4374
▁ayni	-4375
▁azar	-4376
▁aşçı	-4377
▁bağa	-4378
▁başk	-4379
▁bine	-4380
▁boks	-4381
▁boyu	-4382
▁bölg	-4383
▁cedi	-4384
▁dağa	-4385
▁dert	-4386
▁deye	-4387
▁dişi	-4388
▁edip	-4389
▁eeee	-4390
▁efen	-4391
▁etli	-4392
▁etme	-4393
▁euro	-4394
▁eğit	-4395
▁fani	-4396
▁fayd	-4397
▁gidi	-4398
▁hale	-4399
▁haşa	-4400
▁hede	-4401
▁hınk	-4402
▁iddi	-4403
▁inat	-4404
▁iner	-4405
▁inip	-4406
▁içki	-4407
▁jüri	-4408
▁kahk	-4409
▁kalp	-4410
▁kamp	-4411
▁kavg	-4412
▁keyi	-4413
▁kirk	-4414
▁kürk	-4415
▁kısm	-4416
▁merk	-4417
▁mide	-4418
▁mily	-4419
▁mini	-4420
▁müsl	-4421
▁neyi	-4422
▁nine	-4423
▁nuri	-4424
▁odac	-4425
▁okut	-4426
▁omuz	-4427
▁otuz	-4428
▁peçi	-4429
▁port	-4430
▁razı	-4431
▁rekt	-4432
▁sayf	-4433
▁sirk	-4434
▁sola	-4435
▁suda	-4436
▁sürü	-4437
▁sıçr	-4438
▁tadı	-4439
▁taşa	-4440
▁tuzu	-4441
▁tücc	-4442
▁ulan	-4443
▁uyuş	-4444
▁uzan	-4445
▁uçağ	-4446
▁uçup	-4447
▁yaaa	-4448
▁yanı	-4449
▁yarı	-4450
▁yavr	-4451
▁yeme	-4452
▁yeri	-4453
▁yurt	-4454
▁zeyt	-4455
▁çare	-4456
▁çeki	-4457
▁ödem	-4458
▁övün	-4459
▁özel	-4460
▁üzün	-4461
▁ısıt	-4462
▁şapk	-4463
▁şunu	-4464
aaaaan	-4465
abının	-4466
aların	-4467
alesef	-4468
alıdır	-4469
amadık	-4470
ayarak	-4471
ağının	-4472
deymiş	-4473
dırmış	-4474
dığına	-4475
ecinin	-4476
edemiş	-4477
ekleri	-4478
elenir	-4479
eleyin	-4480
emedik	-4481
emedum	-4482
etleri	-4483
eyiniz	-4484
gamber	-4485
iyetle	-4486
i̇lahi	-4487
karaya	-4488
lendir	-4489
lerdir	-4490
lersin	-4491
madığı	-4492
maktan	-4493
mazsan	-4494
mazsın	-4495
mislar	-4496
müşler	-4497
mıştım	-4498
partım	-4499
retini	-4500
untuya	-4501
uyordu	-4502
uğumuz	-4503
uğunda	-4504
yorsun	-4505
ımızın	-4506
ınacak	-4507
ınarın	-4508
ısınız	-4509
ıyoruz	-4510
şeklik	-4511
▁adına	-4512
▁afrik	-4513
▁aklım	-4514
▁aldım	-4515
▁alman	-4516
▁almiş	-4517
▁annes	-4518
▁apart	-4519
▁araya	-4520
▁argın	-4521
▁asılı	-4522
▁atışı	-4523
▁aynen	-4524
▁ayrıl	-4525
▁bahan	-4526
▁bahar	-4527
▁bakma	-4528
▁bakıp	-4529
▁balon	-4530
▁bayan	-4531
▁bağış	-4532
▁beeey	-4533
▁bekçi	-4534
▁beyen	-4535
▁beşik	-4536
▁birer	-4537
▁birik	-4538
▁boğul	-4539
▁canlı	-4540
▁ceket	-4541
▁cimri	-4542
▁davac	-4543
▁dayak	-4544
▁deden	-4545
▁demir	-4546
▁derse	-4547
▁devek	-4548
▁diler	-4549
▁dişim	-4550
▁döndü	-4551
▁düzen	-4552
▁emred	-4553
▁enayi	-4554
▁eskim	-4555
▁esnaf	-4556
▁esnem	-4557
▁etsin	-4558
▁ettik	-4559
▁ettim	-4560
▁eşine	-4561
▁fakir	-4562
▁falan	-4563
▁fatma	-4564
▁gecik	-4565
▁geliş	-4566
▁geniş	-4567
▁gölde	-4568
▁gölün	-4569
▁günah	-4570
▁günde	-4571
▁gıcır	-4572
▁hakkı	-4573
▁hayir	-4574
▁hıyar	-4575
▁idris	-4576
▁inmek	-4577
▁içmek	-4578
▁işini	-4579
▁i̇nön	-4580
▁kalem	-4581
▁kalfa	-4582
▁kapal	-4583
▁kaplı	-4584
▁karin	-4585
▁kayın	-4586
▁keyfi	-4587
▁kimya	-4588
▁konuk	-4589
▁konum	-4590
▁kudur	-4591
▁kürsü	-4592
▁kıyaf	-4593
▁kızan	-4594
▁kızın	-4595
▁limon	-4596
▁meden	-4597
▁miydi	-4598
▁moral	-4599
▁muska	-4600
▁nasih	-4601
▁oldum	-4602
▁oğlak	-4603
▁param	-4604
▁recep	-4605
▁roman	-4606
▁saati	-4607
▁sahil	-4608
▁salim	-4609
▁sanki	-4610
▁saygı	-4611
▁senun	-4612
▁sergi	-4613
▁seçim	-4614
▁siyah	-4615
▁sokup	-4616
▁susar	-4617
▁suyun	-4618
▁sıçra	-4619
▁sığın	-4620
▁tabel	-4621
▁takım	-4622
▁tatil	-4623
▁tuval	-4624
▁uçuşu	-4625
▁valiz	-4626
▁verip	-4627
▁yakar	-4628
▁yanın	-4629
▁yapma	-4630
▁yatar	-4631
▁yaşın	-4632
▁yedik	-4633
▁yeşil	-4634
▁yiyen	-4635
▁yönel	-4636
▁çakıl	-4637
▁çarık	-4638
▁çarşı	-4639
▁çürük	-4640
▁ödeye	-4641
▁öfkel	-4642
▁öksür	-4643
▁öldüm	-4644
▁öldüğ	-4645
▁ısrar	-4646
▁şarkı	-4647
▁şayet	-4648
▁şehre	-4649
▁şüphe	-4650
acakmış	-4651
acaksın	-4652
acaktım	-4653
asağlam	-4654
dekiler	-4655
duğumda	-4656
dığında	-4657
ebilmek	-4658
ecekler	-4659
ecektim	-4660
eceğine	-4661
elbette	-4662
esinler	-4663
larıyla	-4664
lıyorum	-4665
masının	-4666
mıyoruz	-4667
öyleyse	-4668
ınından	-4669
▁aklıma	-4670
▁alayım	-4671
▁aldığı	-4672
▁amirim	-4673
▁aramış	-4674
▁arkası	-4675
▁askere	-4676
▁atmaya	-4677
▁avucun	-4678
▁bakmak	-4679
▁bedeli	-4680
▁bekli̇	-4681
▁bitmiş	-4682
▁bizden	-4683
▁boynuz	-4684
▁bugüne	-4685
▁bulduk	-4686
▁burnun	-4687
▁buyrun	-4688
▁canını	-4689
▁cennet	-4690
▁ciğeri	-4691
▁cümlen	-4692
▁davran	-4693
▁deveye	-4694
▁dolusu	-4695
▁dostum	-4696
▁düdüğü	-4697
▁düşman	-4698
▁endişe	-4699
▁erimez	-4700
▁geldin	-4701
▁gemisi	-4702
▁gezmek	-4703
▁girmek	-4704
▁gitmez	-4705
▁gittik	-4706
▁gittin	-4707
▁gizley	-4708
▁gökyüz	-4709
▁gördün	-4710
▁gördüğ	-4711
▁gözünü	-4712
▁gülüms	-4713
▁günlük	-4714
▁halini	-4715
▁hiddet	-4716
▁hoşbeş	-4717
▁idrara	-4718
▁ilişir	-4719
▁isteye	-4720
▁iyidur	-4721
▁i̇dris	-4722
▁i̇ster	-4723
▁kadına	-4724
▁kafanı	-4725
▁kaldir	-4726
▁kalkar	-4727
▁kapıcı	-4728
▁karpuz	-4729
▁kasaba	-4730
▁kenara	-4731
▁kendim	-4732
▁kesilm	-4733
▁kişiye	-4734
▁konser	-4735
▁kulağı	-4736
▁köpeğe	-4737
▁köpeği	-4738
▁liraya	-4739
▁lirayı	-4740
▁madaly	-4741
▁mahall	-4742
▁mektub	-4743
▁mensup	-4744
▁mesajı	-4745
▁mesele	-4746
▁muayen	-4747
▁normal	-4748
▁oluruz	-4749
▁ormana	-4750
▁ortada	-4751
▁otaban	-4752
▁otelci	-4753
▁oturdu	-4754
▁pireye	-4755
▁pişkin	-4756
▁pi̇li̇	-4757
▁polise	-4758
▁rüzgar	-4759
▁rüşvet	-4760
▁sabaha	-4761
▁sabahı	-4762
▁salonu	-4763
▁sağlam	-4764
▁selçuk	-4765
▁sordum	-4766
▁söylen	-4767
▁sürdür	-4768
▁sıkınt	-4769
▁sırası	-4770
▁tarafı	-4771
▁tarlad	-4772
▁teklif	-4773
▁teneff	-4774
▁tombul	-4775
▁tuttum	-4776
▁uşağım	-4777
▁varken	-4778
▁vazgeç	-4779
▁verdin	-4780
▁vermen	-4781
▁vermez	-4782
▁yalvar	-4783
▁yaptın	-4784
▁yaptığ	-4785
▁yavrum	-4786
▁yazdır	-4787
▁yazılı	-4788
▁yenmez	-4789
▁yerken	-4790
▁yerler	-4791
▁yoluna	-4792
▁yüklem	-4793
▁yüksel	-4794
▁yüzden	-4795
▁yılanı	-4796
▁çaylak	-4797
▁çengel	-4798
▁çocukl	-4799
▁çuvalı	-4800
▁öndeki	-4801
▁üstüme	-4802
▁ırmağa	-4803
emeyecek	-4804
esindeki	-4805
ilsonlar	-4806
komşular	-4807
malarını	-4808
ulduğunu	-4809
çocuklar	-4810
▁acından	-4811
▁ahırdan	-4812
▁aklımda	-4813
▁akçelik	-4814
▁allahım	-4815
▁almadın	-4816
▁anlatın	-4817
▁arabayı	-4818
▁aslında	-4819
▁atlamış	-4820
▁avukatı	-4821
▁bakarım	-4822
▁baksana	-4823
▁bilemez	-4824
▁bilgisi	-4825
▁biriyle	-4826
▁boynunu	-4827
▁bozulur	-4828
▁bulacak	-4829
▁bulayım	-4830
▁bununla	-4831
▁buğdayı	-4832
▁bırakın	-4833
▁cemalle	-4834
▁cümlede	-4835
▁dediniz	-4836
▁dediğin	-4837
▁delikan	-4838
▁demedim	-4839
▁değerli	-4840
▁değildi	-4841
▁değilim	-4842
▁diyemez	-4843
▁dolabın	-4844
▁dolaşır	-4845
▁dostuna	-4846
▁doğruca	-4847
▁doğruyu	-4848
▁dursunu	-4849
▁durumda	-4850
▁duvarın	-4851
▁duyunca	-4852
▁dönüşte	-4853
▁düşünüp	-4854
▁etmekte	-4855
▁etrafın	-4856
▁ettiğim	-4857
▁eşeğimi	-4858
▁gardrob	-4859
▁gelirim	-4860
▁gerekli	-4861
▁getiren	-4862
▁geçiyor	-4863
▁gönlünü	-4864
▁gözümün	-4865
▁gücüyle	-4866
▁gülmeye	-4867
▁hangisi	-4868
▁hastayı	-4869
▁hayrola	-4870
▁hazırla	-4871
▁hemşehr	-4872
▁isterim	-4873
▁istiyor	-4874
▁izlemek	-4875
▁işgüzar	-4876
▁kafadar	-4877
▁kalmadı	-4878
▁kaptığı	-4879
▁karşıda	-4880
▁kasları	-4881
▁kazanın	-4882
▁kaçmaya	-4883
▁keyifle	-4884
▁kimseyi	-4885
▁koltuğa	-4886
▁komiser	-4887
▁koskoca	-4888
▁kurusun	-4889
▁kurşuna	-4890
▁kuyruğu	-4891
▁kuyunun	-4892
▁köpeğin	-4893
▁körüğün	-4894
▁kırmızı	-4895
▁meydana	-4896
▁mezarda	-4897
▁muayene	-4898
▁mutlaka	-4899
▁müdürün	-4900
▁okumaya	-4901
▁olanlar	-4902
▁olmanın	-4903
▁olmazsa	-4904
▁olursun	-4905
▁oğlunuz	-4906
▁pakayum	-4907
▁pazarcı	-4908
▁pişirip	-4909
▁sanırım	-4910
▁satılık	-4911
▁saymaya	-4912
▁secdeye	-4913
▁seninki	-4914
▁severim	-4915
▁sizlere	-4916
▁solunda	-4917
▁sonraki	-4918
▁sınavda	-4919
▁sırayla	-4920
▁takılır	-4921
▁tavuğun	-4922
▁tavırla	-4923
▁taşları	-4924
▁telaşla	-4925
▁telgraf	-4926
▁tersini	-4927
▁tiksinm	-4928
▁tuttuğu	-4929
▁unutmak	-4930
▁unutmuş	-4931
▁uykusuz	-4932
▁verecek	-4933
▁vermi̇ş	-4934
▁versene	-4935
▁yandaki	-4936
▁yanmaya	-4937
▁yanıyor	-4938
▁yaparım	-4939
▁yaparız	-4940
▁yaramaz	-4941
▁yaratık	-4942
▁yağarsa	-4943
▁yorganı	-4944
▁yürüyüş	-4945
▁yüzmeye	-4946
▁zorunda	-4947
▁çarpmış	-4948
▁çekilir	-4949
▁çengeli	-4950
▁çetinim	-4951
▁çetinin	-4952
▁çocukla	-4953
▁çocuğun	-4954
▁çıkarsa	-4955
▁çıkmaya	-4956
▁şaşırıp	-4957
▁şimdiye	-4958
diklerini	-4959
ilerinden	-4960
larınızın	-4961
mışlardır	-4962
▁alabilir	-4963
▁almışlar	-4964
▁ankaraya	-4965
▁anlatmak	-4966
▁bakarlar	-4967
▁bakkalım	-4968
▁başlamiş	-4969
▁başçavuş	-4970
▁bindirir	-4971
▁bisiklet	-4972
▁brandayı	-4973
▁bulurlar	-4974
▁dediğini	-4975
▁dehşetle	-4976
▁demektir	-4977
▁değirmen	-4978
▁diyorlar	-4979
▁diyormuş	-4980
▁dostları	-4981
▁durdurur	-4982
▁dururken	-4983
▁dönerken	-4984
▁dünyanın	-4985
▁düşmedim	-4986
▁düşürmüş	-4987
▁ensesine	-4988
▁erkenden	-4989
▁erzuruma	-4990
▁etrafını	-4991
▁geldiler	-4992
▁gelirler	-4993
▁gelmiyor	-4994
▁getirdim	-4995
▁gidersek	-4996
▁girerler	-4997
▁gitmeyin	-4998
▁gönderdi	-4999
▁götürmüş	-5000
▁haritayı	-5001
▁herhalde	-5002
▁heybenin	-5003
▁isimleri	-5004
▁istersen	-5005
▁izlersin	-5006
▁içeriden	-5007
▁içindeki	-5008
▁i̇nsanın	-5009
▁i̇çinden	-5010
▁kadınlar	-5011
▁kardeşim	-5012
▁kasabada	-5013
▁kaybeder	-5014
▁kendinin	-5015
▁kocasını	-5016
▁komşumuz	-5017
▁kurtulur	-5018
▁maalesef	-5019
▁mollalar	-5020
▁nedenini	-5021
▁olacaktı	-5022
▁olsaydım	-5023
▁ortalığı	-5024
▁ortasına	-5025
▁parasını	-5026
▁portakal	-5027
▁problemi	-5028
▁rahatsız	-5029
▁sebebini	-5030
▁sevinmiş	-5031
▁simsiyah	-5032
▁sorulara	-5033
▁soruları	-5034
▁susuzluk	-5035
▁söyledim	-5036
▁söylenir	-5037
▁sıvazlar	-5038
▁tabutunu	-5039
▁tamamlay	-5040
▁tartışma	-5041
▁tavşanın	-5042
▁taşırken	-5043
▁tereddüt	-5044
▁tutmazsa	-5045
▁unuturum	-5046
▁yanarken	-5047
▁yaparken	-5048
▁yatarken	-5049
▁yağmurda	-5050
▁yağmurlu	-5051
▁yemekler	-5052
▁yolcular	-5053
▁yukarıya	-5054
▁yuvarlak	-5055
▁yıllarda	-5056
▁çaldılar	-5057
▁çalınmış	-5058
▁çeşmenin	-5059
▁çıkardın	-5060
▁önündeki	-5061
adıklarını	-5062
mayacağını	-5063
▁adamcağız	-5064
▁akşehirde	-5065
▁alıyormuş	-5066
▁atıyormuş	-5067
▁atıyorsun	-5068
▁aşağıdaki	-5069
▁bakıyoruz	-5070
▁başındaki	-5071
▁beklemeye	-5072
▁birbirine	-5073
▁bozuntuya	-5074
▁bulamadım	-5075
▁cemaatten	-5076
▁dediğinde	-5077
▁defterini	-5078
▁demişadam	-5079
▁diğerleri	-5080
▁doktorlar	-5081
▁düştüğünü	-5082
▁düşünecek	-5083
▁düşünüyor	-5084
▁dışarıdan	-5085
▁ediyorlar	-5086
▁ediyormuş	-5087
▁efendinin	-5088
▁fadimenin	-5089
▁geceleyin	-5090
▁geliyorum	-5091
▁getiririm	-5092
▁göndermiş	-5093
▁görmediği	-5094
▁hastanede	-5095
▁hırsızlar	-5096
▁ihtiyacım	-5097
▁ingilizce	-5098
▁istediğin	-5099
▁istemiyor	-5100
▁i̇ngilize	-5101
▁kaldırmak	-5102
▁kayseriye	-5103
▁kimliğini	-5104
▁kocasının	-5105
▁koltuğuna	-5106
▁kompartım	-5107
▁konuşulur	-5108
▁konuşuruz	-5109
▁koşuyorum	-5110
▁kurnazlık	-5111
▁mezarlığa	-5112
▁odunların	-5113
▁olacağını	-5114
▁papağanın	-5115
▁peygamber	-5116
▁subaşının	-5117
▁suçsuzdur	-5118
▁sözlerini	-5119
▁tartışmış	-5120
▁telefonda	-5121
▁telefonla	-5122
▁temizliğe	-5123
▁tutulacak	-5124
▁uzamıştır	-5125
▁verseydim	-5126
▁yaklaşmış	-5127
▁yanlarına	-5128
▁yapacağım	-5129
▁yazıyordu	-5130
▁yerleştir	-5131
▁yukarıdan	-5132
▁yürüyelim	-5133
▁yıllardır	-5134
▁zamanında	-5135
▁çaldırdın	-5136
▁çıkardığı	-5137
▁çıkarmaya	-5138
▁öğrenince	-5139
kardeşlerim	-5140
▁arkadaşını	-5141
▁ayaklarına	-5142
▁bastonuyla	-5143
▁bektaşinin	-5144
▁dağıstanlı	-5145
▁dilencinin	-5146
▁duruyorsun	-5147
▁düşünürken	-5148
▁ederlerken	-5149
▁elebaşları	-5150
▁eriksonlar	-5151
▁gidersiniz	-5152
▁gidiyormuş	-5153
▁hamamcılar	-5154
▁hastaneden	-5155
▁hastasının	-5156
▁inanıyorum	-5157
▁istemişler	-5158
▁i̇stanbula	-5159
▁kardeşinin	-5160
▁komşusunun	-5161
▁kızılderel	-5162
▁medeniyete	-5163
▁sallayarak	-5164
▁sapasağlam	-5165
▁tarzaaaaan	-5166
▁toparlayan	-5167
▁tuhafiyeci	-5168
▁yapacaksın	-5169
▁yapacağımı	-5170
▁yapacağını	-5171
▁çalışırken	-5172
▁öldürürler	-5173
▁üniversite	-5174
▁üzerlerine	-5175
▁anlatıyordu	-5176
▁bağlamışlar	-5177
▁bağırıyordu	-5178
▁dolaştıktan	-5179
▁düşünüyorum	-5180
▁hastanesine	-5181
▁hemşerileri	-5182
▁ilerleyince	-5183
▁istemiyorum	-5184
▁karşılarına	-5185
▁kendilerine	-5186
▁koyulmuşlar	-5187
▁köylülerden	-5188
▁matematikçi	-5189
▁oturduğumda	-5190
▁rahmetinden	-5191
▁sinirlenmiş	-5192
▁söylemişler	-5193
▁tamircisine	-5194
▁yanlışlıkla	-5195
▁çamaşırları	-5196
▁öğrencisine	-5197
▁öğretmenine	-5198
▁dağıtıyormuş	-5199
▁hastanesinin	-5200
▁kullanabilir	-5201
▁meyhanecinin	-5202
▁yolculuğumuz	-5203
▁çekirdeğiyle	-5204
▁öğrencilerin	-5205
▁şikâyetçiyim	-5206
▁misafirlerden	-5207
▁söylüyorsunuz	-5208
▁yapıyorlarmış	-5209
▁öğrencilerden	-5210
▁arkadaşlarının	-5211
▁arızalanmıştır	-5212
▁ayakkabılarını	-5213
▁merdivenlerden	-5214
do	-5215
gâ	-5216
lo	-5217
mü	-5218
uf	-5219
ve	-5220
âf	-5221
öp	-5222
üh	-5223
amb	-5224
ams	-5225
aru	-5226
arz	-5227
atu	-5228
ayu	-5229
ayü	-5230
bah	-5231
bin	-5232
biz	-5233
ble	-5234
buy	-5235
cas	-5236
cil	-5237
dar	-5238
daş	-5239
dev	-5240
dok	-5241
dol	-5242
ena	-5243
fil	-5244
gan	-5245
gen	-5246
gul	-5247
gur	-5248
gâr	-5249
gür	-5250
gır	-5251
hat	-5252
her	-5253
hey	-5254
his	-5255
hum	-5256
ice	-5257
ici	-5258
iyo	-5259
i̇p	-5260
kan	-5261
kol	-5262
köy	-5263
laj	-5264
lim	-5265
lıl	-5266
lığ	-5267
med	-5268
mel	-5269
mor	-5270
nas	-5271
ner	-5272
nün	-5273
odu	-5274
okr	-5275
oku	-5276
ola	-5277
oya	-5278
pıp	-5279
ral	-5280
raz	-5281
sad	-5282
sağ	-5283
sed	-5284
sık	-5285
tak	-5286
taç	-5287
tek	-5288
tel	-5289
tun	-5290
tük	-5291
tış	-5292
und	-5293
uni	-5294
ust	-5295
uza	-5296
yak	-5297
yal	-5298
yat	-5299
gu	-5300
cat	-5301
fte	-5302
hep	-5303
kım	-5304
nep	-5305
yla	-5306
yok	-5307
ziz	-5308
örü	-5309
öğr	-5310
ücü	-5311
üks	-5312
ülü	-5313
üme	-5314
ünç	-5315
ğin	-5316
ğür	-5317
ıki	-5318
ırı	-5319
ıta	-5320
şık	-5321
▁aa	-5322
▁dk	-5323
▁eh	-5324
▁gr	-5325
▁ib	-5326
▁ir	-5327
▁it	-5328
▁no	-5329
▁rö	-5330
▁te	-5331
▁uf	-5332
▁ur	-5333
▁çı	-5334
▁öm	-5335
▁üf	-5336
▁üş	-5337
adın	-5338
adığ	-5339
ahür	-5340
akib	-5341
alak	-5342
alır	-5343
anak	-5344
anam	-5345
anem	-5346
anin	-5347
anoz	-5348
apor	-5349
asik	-5350
asir	-5351
asız	-5352
atan	-5353
avin	-5354
azer	-5355
ağaz	-5356
bant	-5357
başı	-5358
beyi	-5359
cuya	-5360
daha	-5361
demi	-5362
deyi	-5363
dine	-5364
dını	-5365
dıra	-5366
ekle	-5367
elki	-5368
engu	-5369
esel	-5370
esey	-5371
este	-5372
evan	-5373
evra	-5374
eydi	-5375
eyir	-5376
eyiz	-5377
eşeğ	-5378
fağa	-5379
gili	-5380
günü	-5381
hopa	-5382
idan	-5383
iden	-5384
ilim	-5385
illi	-5386
inda	-5387
irir	-5388
isin	-5389
itan	-5390
itli	-5391
iyec	-5392
iyse	-5393
iyun	-5394
iyuz	-5395
izma	-5396
işan	-5397
işin	-5398
işki	-5399
ome	-5400
pih	-5401
uğa	-5402
altı	-5403
cıyı	-5404
kini	-5405
kiye	-5406
lacı	-5407
layı	-5408
lerj	-5409
liye	-5410
lüğü	-5411
lıyı	-5412
manı	-5413
mark	-5414
mist	-5415
neyi	-5416
okul	-5417
oloj	-5418
olon	-5419
peki	-5420
pteş	-5421
sanı	-5422
seri	-5423
sime	-5424
siye	-5425
stes	-5426
suna	-5427
sunu	-5428
tlam	-5429
ular	-5430
umun	-5431
unup	-5432
uver	-5433
vali	-5434
vatu	-5435
vran	-5436
üver	-5437
üzde	-5438
üzik	-5439
üzum	-5440
ğini	-5441
ıkra	-5442
ımış	-5443
ırıl	-5444
ıyıp	-5445
ışta	-5446
ıştı	-5447
▁ada	-5448
▁adl	-5449
▁akr	-5450
▁ank	-5451
▁ast	-5452
▁ayg	-5453
▁ayy	-5454
▁bez	-5455
▁büz	-5456
▁bıy	-5457
▁cez	-5458
▁cör	-5459
▁düm	-5460
▁eli	-5461
▁eyi	-5462
▁fiz	-5463
▁fut	-5464
▁gay	-5465
▁gor	-5466
▁göb	-5467
▁göv	-5468
▁güç	-5469
▁hit	-5470
▁ima	-5471
▁inş	-5472
▁içi	-5473
▁işl	-5474
▁i̇p	-5475
▁i̇y	-5476
▁i̇z	-5477
▁kağ	-5478
▁ki̇	-5479
▁köt	-5480
▁kıt	-5481
▁lak	-5482
▁lam	-5483
▁las	-5484
▁mik	-5485
▁min	-5486
▁mük	-5487
▁mün	-5488
▁mür	-5489
▁nam	-5490
▁ned	-5491
▁net	-5492
▁neş	-5493
▁oni	-5494
▁orh	-5495
▁pab	-5496
▁pal	-5497
▁pağ	-5498
▁pul	-5499
ehan	-5500
faat	-5501
kede	-5502
▁rak	-5503
▁ran	-5504
▁rağ	-5505
▁rek	-5506
▁rez	-5507
▁riz	-5508
▁rız	-5509
▁sep	-5510
▁sip	-5511
▁si̇	-5512
▁sop	-5513
▁sun	-5514
▁sün	-5515
▁sız	-5516
▁taa	-5517
▁teh	-5518
▁una	-5519
▁uyu	-5520
▁vah	-5521
▁yil	-5522
▁yoo	-5523
▁zam	-5524
▁zev	-5525
▁zik	-5526
▁zul	-5527
▁çit	-5528
▁çiz	-5529
▁ölm	-5530
▁şem	-5531
adamı	-5532
aları	-5533
amayı	-5534
amına	-5535
aneti	-5536
armış	-5537
arsız	-5538
aydum	-5539
aysun	-5540
ayımı	-5541
cağum	-5542
devum	-5543
diğim	-5544
diğum	-5545
durur	-5546
dırır	-5547
efend	-5548
ekeme	-5549
elini	-5550
endik	-5551
endil	-5552
eride	-5553
erine	-5554
eydum	-5555
eysun	-5556
ginde	-5557
hancı	-5558
hatun	-5559
hisar	-5560
ilmiş	-5561
imden	-5562
imize	-5563
indan	-5564
inist	-5565
irlay	-5566
irmiş	-5567
irsek	-5568
içini	-5569
kinin	-5570
lerce	-5571
lerdi	-5572
liler	-5573
lıdır	-5574
lıklı	-5575
lının	-5576
mağın	-5577
medin	-5578
neden	-5579
nedir	-5580
reden	-5581
rılır	-5582
seydi	-5583
shopa	-5584
sinde	-5585
sizin	-5586
tirir	-5587
uması	-5588
umdan	-5589
urayı	-5590
uğuna	-5591
yiyum	-5592
çinin	-5593
ümden	-5594
ürsün	-5595
üzeri	-5596
ırken	-5597
▁aday	-5598
▁akil	-5599
gör	-5600
bule	-5601
dimi	-5602
esör	-5603
raaa	-5604
▁baa	-5605
▁haa	-5606
arısı	-5607
dadır	-5608
hangi	-5609
tihar	-5610
▁alam	-5611
▁anam	-5612
▁aran	-5613
▁araş	-5614
▁asar	-5615
▁asil	-5616
▁atlı	-5617
▁avaz	-5618
▁avut	-5619
▁ayag	-5620
▁açan	-5621
▁açik	-5622
▁açıp	-5623
▁ağab	-5624
▁ağar	-5625
▁balı	-5626
▁başa	-5627
▁dede	-5628
▁deme	-5629
▁denk	-5630
▁dile	-5631
▁doya	-5632
▁evim	-5633
▁gemi	-5634
▁gölg	-5635
▁güne	-5636
▁hana	-5637
▁idin	-5638
▁ikin	-5639
▁ilet	-5640
▁inci	-5641
▁inek	-5642
▁inen	-5643
▁iniş	-5644
▁iste	-5645
▁izci	-5646
▁içen	-5647
▁içim	-5648
▁içme	-5649
▁işar	-5650
▁i̇le	-5651
▁i̇lg	-5652
▁kazı	-5653
▁kaça	-5654
▁kimi	-5655
▁kisi	-5656
▁koyu	-5657
▁kuşk	-5658
▁köyü	-5659
▁köşe	-5660
▁kıza	-5661
▁kızı	-5662
▁malı	-5663
▁miya	-5664
▁nasi	-5665
▁okka	-5666
▁oley	-5667
▁orda	-5668
▁ordu	-5669
▁orta	-5670
▁oruç	-5671
▁oyal	-5672
▁pana	-5673
▁pilm	-5674
▁puan	-5675
▁sabr	-5676
▁sand	-5677
▁sanş	-5678
▁sark	-5679
▁sayı	-5680
▁sazı	-5681
▁saça	-5682
▁suya	-5683
▁tazı	-5684
▁teki	-5685
▁terk	-5686
▁teşh	-5687
▁tiye	-5688
▁topp	-5689
▁umur	-5690
▁uslu	-5691
▁yata	-5692
▁yetm	-5693
▁yiye	-5694
▁yüze	-5695
▁yıka	-5696
▁zeki	-5697
▁zili	-5698
▁çayı	-5699
amba	-5700
enej	-5701
i̇ne	-5702
umlu	-5703
▁mec	-5704
▁puf	-5705
aydın	-5706
başlı	-5707
masun	-5708
sünün	-5709
tiğin	-5710
▁acel	-5711
▁acem	-5712
▁avcı	-5713
▁avlu	-5714
▁ağzı	-5715
▁bağr	-5716
▁boşa	-5717
▁emar	-5718
▁giys	-5719
▁isır	-5720
▁kafa	-5721
▁kolu	-5722
▁çeke	-5723
▁çekm	-5724
▁çıkm	-5725
▁çırp	-5726
▁öden	-5727
▁ödeş	-5728
▁üste	-5729
▁ışıl	-5730
▁şehr	-5731
▁şeye	-5732
akiler	-5733
alılar	-5734
alının	-5735
amamış	-5736
anınca	-5737
anırsa	-5738
arudad	-5739
atırtı	-5740
babası	-5741
basını	-5742
daydın	-5743
dayken	-5744
doktor	-5745
dursun	-5746
duğuna	-5747
dırmak	-5748
eceğum	-5749
ediniz	-5750
elerin	-5751
elerle	-5752
elikle	-5753
emeden	-5754
emeyen	-5755
endiği	-5756
eniyor	-5757
esidir	-5758
hemşer	-5759
ihayet	-5760
imizin	-5761
inizin	-5762
işinde	-5763
landır	-5764
larbir	-5765
lileri	-5766
luymuş	-5767
luğunu	-5768
maları	-5769
mazlar	-5770
mektir	-5771
mezmiş	-5772
mezsen	-5773
misler	-5774
nından	-5775
seydin	-5776
sinden	-5777
tiğine	-5778
tırmaz	-5779
ulunca	-5780
ururla	-5781
vermiş	-5782
ülerek	-5783
üyünce	-5784
ıldığı	-5785
ılırsa	-5786
ımızda	-5787
ınızda	-5788
ınızın	-5789
▁acele	-5790
▁acıgö	-5791
▁acına	-5792
▁adaya	-5793
▁adeta	-5794
▁aldat	-5795
▁alerj	-5796
▁aliye	-5797
▁almaz	-5798
▁arabi	-5799
müs	-5800
▁ipu	-5801
▁küs	-5802
▁poz	-5803
bunun	-5804
mayin	-5805
polis	-5806
▁gaza	-5807
▁gram	-5808
▁pant	-5809
▁âşık	-5810
▁çevr	-5811
▁ödey	-5812
başıya	-5813
ceğini	-5814
emedin	-5815
okrasi	-5816
▁arkad	-5817
▁asena	-5818
▁asmış	-5819
▁ateşe	-5820
▁ateşi	-5821
▁atlat	-5822
▁atmak	-5823
▁attığ	-5824
▁avrat	-5825
▁aydın	-5826
▁açtığ	-5827
▁bahçe	-5828
▁bakır	-5829
▁banka	-5830
▁bayat	-5831
▁başta	-5832
▁başın	-5833
▁bekle	-5834
▁benum	-5835
▁bilem	-5836
▁bilim	-5837
▁biten	-5838
▁biter	-5839
▁boşal	-5840
▁bulab	-5841
▁burnu	-5842
▁burun	-5843
▁bürün	-5844
▁dalga	-5845
▁dalıp	-5846
▁damın	-5847
▁dağda	-5848
▁degil	-5849
▁dener	-5850
▁dersi	-5851
▁direk	-5852
▁domuz	-5853
▁doğdu	-5854
▁durak	-5855
▁durun	-5856
▁duyar	-5857
▁dönün	-5858
▁dörde	-5859
▁döver	-5860
▁elden	-5861
▁elimi	-5862
▁emine	-5863
▁erdal	-5864
▁erdir	-5865
▁erini	-5866
▁ermiş	-5867
▁etmem	-5868
▁eşlik	-5869
▁fidan	-5870
▁genel	-5871
▁geçip	-5872
▁girdi	-5873
▁giyin	-5874
▁gökte	-5875
▁gönlü	-5876
▁güver	-5877
▁hakem	-5878
▁hayli	-5879
▁haçen	-5880
▁helal	-5881
▁heybe	-5882
▁hindi	-5883
▁huyun	-5884
▁ilacı	-5885
▁indik	-5886
▁islik	-5887
▁ispat	-5888
▁iyisi	-5889
▁içini	-5890
▁işine	-5891
▁i̇laç	-5892
▁i̇çer	-5893
▁kabar	-5894
▁kadem	-5895
▁kadin	-5896
▁kadir	-5897
▁kafil	-5898
▁kamuf	-5899
ucu	-5900
▁eyy	-5901
dığım	-5902
▁bari	-5903
▁kuşu	-5904
▁mahk	-5905
▁toro	-5906
▁üncü	-5907
▁ışığ	-5908
derali	-5909
ederim	-5910
inceye	-5911
sanıza	-5912
▁boyum	-5913
▁damda	-5914
▁kapan	-5915
▁kapıs	-5916
▁karak	-5917
▁karga	-5918
▁karım	-5919
▁katlı	-5920
▁kayar	-5921
▁kayıp	-5922
▁kazık	-5923
▁kaçar	-5924
▁kedim	-5925
▁keman	-5926
▁kemik	-5927
▁konak	-5928
▁koyun	-5929
▁koyup	-5930
▁koşan	-5931
▁koşar	-5932
▁koşuş	-5933
▁kucak	-5934
▁kurun	-5935
▁kuruş	-5936
▁kuzin	-5937
▁köpük	-5938
▁kürke	-5939
▁küçüğ	-5940
▁kısık	-5941
▁kızar	-5942
▁kızım	-5943
▁lazum	-5944
▁lüzum	-5945
▁makin	-5946
▁midur	-5947
▁misun	-5948
▁model	-5949
▁muydu	-5950
▁mübar	-5951
▁müzik	-5952
▁mışıl	-5953
▁ni̇ye	-5954
▁okyan	-5955
▁olaya	-5956
▁olayı	-5957
▁olsan	-5958
▁otele	-5959
▁oturt	-5960
▁oymak	-5961
▁oyunu	-5962
▁pabuç	-5963
▁parka	-5964
▁planı	-5965
▁radyo	-5966
▁revan	-5967
▁sabır	-5968
▁safça	-5969
▁sakız	-5970
▁saman	-5971
▁sanık	-5972
▁sanıp	-5973
▁sarıl	-5974
▁satıl	-5975
▁satın	-5976
▁sayar	-5977
▁sağda	-5978
▁sende	-5979
▁seçer	-5980
▁sigar	-5981
▁sinav	-5982
▁sinek	-5983
▁sizce	-5984
▁sofra	-5985
▁solda	-5986
▁solun	-5987
▁sudan	-5988
▁surat	-5989
▁susuz	-5990
▁söndi	-5991
▁sözlü	-5992
▁sıcağ	-5993
▁tahta	-5994
▁taksi	-5995
▁tanık	-5996
▁tarih	-5997
▁taşır	-5998
▁taşıt	-5999
cası	-6000
oooo	-6001
▁ttt	-6002
anızı	-6003
haydi	-6004
tular	-6005
▁cins	-6006
▁help	-6007
▁prof	-6008
ettiği	-6009
tuğunu	-6010
▁boynu	-6011
▁cebim	-6012
▁dizip	-6013
▁ettum	-6014
▁hapis	-6015
▁incil	-6016
▁mayal	-6017
▁savun	-6018
▁sırrı	-6019
▁tavrı	-6020
▁taşıy	-6021
▁telas	-6022
▁temal	-6023
▁terör	-6024
▁tokuz	-6025
▁topal	-6026
▁toplu	-6027
▁torba	-6028
▁tünel	-6029
▁ucuza	-6030
▁uçağa	-6031
▁uçağı	-6032
▁vatan	-6033
▁vazif	-6034
▁yanan	-6035
▁yanar	-6036
▁yapsa	-6037
▁yapıp	-6038
▁yarin	-6039
▁yazım	-6040
▁yağış	-6041
▁yedir	-6042
▁yemez	-6043
▁yenil	-6044
▁yenir	-6045
▁yeten	-6046
▁yoktu	-6047
▁yorul	-6048
▁yörük	-6049
▁yüzer	-6050
▁yüzlü	-6051
▁yıkar	-6052
▁çakar	-6053
▁çalan	-6054
▁çalma	-6055
▁çalıp	-6056
▁çamur	-6057
▁çayın	-6058
▁çekil	-6059
▁çözer	-6060
▁çıkma	-6061
▁çıtır	-6062
▁öbürü	-6063
▁önünü	-6064
▁öteye	-6065
▁öğret	-6066
▁ülkem	-6067
▁üzeri	-6068
▁ıslak	-6069
▁ıslan	-6070
▁şahıs	-6071
▁şeyin	-6072
▁şişir	-6073
acaktır	-6074
aktadır	-6075
amazlar	-6076
anından	-6077
arsonra	-6078
cağının	-6079
danarak	-6080
deyince	-6081
diğimiz	-6082
duğunda	-6083
dükleri	-6084
dıkları	-6085
ecekken	-6086
elerine	-6087
hanelik	-6088
isizliğ	-6089
ladınız	-6090
ladığum	-6091
lanarak	-6092
lanmaya	-6093
lanıyor	-6094
layalım	-6095
layayım	-6096
laşınca	-6097
leriyle	-6098
leşecek	-6099
bakın	-6100
i̇mi̇	-6101
▁abla	-6102
▁habu	-6103
▁osur	-6104
▁usak	-6105
▁şans	-6106
altıya	-6107
i̇i̇i̇	-6108
ışırız	-6109
▁bi̇ze	-6110
▁cörse	-6111
▁horul	-6112
▁küpün	-6113
▁kısmı	-6114
▁mutlu	-6115
▁muzip	-6116
▁utanc	-6117
▁yedük	-6118
▁yutar	-6119
▁ölüsü	-6120
▁ırmak	-6121
agirmis	-6122
dinizmi	-6123
diğimde	-6124
kattaki	-6125
madınız	-6126
mayınca	-6127
miyorum	-6128
mutlaka	-6129
mıyorum	-6130
sonları	-6131
sonunda	-6132
tacağız	-6133
taların	-6134
usundan	-6135
uyorlar	-6136
uyormuş	-6137
validem	-6138
ümanlar	-6139
ınırken	-6140
ığından	-6141
ışmadan	-6142
▁abidin	-6143
▁adamda	-6144
▁adamin	-6145
▁ahbabı	-6146
▁albayı	-6147
▁amanın	-6148
▁ameri̇	-6149
▁ankara	-6150
▁anneme	-6151
▁arabam	-6152
▁arayıp	-6153
▁askeri	-6154
▁atarak	-6155
▁atıldı	-6156
▁atınca	-6157
▁atıyor	-6158
▁avanak	-6159
▁ayağım	-6160
▁ayıdan	-6161
▁ayının	-6162
▁ayşeye	-6163
▁açarım	-6164
▁açmaya	-6165
▁açılış	-6166
▁ağaçta	-6167
▁ağrısı	-6168
▁babamı	-6169
▁bacağı	-6170
▁baktık	-6171
▁bağlar	-6172
▁başlık	-6173
▁bekler	-6174
▁bilmiş	-6175
▁bindik	-6176
▁bindim	-6177
▁binmek	-6178
▁bitmez	-6179
▁bi̇ri̇	-6180
▁borçlu	-6181
▁bulgur	-6182
▁cafede	-6183
▁canına	-6184
▁cemale	-6185
▁cumaya	-6186
▁dalmış	-6187
▁davada	-6188
▁demeye	-6189
▁demlen	-6190
▁derede	-6191
▁değeri	-6192
▁dikmiş	-6193
▁dinler	-6194
▁doksan	-6195
▁dokuzu	-6196
▁dolana	-6197
▁dolmuş	-6198
▁doğrul	-6199
▁küf	-6200
işeci	-6201
▁5000	-6202
▁post	-6203
▁usta	-6204
▁zeka	-6205
ablası	-6206
ayudun	-6207
larina	-6208
▁dökül	-6209
▁düğün	-6210
▁karnı	-6211
▁kepçe	-6212
▁resim	-6213
▁resmi	-6214
▁tıkam	-6215
▁yular	-6216
▁öküze	-6217
alyeyle	-6218
anırken	-6219
isiymiş	-6220
▁ablası	-6221
▁ahırın	-6222
▁dünden	-6223
▁düştün	-6224
▁ederiz	-6225
▁edeyim	-6226
▁edilen	-6227
▁elinin	-6228
▁emrini	-6229
▁erleri	-6230
▁ettiği	-6231
▁evdeki	-6232
▁eşekle	-6233
▁eşeğim	-6234
▁eşinin	-6235
▁feryat	-6236
▁fiyata	-6237
▁fiyatı	-6238
▁futbol	-6239
▁fıldır	-6240
▁gardiy	-6241
▁gelsin	-6242
▁gereği	-6243
▁geriye	-6244
▁geçmek	-6245
▁gidiyo	-6246
▁gitmem	-6247
▁gittim	-6248
▁gişeci	-6249
▁gömlek	-6250
▁gözden	-6251
▁gözümü	-6252
▁güneşe	-6253
▁günler	-6254
▁hamama	-6255
▁hasarı	-6256
▁hasret	-6257
▁hastal	-6258
▁havalı	-6259
▁havaya	-6260
▁havayı	-6261
▁hayali	-6262
▁hayran	-6263
▁hedefi	-6264
▁hocada	-6265
▁hostes	-6266
▁hoşlan	-6267
▁iftara	-6268
▁ilginç	-6269
▁ilgisi	-6270
▁incele	-6271
▁inince	-6272
▁iyilik	-6273
▁izleye	-6274
▁içelim	-6275
▁içkiyi	-6276
▁işleri	-6277
▁kafayı	-6278
▁kafesi	-6279
▁kaldım	-6280
▁kaldın	-6281
▁karara	-6282
▁karıma	-6283
▁kazası	-6284
▁keskin	-6285
▁kimden	-6286
▁kimdur	-6287
▁kimsin	-6288
▁komedi	-6289
▁komşus	-6290
▁konumu	-6291
▁konuyu	-6292
▁koydum	-6293
▁kumsal	-6294
▁kuzuya	-6295
▁köşeye	-6296
▁küveti	-6297
▁küçüğü	-6298
▁kıldır	-6299
di̇n	-6300
kkkk	-6301
rrrr	-6302
geçen	-6303
silas	-6304
▁aile	-6305
▁hoop	-6306
▁tört	-6307
▁uyyy	-6308
▁asite	-6309
▁bükük	-6310
▁gizli	-6311
▁lafın	-6312
▁mağaz	-6313
▁olgun	-6314
▁pengu	-6315
▁selam	-6316
▁tepsi	-6317
▁uçurt	-6318
▁zarar	-6319
▁ölçün	-6320
▁şakır	-6321
i̇recek	-6322
malıydı	-6323
▁dümdüz	-6324
▁hesabı	-6325
▁hindim	-6326
▁huzura	-6327
▁ismini	-6328
▁itiraf	-6329
▁i̇lahi	-6330
▁kitaba	-6331
▁kovayı	-6332
▁kıpırd	-6333
▁kırmak	-6334
▁kırpıp	-6335
▁kıvran	-6336
▁kıyıya	-6337
▁liramı	-6338
▁mantar	-6339
▁manyak	-6340
▁merkez	-6341
▁millet	-6342
▁miydin	-6343
▁muavin	-6344
▁muhtar	-6345
▁muhtaç	-6346
▁mutlul	-6347
▁namazı	-6348
▁niyeti	-6349
▁okundu	-6350
▁okuyan	-6351
▁olamaz	-6352
▁oltaya	-6353
▁olurum	-6354
▁onunla	-6355
▁otelde	-6356
▁oturun	-6357
▁oturup	-6358
▁paramı	-6359
▁parası	-6360
▁parlak	-6361
▁pilavı	-6362
▁pislik	-6363
▁pişman	-6364
▁rektör	-6365
▁rizeye	-6366
▁rüyada	-6367
▁rüzgâr	-6368
▁saatin	-6369
▁sadaka	-6370
▁sakızı	-6371
▁salona	-6372
▁sankim	-6373
▁satmak	-6374
▁seni̇n	-6375
▁sevdir	-6376
▁sevmem	-6377
▁sinyal	-6378
▁sizden	-6379
▁sokrat	-6380
▁sonsuz	-6381
▁sormak	-6382
▁soruda	-6383
▁sorunu	-6384
▁sorusu	-6385
▁suçunu	-6386
▁söndür	-6387
▁sözler	-6388
▁sözümü	-6389
▁tahsil	-6390
▁takmış	-6391
▁takumu	-6392
▁takımı	-6393
▁tarife	-6394
▁tarifi	-6395
▁tasını	-6396
▁tatili	-6397
▁tavana	-6398
▁telsiz	-6399
ibin	-6400
sorma	-6401
▁fasl	-6402
▁söle	-6403
boşuna	-6404
cesine	-6405
ecekti	-6406
▁duman	-6407
▁engel	-6408
▁hamle	-6409
▁mırıl	-6410
▁odana	-6411
▁perde	-6412
▁sisli	-6413
▁âdeta	-6414
▁çimen	-6415
▁çorap	-6416
▁ögren	-6417
udumama	-6418
▁acıyan	-6419
▁adresi	-6420
▁arapça	-6421
▁ayşeyi	-6422
▁burcum	-6423
▁burcun	-6424
▁desene	-6425
▁imamın	-6426
▁içmeyi	-6427
▁mızrap	-6428
▁sudana	-6429
▁sustur	-6430
▁toktor	-6431
▁tooopp	-6432
▁toplam	-6433
▁trende	-6434
▁turist	-6435
▁tüccar	-6436
▁tümüne	-6437
▁uyanır	-6438
▁uyarır	-6439
▁uyudum	-6440
▁uyumak	-6441
▁uzattı	-6442
▁uçağın	-6443
▁uçurum	-6444
▁uşağum	-6445
▁vardur	-6446
▁varmıs	-6447
▁versen	-6448
▁vurdun	-6449
▁vurmuş	-6450
▁yalanı	-6451
▁yangın	-6452
▁yanlis	-6453
▁yapmam	-6454
▁yapsın	-6455
▁yaptım	-6456
▁yasını	-6457
▁yatıya	-6458
▁yaşına	-6459
▁yetkil	-6460
▁yollar	-6461
▁yuları	-6462
▁yuttur	-6463
▁zahmet	-6464
▁zamana	-6465
▁zamanı	-6466
▁zilini	-6467
▁çadırı	-6468
▁çaldın	-6469
▁çareyi	-6470
▁çağıra	-6471
▁çektim	-6472
▁çikmis	-6473
▁çivisi	-6474
▁çiğnem	-6475
▁çözdüm	-6476
▁çözdün	-6477
▁çırağı	-6478
▁ödesin	-6479
▁öpücük	-6480
▁üstlük	-6481
▁üzülen	-6482
▁üzülme	-6483
▁ısırdı	-6484
▁ısırır	-6485
▁ışıkta	-6486
▁şakaya	-6487
▁şehire	-6488
▁şehrin	-6489
▁şişmiş	-6490
▁şoföre	-6491
▁şurası	-6492
elerimiz	-6493
ememişti	-6494
görmüyor	-6495
haklısın	-6496
hemşerim	-6497
iyorumki	-6498
lerimizi	-6499
kapı	-6500
▁ogl	-6501
▁tüh	-6502
duysa	-6503
essüm	-6504
soğuk	-6505
▁hiss	-6506
▁ulaş	-6507
▁umut	-6508
▁vade	-6509
tambur	-6510
▁böğür	-6511
▁ciddi	-6512
▁cirit	-6513
▁londr	-6514
▁mülki	-6515
▁nemli	-6516
▁tayin	-6517
▁çekip	-6518
▁çoban	-6519
▁ördek	-6520
biletçi	-6521
▁acente	-6522
▁başvur	-6523
▁bomboş	-6524
▁eğitim	-6525
▁haykır	-6526
▁i̇flas	-6527
▁i̇smet	-6528
▁milyar	-6529
▁subayı	-6530
▁teğmen	-6531
▁tıklım	-6532
▁vitesi	-6533
▁çalıyo	-6534
▁üzüntü	-6535
luluktan	-6536
lıyorsun	-6537
malarına	-6538
masından	-6539
mazdınız	-6540
mediğini	-6541
melerini	-6542
memektir	-6543
sormayın	-6544
tirmeden	-6545
▁albayın	-6546
▁allahın	-6547
▁almadım	-6548
▁almamış	-6549
▁alırsam	-6550
▁alırsın	-6551
▁annemle	-6552
▁ararken	-6553
▁arasına	-6554
▁araştır	-6555
▁artınca	-6556
▁asılayi	-6557
▁avucunu	-6558
▁ayakkab	-6559
▁ayağını	-6560
▁ağlamış	-6561
▁ağrımaz	-6562
▁bacağın	-6563
▁bakakal	-6564
▁bakalum	-6565
▁bakiyor	-6566
▁barışın	-6567
▁batırıp	-6568
▁batırır	-6569
▁bağırdı	-6570
▁bağırış	-6571
▁başlaya	-6572
▁bebeğim	-6573
▁benimki	-6574
▁berbere	-6575
▁bildiği	-6576
▁biletim	-6577
▁bileyim	-6578
▁bilgiyi	-6579
▁biliriz	-6580
▁binanın	-6581
▁birader	-6582
▁biridir	-6583
▁bitirip	-6584
▁bittiii	-6585
▁bi̇tti̇	-6586
▁boynuna	-6587
▁boyunca	-6588
▁boğulur	-6589
▁bulurum	-6590
▁buranın	-6591
▁bölgede	-6592
▁bükerek	-6593
▁cebimde	-6594
▁cinayet	-6595
▁ciğerin	-6596
▁dağıtıp	-6597
▁deftere	-6598
▁delilik	-6599
blebi	-6600
buyur	-6601
okula	-6602
▁agır	-6603
▁come	-6604
▁grup	-6605
▁icat	-6606
▁lüks	-6607
▁notu	-6608
ahürat	-6609
casına	-6610
faiyec	-6611
humeyi	-6612
itanum	-6613
▁alkol	-6614
▁avust	-6615
▁ehmet	-6616
▁fıkra	-6617
▁ganem	-6618
▁köfte	-6619
▁leziz	-6620
▁mazer	-6621
▁pelki	-6622
▁rakib	-6623
▁rapor	-6624
▁ödünç	-6625
▁özgür	-6626
baharda	-6627
banttır	-6628
eseydim	-6629
illiams	-6630
pteşamb	-6631
▁aniden	-6632
▁ayular	-6633
▁denuza	-6634
▁gayret	-6635
▁kırıta	-6636
▁miktar	-6637
▁rağmen	-6638
▁salkım	-6639
▁sünnet	-6640
▁teslim	-6641
▁tespih	-6642
▁yatayü	-6643
▁zeynep	-6644
▁ülkede	-6645
öğretmen	-6646
▁bandıra	-6647
▁bağışla	-6648
▁bismark	-6649
▁denedim	-6650
▁denemek	-6651
▁denizde	-6652
▁derdini	-6653
▁dersler	-6654
▁devamlı	-6655
▁değilmi	-6656
▁değişik	-6657
▁dilerim	-6658
▁diyordu	-6659
▁dizilir	-6660
▁doğrusu	-6661
▁doğunca	-6662
▁duruşma	-6663
▁duyuldu	-6664
▁dönemin	-6665
▁dönmeye	-6666
▁dükkanı	-6667
▁dünyada	-6668
▁düşünce	-6669
▁edersin	-6670
▁edilmiş	-6671
▁eklemiş	-6672
▁elmalar	-6673
▁emaneti	-6674
▁etmedin	-6675
▁etmemek	-6676
▁ettiniz	-6677
▁evlerin	-6678
▁falanca	-6679
▁gardrop	-6680
▁garsonu	-6681
▁gecenin	-6682
▁geldiği	-6683
▁gelemem	-6684
▁geliyom	-6685
▁gelmedi	-6686
▁geriden	-6687
▁getirdi	-6688
▁gezmeye	-6689
▁geçelim	-6690
▁gidemez	-6691
▁gideriz	-6692
▁girince	-6693
▁gitmeye	-6694
▁göreyim	-6695
▁gülüyor	-6696
▁gülüşme	-6697
▁gününde	-6698
▁hafifçe	-6699
▁menej	-6700
irlayip	-6701
▁mendil	-6702
▁ocağum	-6703
▁sonucu	-6704
arudadur	-6705
lanmayin	-6706
▁asaydum	-6707
▁gururla	-6708
▁haftada	-6709
▁hakimin	-6710
▁hamamın	-6711
▁hancıya	-6712
▁hareket	-6713
▁harfini	-6714
▁hastaya	-6715
▁hatunla	-6716
▁havuzun	-6717
▁hayatım	-6718
▁hazreti	-6719
▁hazırdı	-6720
▁hepimiz	-6721
▁herkesi	-6722
▁hocamız	-6723
▁hırsızı	-6724
▁ikinizi	-6725
▁ileride	-6726
▁ilgilen	-6727
▁inceler	-6728
▁inerken	-6729
▁intihar	-6730
▁istemem	-6731
▁isterse	-6732
▁isteğim	-6733
▁isteğin	-6734
▁içmeden	-6735
▁işareti	-6736
▁i̇çinde	-6737
▁kabahat	-6738
▁kahkaha	-6739
▁kalbine	-6740
▁kapatın	-6741
▁kaptanı	-6742
▁karıştı	-6743
▁karşıki	-6744
▁katırın	-6745
▁kavanoz	-6746
▁kavuğun	-6747
▁kepçeyi	-6748
▁kesmeye	-6749
▁kestiği	-6750
▁kimseye	-6751
▁kişiyle	-6752
▁konulur	-6753
▁konumam	-6754
▁kopacak	-6755
▁korkmuş	-6756
▁kurulur	-6757
▁kuyudan	-6758
▁köydeki	-6759
▁küplere	-6760
▁kırarım	-6761
▁kısmını	-6762
▁kızarak	-6763
▁leblebi	-6764
▁makbule	-6765
▁manevra	-6766
▁masanın	-6767
▁menfaat	-6768
▁meraklı	-6769
▁metresi	-6770
▁metreyi	-6771
▁meyhane	-6772
▁milyonu	-6773
▁mutfağa	-6774
▁muzibin	-6775
▁mübarek	-6776
▁müjdemi	-6777
▁mızrağı	-6778
▁nasihat	-6779
▁nefsime	-6780
▁niyetim	-6781
▁olduğum	-6782
▁olmadan	-6783
▁olmamak	-6784
▁olmuyor	-6785
▁olurlar	-6786
▁olurmuş	-6787
▁olursak	-6788
▁olursan	-6789
▁orhanla	-6790
▁ormanın	-6791
▁ortalık	-6792
▁oynayan	-6793
▁oynayın	-6794
▁oynuyor	-6795
▁oğlunun	-6796
▁pamuklu	-6797
▁papagan	-6798
▁parayla	-6799
▁parçası	-6800
▁parçayı	-6801
▁patırtı	-6802
▁pazarın	-6803
▁pencere	-6804
▁pilotun	-6805
▁pirenin	-6806
▁poynima	-6807
▁puanlık	-6808
▁rastlar	-6809
▁saatini	-6810
▁sabahın	-6811
▁sanarak	-6812
▁sanıyor	-6813
▁satarım	-6814
▁satmaya	-6815
▁sayfada	-6816
▁sağında	-6817
▁sebeple	-6818
▁senelik	-6819
▁sergide	-6820
▁sevgili	-6821
▁sevinen	-6822
▁sevinir	-6823
▁silince	-6824
▁sirkeyi	-6825
▁si̇gara	-6826
▁sonunun	-6827
▁sorayım	-6828
▁sormaya	-6829
▁sorsana	-6830
▁söylene	-6831
▁tabutun	-6832
▁takımın	-6833
▁tanıyor	-6834
▁tanıyıp	-6835
▁tarafta	-6836
▁tarafın	-6837
▁tarlası	-6838
▁taşiyun	-6839
▁taşınır	-6840
▁temelde	-6841
▁tencere	-6842
▁tepeden	-6843
▁topkapı	-6844
▁toprağı	-6845
▁torbası	-6846
▁tutarak	-6847
▁tuvalet	-6848
▁tüyleri	-6849
▁tıraşın	-6850
▁ustanın	-6851
▁uyandım	-6852
▁uyanmış	-6853
▁uyumayı	-6854
▁uzaklaş	-6855
▁uzatmış	-6856
▁uğramış	-6857
▁uğrardı	-6858
▁uğursuz	-6859
▁vakitte	-6860
▁varınca	-6861
▁veririm	-6862
▁veririz	-6863
▁vurmaya	-6864
▁yamazan	-6865
▁yanıbaş	-6866
▁yanımda	-6867
▁yapayum	-6868
▁yarışma	-6869
▁yatakta	-6870
▁yayılır	-6871
▁yazacak	-6872
▁yazayım	-6873
▁yazmamı	-6874
▁yediyuz	-6875
▁yetişir	-6876
▁yetkili	-6877
▁yiyelim	-6878
▁yiyemem	-6879
▁yolumuz	-6880
▁yönelir	-6881
▁yörüğün	-6882
▁yünleri	-6883
▁zamanda	-6884
▁zamanın	-6885
▁zeytine	-6886
▁çakmaya	-6887
▁çalacak	-6888
▁çalındı	-6889
▁çarıklı	-6890
▁çatladi	-6891
▁çavuşum	-6892
▁çayınız	-6893
▁çekelim	-6894
▁çekince	-6895
▁çekiyor	-6896
▁çevreyi	-6897
▁çorbası	-6898
▁çıkarak	-6899
▁çınarın	-6900
▁öldürür	-6901
▁önemsiz	-6902
▁öyledir	-6903
▁öğrenen	-6904
▁üzgünüm	-6905
▁ırmağın	-6906
▁şaşkına	-6907
▁şehirde	-6908
▁şekerim	-6909
▁şekerli	-6910
▁şeyleri	-6911
▁şüpheli	-6912
dıklarını	-6913
ebilirsin	-6914
ediğinden	-6915
efendiler	-6916
iliğinden	-6917
isizliğin	-6918
komşusunu	-6919
ladıkları	-6920
laştırmak	-6921
stanbulda	-6922
üyorlardı	-6923
ıştırmaya	-6924
▁aceleyle	-6925
▁adamları	-6926
▁afiyetle	-6927
▁ahirette	-6928
▁alacaklı	-6929
▁aldıktan	-6930
▁almasına	-6931
▁alınacak	-6932
▁anahtarı	-6933
▁anlarlar	-6934
▁anırmağa	-6935
▁arabalar	-6936
▁aramakta	-6937
▁askerini	-6938
▁açlıktan	-6939
▁açmışken	-6940
▁açmışlar	-6941
▁açıklama	-6942
▁ağlamaya	-6943
▁bahçeden	-6944
▁bakanlar	-6945
▁başlayan	-6946
▁başımdan	-6947
▁başımıza	-6948
▁başından	-6949
▁bedelini	-6950
▁bekliyor	-6951
▁belinden	-6952
▁birazdan	-6953
▁biriktir	-6954
▁bozmadan	-6955
▁boğazına	-6956
▁bulabilm	-6957
▁burayıda	-6958
▁büyüksün	-6959
▁bıraktım	-6960
▁cebinden	-6961
▁cehennem	-6962
▁cübbenin	-6963
▁cümlenle	-6964
▁dedikodu	-6965
▁demesine	-6966
▁demiştim	-6967
▁devekusu	-6968
▁dikkatle	-6969
▁dilersen	-6970
▁diyorsun	-6971
▁doldurur	-6972
▁doydunuz	-6973
▁durmadan	-6974
▁dursunla	-6975
▁durumdan	-6976
▁duvarına	-6977
▁duymuyor	-6978
▁dövüşmek	-6979
▁dövüştük	-6980
▁düşündüm	-6981
▁dışarıda	-6982
▁eczaneye	-6983
▁ediyordu	-6984
▁ellerini	-6985
▁eriyecek	-6986
▁esnemeye	-6987
▁evlerine	-6988
▁eşyaları	-6989
▁fadimeyi	-6990
▁faturası	-6991
▁fiyatını	-6992
▁fırlatır	-6993
▁gardiyan	-6994
▁gazeteye	-6995
▁gecikmez	-6996
▁gelirken	-6997
▁gereksiz	-6998
▁geçmiyor	-6999
▁gittiler	-7000
▁göbeğini	-7001
▁gömleğim	-7002
▁görseniz	-7003
▁görürler	-7004
▁gösterdi	-7005
▁gösteren	-7006
▁gösterin	-7007
▁gözlerin	-7008
▁gözünden	-7009
▁güzeldir	-7010
▁haftanın	-7011
▁hakkınız	-7012
▁haklısın	-7013
▁haklıyım	-7014
▁hatırdan	-7015
▁hayatını	-7016
▁hayretle	-7017
▁hayvandı	-7018
▁hesabını	-7019
▁hoplayıp	-7020
▁huzuruna	-7021
▁ikisinin	-7022
▁ilaçları	-7023
▁inmişler	-7024
▁istasyon	-7025
▁istediği	-7026
▁istemeyi	-7027
▁içiyorum	-7028
▁işlerine	-7029
▁i̇zleyen	-7030
▁kafesten	-7031
▁kahvaltı	-7032
▁kalkamam	-7033
▁kalkarım	-7034
▁kalmamış	-7035
▁kamuflaj	-7036
▁karalara	-7037
▁kararını	-7038
▁karsilas	-7039
▁karışmış	-7040
▁karşılar	-7041
▁katılmış	-7042
▁kavuğunu	-7043
▁kaybolan	-7044
▁kazanmak	-7045
▁kepçeyle	-7046
▁keserler	-7047
▁kokusunu	-7048
▁konuşmuş	-7049
▁korkarak	-7050
▁korkutup	-7051
▁korkuyor	-7052
▁koymayın	-7053
▁kulaktır	-7054
▁kulağımı	-7055
▁kulağına	-7056
▁kurbanla	-7057
▁kurtarır	-7058
▁kurtuluş	-7059
▁kuruması	-7060
▁kürsüden	-7061
▁kırılmış	-7062
▁kısacası	-7063
▁kıymetli	-7064
▁lüzumsuz	-7065
▁makamına	-7066
▁mektubun	-7067
▁memleket	-7068
▁moralini	-7069
▁namazdan	-7070
▁nasildur	-7071
▁nasuldur	-7072
▁nasıldur	-7073
▁nasılsun	-7074
▁numarası	-7075
▁oduncuya	-7076
▁okyanusu	-7077
▁olacağız	-7078
▁olanlara	-7079
▁olanları	-7080
▁olmuştur	-7081
▁onlardan	-7082
▁otobüste	-7083
▁oturduğu	-7084
▁oyalamak	-7085
▁pantolon	-7086
▁papagana	-7087
▁papağana	-7088
▁paraları	-7089
▁parmağın	-7090
▁petshopa	-7091
▁pildiğum	-7092
▁profesör	-7093
▁rahmetli	-7094
▁randevum	-7095
▁rüzgârlı	-7096
▁saatinde	-7097
▁sakinleş	-7098
▁salaklar	-7099
▁sananeee	-7100
▁saniyede	-7101
▁satarken	-7102
▁sessizce	-7103
▁sonradan	-7104
▁sormayın	-7105
▁suyundan	-7106
▁söylemek	-7107
▁söylemis	-7108
▁söylenen	-7109
▁söylerim	-7110
▁söylüyor	-7111
▁sıcaktan	-7112
▁sıçrıyor	-7113
▁takılmış	-7114
▁tebessüm	-7115
▁telefonu	-7116
▁temizler	-7117
▁terörist	-7118
▁toplamış	-7119
▁toplayıp	-7120
▁torbadan	-7121
▁torununa	-7122
▁trabzona	-7123
▁tutuştur	-7124
▁tıpasını	-7125
▁uşaktaki	-7126
▁vaktiyle	-7127
▁valizine	-7128
▁vaziyeti	-7129
▁verdiniz	-7130
▁verdiğin	-7131
▁vermeyen	-7132
▁yaptınız	-7133
▁yarısını	-7134
▁yaslanır	-7135
▁yaşlılık	-7136
▁yemekten	-7137
▁yenisini	-7138
▁yetiştir	-7139
▁yiyorsun	-7140
▁yurtları	-7141
▁yüksekçe	-7142
▁yıkamaya	-7143
▁zamandan	-7144
▁çagirmis	-7145
▁çalmakla	-7146
▁çalışmış	-7147
▁çaresine	-7148
▁çarşamba	-7149
▁çarşıdan	-7150
▁çağrılır	-7151
▁çağırmış	-7152
▁çengelin	-7153
▁çevreden	-7154
▁çorbanın	-7155
▁çıkacağı	-7156
▁çıkarmaz	-7157
▁ödeyeyim	-7158
▁ögretmen	-7159
▁öldüğünü	-7160
▁ölmediği	-7161
▁önceleri	-7162
▁önlerine	-7163
▁öğrendim	-7164
▁ücretini	-7165
▁üstünden	-7166
▁üzülerek	-7167
▁şahitler	-7168
▁şehirden	-7169
▁şekerini	-7170
▁şeylerin	-7171
duklarında	-7172
eceklermiş	-7173
iyorlarmis	-7174
i̇i̇i̇i̇i̇	-7175
i̇nanmıyor	-7176
lamaktadır	-7177
larımızdan	-7178
verirsiniz	-7179
▁ablasının	-7180
▁ahbapları	-7181
▁alamayrum	-7182
▁almıyoruz	-7183
▁ameliyatı	-7184
▁amerikaya	-7185
▁arabasını	-7186
▁araştırma	-7187
▁arıyorsun	-7188
▁avukatını	-7189
▁aylarında	-7190
▁açtığımda	-7191
▁açılmıştı	-7192
▁bahçedeki	-7193
▁bahçesine	-7194
▁balondaki	-7195
▁bardaktan	-7196
▁barışırız	-7197
▁bağırarak	-7198
▁başlarına	-7199
▁belirtisi	-7200
▁beraberce	-7201
▁beğendiği	-7202
▁bilmediği	-7203
▁bilmezsin	-7204
▁bilseydim	-7205
▁bineceğim	-7206
▁birisiyle	-7207
▁birkaçını	-7208
▁birşeyler	-7209
▁bittikten	-7210
▁büyüyünce	-7211
▁cenazenin	-7212
▁cevapladı	-7213
▁cevapları	-7214
▁cübbesini	-7215
▁davacıyım	-7216
▁davalının	-7217
▁demokrasi	-7218
▁değirmene	-7219
▁değişiyor	-7220
▁değiştirm	-7221
▁dikmişler	-7222
▁diliyorum	-7223
▁doktoruna	-7224
▁duvardaki	-7225
▁dökmüşler	-7226
▁dükkânına	-7227
▁düşünceli	-7228
▁edilirken	-7229
▁edilmenin	-7230
▁ediyormus	-7231
▁ediyorsun	-7232
▁ellerinde	-7233
▁etkisiyle	-7234
▁etmeyiniz	-7235
▁fadimeden	-7236
▁fransızın	-7237
▁fırtınaya	-7238
▁geleceğim	-7239
▁gelenlere	-7240
▁gelenleri	-7241
▁gelinceye	-7242
▁geliyorsa	-7243
▁gelmişler	-7244
▁gelmiştir	-7245
▁generalin	-7246
▁getirdiği	-7247
▁getirebil	-7248
▁getirerek	-7249
▁getirmeye	-7250
▁gevşeklik	-7251
▁geçeceğiz	-7252
▁geçmesine	-7253
▁geçtiğini	-7254
▁gideceğim	-7255
▁gidiyordu	-7256
▁girdiğini	-7257
▁gitmesine	-7258
▁gittiğini	-7259
▁göremedik	-7260
▁görevliye	-7261
▁görsünler	-7262
▁görüşürüz	-7263
▁götürmeye	-7264
▁hastaları	-7265
▁hemşehrim	-7266
▁hemşerisi	-7267
▁heyecanla	-7268
▁hoşlanmış	-7269
▁istanbula	-7270
▁istekleri	-7271
▁i̇ngilter	-7272
▁i̇stersen	-7273
▁kafasında	-7274
▁kalanlara	-7275
▁kalkmamış	-7276
▁kapanırsa	-7277
▁kardeşine	-7278
▁karısının	-7279
▁kazılarda	-7280
▁kaşlarını	-7281
▁kendinden	-7282
▁kesilecek	-7283
▁kirlileri	-7284
▁kollarını	-7285
▁koltunuzu	-7286
▁komadadır	-7287
▁komadayım	-7288
▁komitanum	-7289
▁konuşurum	-7290
▁koparıyor	-7291
▁koyuverir	-7292
▁kulaklığı	-7293
▁kurtarmak	-7294
▁kuyruksuz	-7295
▁köpekleri	-7296
▁köylerden	-7297
▁kıracağız	-7298
▁kırtasiye	-7299
▁kızgınlık	-7300
▁madalyayı	-7301
▁mahkemede	-7302
▁misafirim	-7303
▁müşteriye	-7304
▁nerelisun	-7305
▁odacisini	-7306
▁odalarına	-7307
▁olacakmış	-7308
▁olmayacak	-7309
▁oradaydın	-7310
▁ortasında	-7311
▁otobüsüne	-7312
▁oturdular	-7313
▁oturmakta	-7314
▁oymakbeyi	-7315
▁padişahım	-7316
▁parmaklık	-7317
▁parmağımı	-7318
▁parmağını	-7319
▁pazartesi	-7320
▁pilmeyrum	-7321
▁poynundan	-7322
▁ramazanla	-7323
▁röpteşamb	-7324
▁rüyasında	-7325
▁saatlerce	-7326
▁saatlerde	-7327
▁sabahları	-7328
▁sananeeee	-7329
▁sanmıştım	-7330
▁sayesinde	-7331
▁sağındaki	-7332
▁seferinde	-7333
▁sessizlik	-7334
▁soracağım	-7335
▁sormuslar	-7336
▁sorununuz	-7337
▁söylerler	-7338
▁söylersin	-7339
▁söylesene	-7340
▁sözlerine	-7341
▁tanıyorum	-7342
▁tarladaki	-7343
▁taşlardan	-7344
▁tekrardan	-7345
▁temizleye	-7346
▁tencereyi	-7347
▁tezahürat	-7348
▁teşhisini	-7349
▁toprağını	-7350
▁torbasına	-7351
▁ucuzlamış	-7352
▁unutmamak	-7353
▁utanmadan	-7354
▁utanmıyor	-7355
▁uyandırır	-7356
▁uğraşamam	-7357
▁veriyorum	-7358
▁vermiştin	-7359
▁yahudinin	-7360
▁yakalamış	-7361
▁yakalanır	-7362
▁yalnızken	-7363
▁yanındaki	-7364
▁yapabilir	-7365
▁yapacağum	-7366
▁yapayudun	-7367
▁yaptığını	-7368
▁yapıyorum	-7369
▁yarışmaya	-7370
▁yattığını	-7371
▁yaylasına	-7372
▁yazdığını	-7373
▁yazıyorum	-7374
▁yemekleri	-7375
▁yolculuğu	-7376
▁yumurtlam	-7377
▁yürüyerek	-7378
▁zamanının	-7379
▁zenginlik	-7380
▁zıplamaya	-7381
▁çaldığını	-7382
▁çalmasını	-7383
▁çantasını	-7384
▁çarparsak	-7385
▁çarpmasun	-7386
▁çağırarak	-7387
▁çağırılır	-7388
▁çekmişler	-7389
▁çevirerek	-7390
▁çorapları	-7391
▁çorbasını	-7392
▁çıkarınca	-7393
▁öfkelenen	-7394
▁önlerinde	-7395
▁ötekileri	-7396
▁ülkemizde	-7397
abilirsiniz	-7398
▁adamlardan	-7399
▁akşamüzeri	-7400
▁ameri̇kaya	-7401
▁anladığını	-7402
▁anlaşılmış	-7403
▁apartmanın	-7404
▁arabasıyla	-7405
▁atalarımız	-7406
▁ağaçlardan	-7407
▁babasından	-7408
▁bakıyormuş	-7409
▁bakıyorsun	-7410
▁bakışlarla	-7411
▁bağlayarak	-7412
▁başladınız	-7413
▁belirtilen	-7414
▁beğenmedim	-7415
▁biniyorsun	-7416
▁bizimkiler	-7417
▁böylelikle	-7418
▁cephanelik	-7419
▁delikanlıl	-7420
▁delilerden	-7421
▁demiştemel	-7422
▁değiştirin	-7423
▁dinleyeyim	-7424
▁doktorlara	-7425
▁durdurarak	-7426
▁dövüyorlar	-7427
▁esnemeleri	-7428
▁esniyorsun	-7429
▁etmesinler	-7430
▁fırtınadan	-7431
▁geçenlerde	-7432
▁gidecekmiş	-7433
▁gidecektim	-7434
▁gidecektir	-7435
▁gittikleri	-7436
▁gittiğinde	-7437
▁giyiyorsun	-7438
▁gizleyemez	-7439
▁göndererek	-7440
▁görevliler	-7441
▁görünmüyor	-7442
▁görüyorsun	-7443
▁gösteriyor	-7444
▁gülümsemiş	-7445
▁harcanınca	-7446
▁hastalanır	-7447
▁hatırlayıp	-7448
▁havlayarak	-7449
▁hayvanları	-7450
▁ilerlerken	-7451
▁ilgilendir	-7452
▁insanların	-7453
▁isterseniz	-7454
▁istersiniz	-7455
▁izliyormuş	-7456
▁i̇ndiğinde	-7457
▁i̇ngilizce	-7458
▁i̇ngilizin	-7459
▁kademesine	-7460
▁kaldırarak	-7461
▁kapalıymış	-7462
▁kapısından	-7463
▁karanlıkta	-7464
▁karşılaştı	-7465
▁karşılıklı	-7466
▁kaybederim	-7467
▁kaçıyorsun	-7468
▁kendisiyle	-7469
▁kesinlikle	-7470
▁konservatu	-7471
▁konuşmayın	-7472
▁konuşmuyor	-7473
▁kovulduğum	-7474
▁koyulaştır	-7475
▁koşamazsın	-7476
▁kullanmaya	-7477
▁kurtulmağa	-7478
▁küçüğünden	-7479
▁memlekette	-7480
▁motorundan	-7481
▁nalbanttır	-7482
▁namazından	-7483
▁pağladığum	-7484
▁sabahleyin	-7485
▁sahibinden	-7486
▁salıyorlar	-7487
▁sesleniyor	-7488
▁sivrihisar	-7489
▁soracaktım	-7490
▁soruyorlar	-7491
▁söylenmeye	-7492
▁söyleyecek	-7493
▁söyleyerek	-7494
▁söyleyeyim	-7495
▁sıklaşınca	-7496
▁sıralardan	-7497
▁tanımayrum	-7498
▁tarafından	-7499
▁temizlemek	-7500
▁tencerenin	-7501
▁tezgahtara	-7502
▁tezgahtarı	-7503
▁uykusuzluk	-7504
▁uyurlarken	-7505
▁uyuyamadım	-7506
▁uçağımızın	-7507
▁uğradığını	-7508
▁vardığında	-7509
▁vurulduğum	-7510
▁yaklaşınca	-7511
▁yakınından	-7512
▁yanlarında	-7513
▁yaptığımız	-7514
▁yapıştırdı	-7515
▁yaylamızın	-7516
▁yazarsonra	-7517
▁yazıyorsun	-7518
▁yaşındasın	-7519
▁yedi̇recek	-7520
▁zamanlarda	-7521
▁zannederek	-7522
▁zannediyor	-7523
▁ziyaretine	-7524
▁zıplayarak	-7525
▁çadırımızı	-7526
▁çalışanlar	-7527
▁çaresizluk	-7528
▁çekilirler	-7529
▁çocuklarun	-7530
▁çıkarırlar	-7531
▁çıkmıyordu	-7532
▁çıktığında	-7533
▁ödeyeceğim	-7534
▁öğrencinin	-7535
▁üzerindeki	-7536
hemşerilerim	-7537
▁adamlardaki	-7538
▁anlayamadım	-7539
▁aralarından	-7540
▁ayakkabılar	-7541
▁bağırmışlar	-7542
▁beklemekten	-7543
▁bilemeyecek	-7544
▁bilmediğini	-7545
▁birbirinden	-7546
▁bitirdikten	-7547
▁burunlarına	-7548
▁dayanamayan	-7549
▁değerlendir	-7550
▁değiştirdim	-7551
▁değiştirmem	-7552
▁dinledikten	-7553
▁dostlarıyla	-7554
▁dısarudadur	-7555
▁efendimizin	-7556
▁emrediyorum	-7557
▁eşeklerinin	-7558
▁gazeteciler	-7559
▁gazetelerde	-7560
▁gelmediğini	-7561
▁giderlerken	-7562
▁gitmelerini	-7563
▁göstermeyen	-7564
▁güzelliğine	-7565
▁hastanesini	-7566
▁hemşerisine	-7567
▁huysuzlanır	-7568
▁hınklarının	-7569
▁indirdikten	-7570
▁ingiltereye	-7571
▁iskeletidir	-7572
▁izleyeceğum	-7573
▁i̇ngilizler	-7574
▁kanatlarını	-7575
▁kayseriliye	-7576
▁kırtasiyeye	-7577
▁mayalıyorum	-7578
▁misafirlere	-7579
▁mollalarına	-7580
▁müslümanlar	-7581
▁oturdukları	-7582
▁oyuncağının	-7583
▁pazarlıktan	-7584
▁sandalyeyle	-7585
▁satıldığını	-7586
▁sonuçlarına	-7587
▁televizyonu	-7588
▁yanlarından	-7589
▁yapabilirim	-7590
▁yapıştırmış	-7591
▁yetmiyormuş	-7592
▁yıldızların	-7593
▁zehirlenmiş	-7594
▁çarpışmadan	-7595
▁çevirmezsen	-7596
▁çıkardıktan	-7597
▁çıkarmışlar	-7598
▁öğrenememiş	-7599
▁şahitlerden	-7600
▁şişireceğim	-7601
▁alışverişten	-7602
▁anlatmayayım	-7603
▁bahçesindeki	-7604
▁başucumdasın	-7605
▁beyendinizmi	-7606
▁boşaltıyorum	-7607
▁diyeceklerin	-7608
▁duruyorhemen	-7609
▁düşünüyorsun	-7610
▁ediyorlarmış	-7611
▁elbiselerini	-7612
▁erzurumluyum	-7613
▁gazetecilere	-7614
▁gerekiyormuş	-7615
▁geçirdiğimde	-7616
▁gidiyorsunuz	-7617
▁görüyorsunuz	-7618
▁hemşerilerim	-7619
▁ilgisizliğin	-7620
▁incelediğini	-7621
▁i̇ngiltereye	-7622
▁kaldıramadım	-7623
▁kayseriliden	-7624
▁kayınvalidem	-7625
▁konuşulurken	-7626
▁konuşuyorlar	-7627
▁lokantaların	-7628
▁mendillerini	-7629
▁merdivenleri	-7630
▁mevsimlerden	-7631
▁mutluluğunda	-7632
▁mırıldanarak	-7633
▁okuyamıyorum	-7634
▁papağanların	-7635
▁parmaklarını	-7636
▁soruyorsunuz	-7637
▁yapılacaktır	-7638
▁yatıştırmaya	-7639
▁yaylamızdaki	-7640
▁arkadaşlardan	-7641
▁başucumdaydın	-7642
▁birbirleriyle	-7643
▁bıldırcınları	-7644
▁dayanamayarak	-7645
▁dinliyorlardı	-7646
▁düşüncelerimi	-7647
▁düşünmektedir	-7648
▁geldiklerinde	-7649
▁gerekmektedir	-7650
▁göremiyorumki	-7651
▁hastanesinden	-7652
▁karadenizliye	-7653
▁karşılaşırlar	-7654
▁kendiliğinden	-7655
▁kompartımanda	-7656
▁müşterilerden	-7657
▁söylemektedir	-7658
▁uzaklaştırmak	-7659
▁yakalanışında	-7660
▁yapmişudumama	-7661
▁yürüyorlarbir	-7662
▁yürüyorlarmış	-7663
i̇nanmıyorsanız	-7664
▁arkadaşlarıyla	-7665
▁düşünüyorsunuz	-7666
▁etrafındakiler	-7667
▁karadenizliler	-7668
▁karadenizlinin	-7669
▁konuşuyorlardı	-7670
▁kızıldereliler	-7671
▁oturuyorlarmış	-7672
▁salıverirsiniz	-7673
▁sevdirememişti	-7674
▁çözerkomşusunu	-7675
▁arkadaşlarından	-7676
▁hemşerilerinden	-7677
▁karıştırıyormuş	-7678
▁karşılaştıkları	-7679
▁kullanmışlardır	-7680
▁motorlarımızdan	-7681
▁çalışanlarından	-7682
13	-7683
15	-7684
bö	-7685
cö	-7686
dd	-7687
dy	-7688
gz	-7689
hh	-7690
hr	-7691
ie	-7692
ig	-7693
ko	-7694
mz	-7695
na	-7696
ni	-7697
no	-7698
od	-7699
22	-7700
og	-7701
pe	-7702
pi	-7703
to	-7704
ua	-7705
vo	-7706
yu	-7707
yy	-7708
zn	-7709
zü	-7710
zı	-7711
âd	-7712
âm	-7713
çü	-7714
ök	-7715
öo	-7716
öt	-7717
ıh	-7718
ıı	-7719
şı	-7720
̇ğ	-7721
adi	-7722
ale	-7723
amp	-7724
ard	-7725
arl	-7726
bas	-7727
bim	-7728
cem	-7729
cin	-7730
dah	-7731
def	-7732
ekm	-7733
ese	-7734
eyh	-7735
eyv	-7736
fer	-7737
fin	-7738
fir	-7739
ger	-7740
him	-7741
hir	-7742
hor	-7743
iir	-7744
inm	-7745
irr	-7746
irt	-7747
itr	-7748
iym	-7749
i̇d	-7750
i̇ç	-7751
kas	-7752
kta	-7753
lal	-7754
mar	-7755
maç	-7756
mda	-7757
oop	-7758
ova	-7759
oşu	-7760
per	-7761
pin	-7762
rek	-7763
rım	-7764
sir	-7765
tab	-7766
tok	-7767
tüü	-7768
ulu	-7769
unç	-7770
yaj	-7771
yam	-7772
yük	-7773
zen	-7774
zor	-7775
âli	-7776
çtü	-7777
ükr	-7778
üth	-7779
üzü	-7780
ğuş	-7781
ınt	-7782
şın	-7783
▁ci	-7784
▁cm	-7785
▁ee	-7786
▁go	-7787
▁gı	-7788
▁hü	-7789
▁ii	-7790
▁iğ	-7791
▁kl	-7792
▁na	-7793
▁oh	-7794
▁sh	-7795
▁vb	-7796
▁yi	-7797
aben	-7798
adir	-7799
akk	-7800
evl	-7801
iza	-7802
işi	-7803
kal	-7804
ore	-7805
pol	-7806
vel	-7807
zem	-7808
üyi	-7809
ıca	-7810
ıır	-7811
▁15	-7812
▁to	-7813
▁üm	-7814
adta	-7815
ahta	-7816
akan	-7817
alat	-7818
alim	-7819
alya	-7820
amay	-7821
anun	-7822
anış	-7823
ardı	-7824
aset	-7825
asıy	-7826
atma	-7827
atum	-7828
atur	-7829
atıp	-7830
ayır	-7831
ayıt	-7832
açaç	-7833
ağım	-7834
bilm	-7835
burt	-7836
deme	-7837
desi	-7838
di̇m	-7839
dığo	-7840
eman	-7841
emed	-7842
emel	-7843
enem	-7844
enge	-7845
erey	-7846
esik	-7847
gele	-7848
gını	-7849
idir	-7850
idur	-7851
iker	-7852
ilce	-7853
ileş	-7854
ilır	-7855
imli	-7856
iriz	-7857
isan	-7858
iyak	-7859
iyes	-7860
iğer	-7861
iğin	-7862
kını	-7863
lana	-7864
ldun	-7865
mişe	-7866
ones	-7867
plik	-7868
rmuş	-7869
sede	-7870
si̇z	-7871
sule	-7872
teke	-7873
tika	-7874
tmiş	-7875
umda	-7876
umen	-7877
unce	-7878
unur	-7879
uzce	-7880
yook	-7881
zden	-7882
önce	-7883
üman	-7884
ütun	-7885
ılar	-7886
ıllı	-7887
ınma	-7888
ışık	-7889
şeyi	-7890
̇ği̇	-7891
▁ala	-7892
▁alı	-7893
▁amp	-7894
▁bad	-7895
▁bem	-7896
▁büs	-7897
▁dar	-7898
▁day	-7899
ami	-7900
atı	-7901
gis	-7902
lee	-7903
lil	-7904
teş	-7905
tüğ	-7906
vam	-7907
üle	-7908
şim	-7909
▁20	-7910
▁va	-7911
aray	-7912
asam	-7913
edih	-7914
iyan	-7915
larm	-7916
likt	-7917
olar	-7918
staf	-7919
ti̇m	-7920
uyuk	-7921
▁dey	-7922
▁dom	-7923
▁dır	-7924
▁edi	-7925
▁ert	-7926
▁fbi	-7927
▁gib	-7928
▁gul	-7929
▁hen	-7930
▁huk	-7931
▁ing	-7932
▁iyp	-7933
▁i̇t	-7934
▁kef	-7935
▁kud	-7936
▁meg	-7937
▁nah	-7938
▁naz	-7939
▁nuh	-7940
▁olt	-7941
▁ooo	-7942
▁pur	-7943
▁pür	-7944
▁rol	-7945
▁sem	-7946
▁sül	-7947
▁sım	-7948
▁sıy	-7949
▁tap	-7950
▁tir	-7951
▁ton	-7952
▁tım	-7953
▁vil	-7954
▁vir	-7955
▁vıy	-7956
▁yel	-7957
▁yik	-7958
▁yin	-7959
▁çut	-7960
▁çıt	-7961
▁öğü	-7962
▁şiç	-7963
abbet	-7964
abına	-7965
adama	-7966
ahayı	-7967
andan	-7968
ansiz	-7969
areyi	-7970
asini	-7971
ayağı	-7972
banın	-7973
biden	-7974
dedih	-7975
deniz	-7976
deril	-7977
derse	-7978
desin	-7979
desun	-7980
dince	-7981
drisi	-7982
duyla	-7983
dırıp	-7984
efsiz	-7985
eketi	-7986
ektin	-7987
enmiş	-7988
eraya	-7989
eri̇ç	-7990
eteor	-7991
etmiş	-7992
eyime	-7993
falar	-7994
geldi	-7995
gisir	-7996
gılan	-7997
gımız	-7998
iiirr	-7999
eks	-8000
gay	-8001
hek	-8002
iya	-8003
lün	-8004
res	-8005
âff	-8006
üşü	-8007
ğru	-8008
▁nö	-8009
▁nı	-8010
aşım	-8011
buna	-8012
grul	-8013
hane	-8014
irum	-8015
izat	-8016
otun	-8017
oşup	-8018
üfek	-8019
▁buj	-8020
▁dad	-8021
▁dah	-8022
▁ell	-8023
▁önü	-8024
ahmak	-8025
canım	-8026
doğru	-8027
edres	-8028
grult	-8029
hizat	-8030
imasi	-8031
indir	-8032
inmey	-8033
islar	-8034
itmiş	-8035
iycek	-8036
iyken	-8037
iylan	-8038
işine	-8039
i̇men	-8040
i̇ni̇	-8041
kence	-8042
kudur	-8043
lamın	-8044
larca	-8045
leram	-8046
lerun	-8047
luğum	-8048
metik	-8049
miyes	-8050
mzuna	-8051
nedil	-8052
olulu	-8053
ondan	-8054
onluk	-8055
opter	-8056
orada	-8057
redur	-8058
retya	-8059
stafa	-8060
stemi	-8061
sunda	-8062
sunde	-8063
tanrı	-8064
tihas	-8065
tingi	-8066
tiram	-8067
tliğe	-8068
umayı	-8069
urgan	-8070
urmet	-8071
ussuz	-8072
uğumu	-8073
uşunu	-8074
yaşım	-8075
ymi̇ş	-8076
âffuz	-8077
üsten	-8078
üydüm	-8079
ıptır	-8080
ıtını	-8081
ışırd	-8082
̇mdi̇	-8083
▁acır	-8084
▁adem	-8085
▁aksi	-8086
▁alab	-8087
▁alda	-8088
▁alun	-8089
▁anad	-8090
▁aral	-8091
▁arke	-8092
▁atin	-8093
▁ayla	-8094
▁bili	-8095
▁bina	-8096
▁bini	-8097
▁bire	-8098
▁boğa	-8099
pta	-8100
sit	-8101
sol	-8102
sta	-8103
tal	-8104
yas	-8105
adin	-8106
ikam	-8107
ikan	-8108
imay	-8109
işti	-8110
usuz	-8111
ükür	-8112
üşür	-8113
ılız	-8114
▁hom	-8115
▁hım	-8116
▁kuc	-8117
adana	-8118
irtti	-8119
kipta	-8120
memiz	-8121
serum	-8122
solos	-8123
tuğum	-8124
tüşür	-8125
yassı	-8126
▁aşka	-8127
▁bela	-8128
▁bişe	-8129
▁bula	-8130
▁cell	-8131
▁dair	-8132
▁dörd	-8133
▁eyip	-8134
▁eğir	-8135
▁fırt	-8136
▁geze	-8137
▁gunu	-8138
▁göst	-8139
▁havv	-8140
▁herh	-8141
▁hoce	-8142
▁hoşn	-8143
▁ikis	-8144
▁i̇çi	-8145
▁kahr	-8146
▁kaşı	-8147
▁kili	-8148
▁körü	-8149
▁köse	-8150
▁kılç	-8151
▁mahv	-8152
▁nede	-8153
▁nice	-8154
▁oken	-8155
▁onda	-8156
▁park	-8157
▁pirz	-8158
▁rize	-8159
▁sürg	-8160
▁sütü	-8161
▁taks	-8162
▁vali	-8163
▁yazi	-8164
▁zümr	-8165
▁çaba	-8166
▁ölüm	-8167
▁özgü	-8168
▁özne	-8169
▁öğün	-8170
▁şaha	-8171
▁şöyl	-8172
acaktı	-8173
acımız	-8174
ademiş	-8175
adıkça	-8176
alanan	-8177
alyaya	-8178
amanın	-8179
ametin	-8180
amının	-8181
antaya	-8182
anının	-8183
apalım	-8184
arzdır	-8185
asaray	-8186
asinin	-8187
ayacak	-8188
ayetum	-8189
babamı	-8190
birine	-8191
buldum	-8192
caksın	-8193
cekler	-8194
cektin	-8195
dadına	-8196
dirici	-8197
dunçok	-8198
duğumu	-8199
ase	-8200
eda	-8201
niz	-8202
çil	-8203
üya	-8204
▁pl	-8205
adad	-8206
adet	-8207
alik	-8208
avat	-8209
aşın	-8210
edek	-8211
ediy	-8212
ende	-8213
guya	-8214
leme	-8215
ıyız	-8216
▁aya	-8217
▁iad	-8218
▁pi̇	-8219
demiş	-8220
erdim	-8221
ihoca	-8222
lemiş	-8223
çiluk	-8224
ülere	-8225
▁imza	-8226
▁plân	-8227
▁rüya	-8228
▁seda	-8229
▁soyl	-8230
▁şart	-8231
adadur	-8232
alıyız	-8233
asebet	-8234
ediğim	-8235
elemiş	-8236
emişçi	-8237
endeki	-8238
erecek	-8239
esiniz	-8240
eyelim	-8241
eyerek	-8242
eyisun	-8243
hekime	-8244
ifatur	-8245
ilinin	-8246
ilırum	-8247
irahat	-8248
iterek	-8249
izliye	-8250
izliğa	-8251
iğudur	-8252
i̇ni̇n	-8253
karpin	-8254
kimdir	-8255
lemdir	-8256
leymiş	-8257
lülere	-8258
lıkken	-8259
lığına	-8260
meleri	-8261
orunuz	-8262
retmiş	-8263
stadta	-8264
sundan	-8265
takine	-8266
terimi	-8267
turmaz	-8268
ucuğum	-8269
ukları	-8270
umenun	-8271
usunda	-8272
usunun	-8273
verdim	-8274
âdişah	-8275
ökmeye	-8276
übeyle	-8277
ümeden	-8278
ümüzde	-8279
üreden	-8280
ılınca	-8281
ınmaya	-8282
ışıdır	-8283
şındır	-8284
▁affed	-8285
▁affet	-8286
▁alını	-8287
▁aradı	-8288
▁astık	-8289
▁atlet	-8290
▁attan	-8291
▁ağzım	-8292
▁badem	-8293
▁bakim	-8294
▁bakra	-8295
▁basta	-8296
▁bekar	-8297
▁bilip	-8298
▁biran	-8299
bi̇	-8300
buk	-8301
taş	-8302
yet	-8303
çlı	-8304
alet	-8305
aşir	-8306
buki	-8307
eriz	-8308
etam	-8309
eten	-8310
etur	-8311
eyet	-8312
eğun	-8313
i̇kn	-8314
▁bag	-8315
▁izc	-8316
▁kiz	-8317
▁maş	-8318
▁nik	-8319
ilmaz	-8320
iğimi	-8321
laştı	-8322
ışlar	-8323
▁dili	-8324
▁maym	-8325
▁odas	-8326
▁yusu	-8327
bilmiş	-8328
delide	-8329
dukoca	-8330
olojik	-8331
ulurmi	-8332
▁aksam	-8333
▁boyar	-8334
▁bozul	-8335
▁bozup	-8336
▁boşun	-8337
▁calay	-8338
▁cevab	-8339
▁cidey	-8340
▁daima	-8341
▁damat	-8342
▁dedem	-8343
▁demez	-8344
▁demin	-8345
▁deney	-8346
▁desem	-8347
▁desin	-8348
▁değul	-8349
▁dille	-8350
▁dinle	-8351
▁diyey	-8352
▁dolar	-8353
▁dosta	-8354
▁dükkâ	-8355
▁elekt	-8356
▁elime	-8357
▁erler	-8358
▁evini	-8359
▁eşoğl	-8360
▁eşraf	-8361
▁farkı	-8362
▁fikra	-8363
▁filme	-8364
▁fiyak	-8365
▁getur	-8366
▁gevez	-8367
▁geçim	-8368
▁geçin	-8369
▁gitse	-8370
▁giyip	-8371
▁gömül	-8372
▁göriy	-8373
▁güldü	-8374
▁gülme	-8375
▁halik	-8376
▁handa	-8377
▁harik	-8378
▁hayra	-8379
▁hâlin	-8380
▁hüsam	-8381
▁ikisu	-8382
▁imkan	-8383
▁inler	-8384
▁içsem	-8385
▁içtik	-8386
▁i̇nan	-8387
▁kabil	-8388
▁kalbi	-8389
▁kalma	-8390
▁kapıl	-8391
▁kaçir	-8392
▁kelim	-8393
▁kerim	-8394
▁kesti	-8395
▁keten	-8396
▁kirli	-8397
▁kişiy	-8398
▁klini	-8399
ath	-8400
bat	-8401
ciz	-8402
cım	-8403
yap	-8404
ıms	-8405
▁ög	-8406
afat	-8407
akla	-8408
amız	-8409
asta	-8410
atay	-8411
else	-8412
ence	-8413
irip	-8414
kedi	-8415
lero	-8416
lıdı	-8417
ohum	-8418
ordr	-8419
ümün	-8420
▁hic	-8421
▁çap	-8422
amıza	-8423
athro	-8424
daydı	-8425
leriz	-8426
ordro	-8427
uklar	-8428
ulsun	-8429
▁anac	-8430
▁değm	-8431
▁evli	-8432
▁olir	-8433
▁terl	-8434
▁öbur	-8435
▁şeri	-8436
ayiler	-8437
cizesi	-8438
elsefi	-8439
ibinde	-8440
latmak	-8441
ümünde	-8442
▁anıms	-8443
▁ilanı	-8444
▁kokan	-8445
▁konan	-8446
▁kopya	-8447
▁kulaç	-8448
▁kural	-8449
▁kuruy	-8450
▁kıyas	-8451
▁kızdı	-8452
▁lamba	-8453
▁liram	-8454
▁makas	-8455
▁miden	-8456
▁midir	-8457
▁minik	-8458
▁miyum	-8459
▁mükem	-8460
▁nasip	-8461
▁nişan	-8462
▁nöbet	-8463
▁oksit	-8464
▁onunu	-8465
▁oğlun	-8466
▁paska	-8467
▁paşka	-8468
▁piraz	-8469
▁pozuk	-8470
▁satıy	-8471
▁sağol	-8472
▁sağır	-8473
▁sezin	-8474
▁silip	-8475
▁sizde	-8476
▁sorum	-8477
▁subay	-8478
▁suçlu	-8479
▁sürüc	-8480
▁sırıl	-8481
▁taşit	-8482
▁taşım	-8483
▁temek	-8484
▁terli	-8485
▁tohum	-8486
▁tükür	-8487
▁varan	-8488
▁varın	-8489
▁vurur	-8490
▁yakut	-8491
▁yanay	-8492
▁yapap	-8493
▁yapış	-8494
▁yaram	-8495
▁yazdı	-8496
▁yaşta	-8497
▁yemin	-8498
▁yerse	-8499
ide	-8500
iğe	-8501
ona	-8502
elum	-8503
ereç	-8504
esen	-8505
esim	-8506
iyon	-8507
umin	-8508
▁bud	-8509
▁mum	-8510
▁pan	-8511
▁pay	-8512
▁pin	-8513
▁çes	-8514
agona	-8515
arişi	-8516
cağiz	-8517
etine	-8518
ükken	-8519
▁aker	-8520
▁atta	-8521
▁eser	-8522
▁hica	-8523
▁huyu	-8524
▁hâlâ	-8525
▁olağ	-8526
▁usan	-8527
durlar	-8528
duymaz	-8529
ememis	-8530
unuzun	-8531
▁galat	-8532
▁gereç	-8533
▁hicaz	-8534
▁kapar	-8535
▁muzik	-8536
▁ordun	-8537
▁tutup	-8538
▁yazsa	-8539
▁yorma	-8540
▁yorum	-8541
▁yunur	-8542
▁yüklü	-8543
▁zilin	-8544
▁ziyan	-8545
▁zorla	-8546
▁çabal	-8547
▁çatır	-8548
▁çeşme	-8549
▁çutur	-8550
▁çıksa	-8551
▁ödlek	-8552
▁öttür	-8553
▁üçünc	-8554
▁şubat	-8555
▁şunun	-8556
adandır	-8557
aderdün	-8558
alarına	-8559
allahi̇	-8560
anamadı	-8561
anlarda	-8562
anıştın	-8563
bakanın	-8564
dalalık	-8565
danmaya	-8566
ecektin	-8567
edirgin	-8568
ekteydi	-8569
etirler	-8570
etmenin	-8571
eyirmuş	-8572
eğinden	-8573
eğinizi	-8574
gulamak	-8575
hayrola	-8576
idanard	-8577
ilirsin	-8578
irmişbu	-8579
i̇rsi̇n	-8580
kapının	-8581
katında	-8582
lasıyla	-8583
layamay	-8584
lenirim	-8585
liğimde	-8586
lüğünde	-8587
lıyordu	-8588
lığınız	-8589
meliyim	-8590
raaaaya	-8591
sizliği	-8592
tiğinin	-8593
tuların	-8594
unuzdan	-8595
unuzdur	-8596
uçükken	-8597
veceğiz	-8598
çilerin	-8599
dit	-8600
ida	-8601
abet	-8602
amda	-8603
aşla	-8604
gaha	-8605
ymiş	-8606
ıldi	-8607
▁deş	-8608
▁özl	-8609
▁şar	-8610
asimi	-8611
dilar	-8612
enlik	-8613
mağin	-8614
tamal	-8615
ımdır	-8616
ırmış	-8617
▁buda	-8618
▁kaçı	-8619
▁kura	-8620
▁sora	-8621
▁tarl	-8622
▁teli	-8623
ayurum	-8624
ayısun	-8625
ecerik	-8626
eyirum	-8627
idymiş	-8628
mişsun	-8629
tıları	-8630
ısıyım	-8631
▁adamu	-8632
▁bunca	-8633
▁dalar	-8634
▁defol	-8635
▁deşik	-8636
▁kaldi	-8637
▁nefis	-8638
▁sakat	-8639
▁yanda	-8640
▁yüreğ	-8641
▁üstün	-8642
ayanlar	-8643
cısıyım	-8644
ebildin	-8645
kenleri	-8646
ranonun	-8647
ükretya	-8648
ümesten	-8649
ınların	-8650
ıyoryük	-8651
ışından	-8652
▁adamak	-8653
▁adamdi	-8654
▁adamım	-8655
▁adanın	-8656
▁afrika	-8657
▁akadaş	-8658
▁albaya	-8659
▁almayı	-8660
▁alınca	-8661
▁alınır	-8662
▁amelim	-8663
▁anırma	-8664
▁ağabey	-8665
▁ağacık	-8666
▁ağlama	-8667
▁baksın	-8668
▁basvur	-8669
▁bağlas	-8670
▁bağrış	-8671
▁bağına	-8672
▁başıma	-8673
▁belirl	-8674
▁beraat	-8675
▁berbat	-8676
▁beyenm	-8677
▁bilgin	-8678
▁bilsin	-8679
▁branda	-8680
▁buzağı	-8681
▁canlan	-8682
▁cümlem	-8683
▁daldır	-8684
▁dedeye	-8685
▁defnet	-8686
▁delide	-8687
▁demesi	-8688
▁demeyi	-8689
▁denizc	-8690
▁derman	-8691
▁dersem	-8692
▁dersen	-8693
▁deği̇l	-8694
▁dilini	-8695
▁direği	-8696
▁doysun	-8697
▁durduk	-8698
▁durmaz	-8699
avi	-8700
▁ür	-8701
▁üy	-8702
ağab	-8703
dest	-8704
gıya	-8705
orik	-8706
stir	-8707
▁alo	-8708
▁efe	-8709
▁hüc	-8710
▁sag	-8711
▁tec	-8712
aleli	-8713
aline	-8714
fanın	-8715
hepsi	-8716
stlar	-8717
çiler	-8718
▁alel	-8719
▁bant	-8720
▁beey	-8721
▁derd	-8722
▁derk	-8723
▁elli	-8724
▁erin	-8725
▁hi̇ç	-8726
▁mavi	-8727
▁paşa	-8728
▁sırr	-8729
▁tecr	-8730
▁verd	-8731
▁çayl	-8732
▁üret	-8733
deli̇m	-8734
ralmış	-8735
▁böldü	-8736
▁derdi	-8737
▁deriz	-8738
▁diyip	-8739
▁eğmiş	-8740
▁hanno	-8741
▁hücum	-8742
▁kaçıp	-8743
▁kişis	-8744
▁kâfir	-8745
▁köpüğ	-8746
▁neyse	-8747
▁sıvar	-8748
▁tasla	-8749
▁verem	-8750
▁veril	-8751
▁veriş	-8752
▁vuran	-8753
▁yolun	-8754
▁yürüt	-8755
ağabeyi	-8756
dostlar	-8757
duğunuz	-8758
▁abdest	-8759
▁alelac	-8760
▁ağzımı	-8761
▁belleğ	-8762
▁dumanı	-8763
▁dursin	-8764
▁duydun	-8765
▁duymaz	-8766
▁dışını	-8767
▁ekeyim	-8768
▁ekledi	-8769
▁evimde	-8770
▁eşşeğe	-8771
▁farklı	-8772
▁fiziği	-8773
▁gecede	-8774
▁gecesi	-8775
▁gelmek	-8776
▁gelsem	-8777
▁gezint	-8778
▁girdin	-8779
▁giydim	-8780
▁görmem	-8781
▁haksız	-8782
▁haline	-8783
▁handan	-8784
▁havlar	-8785
▁helada	-8786
▁hoşgel	-8787
▁ibadet	-8788
▁inanır	-8789
▁inelim	-8790
▁inmeye	-8791
▁insanı	-8792
▁içeyim	-8793
▁içince	-8794
▁içmeye	-8795
▁işimiz	-8796
▁i̇kisi	-8797
▁i̇sted	-8798
▁i̇çeri	-8799
cuk	-8800
üze	-8801
ceuk	-8802
diyi	-8803
hini	-8804
jına	-8805
ksiz	-8806
muda	-8807
nini	-8808
stır	-8809
▁bre	-8810
▁guğ	-8811
▁kip	-8812
▁oğr	-8813
▁urk	-8814
arlör	-8815
deler	-8816
ecede	-8817
inize	-8818
muşum	-8819
nasıl	-8820
urmuş	-8821
▁ayda	-8822
▁sini	-8823
▁spor	-8824
aniler	-8825
dakine	-8826
yormuş	-8827
▁almuş	-8828
▁beyin	-8829
▁büktü	-8830
▁evire	-8831
▁geliy	-8832
▁guğuk	-8833
▁günüm	-8834
▁istop	-8835
▁kilit	-8836
▁kuran	-8837
▁mucuk	-8838
▁seven	-8839
▁çakam	-8840
arajına	-8841
ayalara	-8842
birinin	-8843
ehaneye	-8844
ledemiş	-8845
ışmıştı	-8846
▁babaan	-8847
▁bildin	-8848
▁geçmen	-8849
▁kahret	-8850
▁kalanı	-8851
▁kaliyi	-8852
▁kaplat	-8853
▁karmak	-8854
▁karnın	-8855
▁karına	-8856
▁kaynan	-8857
▁kaynat	-8858
▁kaynağ	-8859
▁kaçtır	-8860
▁kilide	-8861
▁kimsem	-8862
▁konmuş	-8863
▁kopmuş	-8864
▁korkup	-8865
▁koymak	-8866
▁koymus	-8867
▁kulağa	-8868
▁küpüne	-8869
▁kürsüs	-8870
▁kırkın	-8871
▁kızmış	-8872
▁lastik	-8873
▁lesini	-8874
▁miydim	-8875
▁muydum	-8876
▁nerdey	-8877
▁nettin	-8878
▁niçini	-8879
▁okunup	-8880
▁okuyor	-8881
▁olanın	-8882
▁olsuna	-8883
▁olumlu	-8884
▁olurmu	-8885
▁omzuna	-8886
▁oturum	-8887
▁oğulum	-8888
▁pamuğu	-8889
▁parlar	-8890
▁paslat	-8891
▁patlat	-8892
▁postan	-8893
▁rektif	-8894
▁renkli	-8895
▁sahtek	-8896
▁sandım	-8897
▁santim	-8898
▁sayısı	-8899
bül	-8900
iki	-8901
oli	-8902
zik	-8903
▁li	-8904
amis	-8905
eris	-8906
inti	-8907
irla	-8908
isiz	-8909
isur	-8910
iyla	-8911
onla	-8912
umla	-8913
unla	-8914
uzun	-8915
▁aaa	-8916
amadı	-8917
ataya	-8918
dayız	-8919
denin	-8920
ladim	-8921
ülbül	-8922
üzdan	-8923
üzden	-8924
üğünü	-8925
▁elim	-8926
▁ilki	-8927
▁içun	-8928
▁poli	-8929
▁sonu	-8930
▁çaya	-8931
afonla	-8932
indaki	-8933
patron	-8934
ınladı	-8935
▁amacı	-8936
▁azami	-8937
▁durdu	-8938
▁emzik	-8939
▁kalit	-8940
▁lider	-8941
▁sargı	-8942
▁savcı	-8943
▁yaaaa	-8944
▁öküzü	-8945
aceraya	-8946
diyeris	-8947
retmeye	-8948
undayız	-8949
ücüğünü	-8950
ımızdır	-8951
▁antika	-8952
▁avluda	-8953
▁aynada	-8954
▁başini	-8955
▁bülbül	-8956
▁cüzdan	-8957
▁gezmiş	-8958
▁hakiki	-8959
▁iyiluk	-8960
▁oduncu	-8961
▁pastır	-8962
▁sağdan	-8963
▁sensin	-8964
▁sersem	-8965
▁sesine	-8966
▁siyaha	-8967
▁sokmuş	-8968
▁sollan	-8969
▁sorduğ	-8970
▁söndüğ	-8971
▁söyliy	-8972
▁sürgüs	-8973
▁sürçtü	-8974
▁tamamı	-8975
▁tamire	-8976
▁tastan	-8977
▁tatlıy	-8978
▁tazıya	-8979
▁temekt	-8980
▁temeyi	-8981
▁tokmağ	-8982
▁töreni	-8983
▁tıpayı	-8984
▁unutum	-8985
▁usulca	-8986
▁uyanık	-8987
▁uçmaya	-8988
▁vermis	-8989
▁yamalı	-8990
▁yanağı	-8991
▁yanuma	-8992
▁yanıma	-8993
▁yaprak	-8994
▁yararl	-8995
▁yarışa	-8996
▁yatmış	-8997
▁yazıyı	-8998
▁yaşlıl	-8999
dra	-9000
uyk	-9001
▁ra	-9002
amuy	-9003
anıp	-9004
eruz	-9005
evam	-9006
imuz	-9007
okuc	-9008
uyak	-9009
uyon	-9010
üydü	-9011
▁bra	-9012
▁tüş	-9013
bütün	-9014
madem	-9015
uymuş	-9016
uzler	-9017
▁etin	-9018
▁karg	-9019
▁kari	-9020
▁mert	-9021
▁onur	-9022
▁shop	-9023
eselam	-9024
etiyor	-9025
evamli	-9026
iliyor	-9027
lanmaz	-9028
likler	-9029
okucom	-9030
uykumu	-9031
uyoruz	-9032
▁amele	-9033
▁ayran	-9034
▁bagir	-9035
▁bravo	-9036
▁dicek	-9037
▁köpür	-9038
▁raund	-9039
▁tüşti	-9040
▁yiyor	-9041
▁yırtı	-9042
▁ahiret	-9043
▁dauyak	-9044
▁derdin	-9045
▁dişimi	-9046
▁eleman	-9047
▁günden	-9048
▁kalmak	-9049
▁londra	-9050
▁onurlu	-9051
▁silahi	-9052
▁taştan	-9053
▁yemi̇n	-9054
▁yinede	-9055
▁yokken	-9056
▁yordum	-9057
▁yükler	-9058
▁yürüdü	-9059
▁çaktım	-9060
▁çaldım	-9061
▁çapraz	-9062
▁çarpar	-9063
▁çatalı	-9064
▁çevire	-9065
▁çürüğü	-9066
▁çıkana	-9067
▁ödemek	-9068
▁ölmedi	-9069
▁ölüyor	-9070
▁ötmeye	-9071
▁öğüdüm	-9072
▁öğütür	-9073
▁ücreti	-9074
▁üzerin	-9075
▁ısırıp	-9076
abilirse	-9077
adakiler	-9078
ademişöt	-9079
adıkları	-9080
afiyetle	-9081
allaması	-9082
amuyınca	-9083
ayırrrrr	-9084
dakileri	-9085
değirmen	-9086
dururmuş	-9087
dığından	-9088
ediğinde	-9089
edresede	-9090
etlerini	-9091
genlerin	-9092
iyleymiş	-9093
i̇meni̇n	-9094
i̇pi̇li̇	-9095
lacaktım	-9096
lemişler	-9097
luyorsun	-9098
mışsınız	-9099
ayi̇	-9100
olda	-9101
oley	-9102
tira	-9103
ısız	-9104
ızda	-9105
▁anı	-9106
▁evr	-9107
▁hzn	-9108
▁keb	-9109
▁nol	-9110
▁ömr	-9111
▁üçü	-9112
derek	-9113
dıyor	-9114
eceye	-9115
gayan	-9116
i̇ren	-9117
lüğüm	-9118
▁anan	-9119
▁atıl	-9120
▁hari	-9121
▁ikaz	-9122
▁kart	-9123
▁yayı	-9124
▁yerd	-9125
▁ölüy	-9126
alyada	-9127
lüğümü	-9128
onunce	-9129
taneye	-9130
usuyla	-9131
üyordu	-9132
▁gıdık	-9133
▁hznuh	-9134
▁karın	-9135
▁kaçış	-9136
▁tahat	-9137
▁voley	-9138
kiyeceğ	-9139
mesidir	-9140
▁anında	-9141
▁burayı	-9142
▁dalmis	-9143
▁denmez	-9144
▁gelene	-9145
▁iftira	-9146
▁koşuya	-9147
▁köşede	-9148
▁nolmuş	-9149
▁tutmay	-9150
▁yeller	-9151
▁yıldır	-9152
▁çıkmak	-9153
▁öfkeli	-9154
aşmasını	-9155
eklemeye	-9156
stirmeye	-9157
teşelere	-9158
uralyada	-9159
uşturmuş	-9160
ücüsünün	-9161
üvereyim	-9162
ıklarını	-9163
ırlarken	-9164
ızılarsa	-9165
ışırdadı	-9166
▁abidine	-9167
▁acizliğ	-9168
▁acıgöle	-9169
▁adaleti	-9170
▁adaylar	-9171
▁akılıyı	-9172
▁alamaya	-9173
▁altının	-9174
▁anladun	-9175
▁anlamam	-9176
▁anlamaz	-9177
▁anlarım	-9178
▁anlatan	-9179
▁anlatma	-9180
▁anlattı	-9181
▁aramayı	-9182
▁asırmış	-9183
▁atlamam	-9184
▁atmanın	-9185
▁ağzında	-9186
▁ağırlar	-9187
▁bakinca	-9188
▁baktığı	-9189
▁bakıyım	-9190
▁bağıran	-9191
▁başları	-9192
▁berberi	-9193
▁bininin	-9194
▁bitmedi	-9195
▁boşaldı	-9196
▁bugünkü	-9197
▁bulundu	-9198
▁bunalan	-9199
yav	-9200
▁fa	-9201
amma	-9202
avra	-9203
ışma	-9204
▁çığ	-9205
▁şef	-9206
cunun	-9207
edigi	-9208
kalar	-9209
minde	-9210
usuya	-9211
zadan	-9212
âtsız	-9213
▁arit	-9214
▁dolm	-9215
▁faci	-9216
▁görr	-9217
▁iğne	-9218
▁onca	-9219
▁senu	-9220
▁terc	-9221
iletir	-9222
manlık	-9223
yavrum	-9224
▁akınt	-9225
▁ayına	-9226
▁barii	-9227
▁durma	-9228
▁facia	-9229
▁görun	-9230
▁içtim	-9231
▁katık	-9232
▁mantı	-9233
▁varda	-9234
▁yapan	-9235
▁yapik	-9236
▁yapıl	-9237
▁yapın	-9238
▁yılda	-9239
ilerken	-9240
▁başlas	-9241
▁cevapı	-9242
▁dereye	-9243
▁gördin	-9244
▁kesili	-9245
▁konfer	-9246
▁kösede	-9247
▁makyaj	-9248
▁pusuya	-9249
▁rızası	-9250
▁tıraşı	-9251
▁yokuşa	-9252
▁çığlık	-9253
▁alabi̇l	-9254
▁avcunun	-9255
▁ayağıma	-9256
▁büzülür	-9257
▁cidince	-9258
▁cübbeye	-9259
▁damında	-9260
▁defolup	-9261
▁degilmi	-9262
▁demedum	-9263
▁demenin	-9264
▁demişüç	-9265
▁denemiş	-9266
▁dermanı	-9267
▁deyisun	-9268
▁deyiver	-9269
▁değişuk	-9270
▁dilemek	-9271
▁diliyle	-9272
▁doktoru	-9273
▁dolaşan	-9274
▁dolmalı	-9275
▁domates	-9276
▁doğmaya	-9277
▁duyması	-9278
▁dönerse	-9279
▁dörtten	-9280
▁dövmeye	-9281
▁dövüyor	-9282
▁düşürdü	-9283
▁düşürüp	-9284
▁ederduk	-9285
▁edersen	-9286
▁edilmez	-9287
▁evladim	-9288
▁farklar	-9289
▁farzdır	-9290
▁geliriz	-9291
▁gelmist	-9292
▁gençler	-9293
▁geçerek	-9294
▁giderim	-9295
▁gidesun	-9296
▁gitmemi	-9297
▁giysili	-9298
▁gövdeli	-9299
i̇t	-9300
▁cö	-9301
eliğ	-9302
emki	-9303
etli	-9304
ti̇d	-9305
ısıl	-9306
▁bos	-9307
▁cık	-9308
▁egz	-9309
▁ere	-9310
▁eşe	-9311
▁seğ	-9312
atmaz	-9313
etten	-9314
ginse	-9315
ilmis	-9316
lenen	-9317
tanin	-9318
taniy	-9319
uktan	-9320
▁atıp	-9321
▁cini	-9322
▁dana	-9323
▁prom	-9324
▁yari	-9325
▁yi̇t	-9326
▁çözü	-9327
kasaba	-9328
▁alana	-9329
▁armağ	-9330
▁basıp	-9331
▁cömer	-9332
▁diyal	-9333
▁egzoz	-9334
▁fısıl	-9335
▁kalir	-9336
▁kışın	-9337
▁paran	-9338
▁çaldı	-9339
▁öttüğ	-9340
▁öğrer	-9341
eliğine	-9342
ti̇dars	-9343
▁alıver	-9344
▁başlan	-9345
▁burara	-9346
▁duyduk	-9347
▁kanlar	-9348
▁promos	-9349
▁sürede	-9350
▁yaşıma	-9351
▁şemsiy	-9352
edesemki	-9353
taniyeyi	-9354
▁alayrum	-9355
▁atlılar	-9356
▁baştaki	-9357
▁cıkacak	-9358
▁diyalog	-9359
▁doğacak	-9360
▁enginse	-9361
▁evlenen	-9362
▁gülücük	-9363
▁gülüşün	-9364
▁gününün	-9365
▁güvenip	-9366
▁haddimi	-9367
▁halimiz	-9368
▁hedefin	-9369
▁hemşeru	-9370
▁heybemi	-9371
▁hocalar	-9372
▁horozun	-9373
▁hoşafın	-9374
▁ilaçlar	-9375
▁inanmaz	-9376
▁ismimuz	-9377
▁istenir	-9378
▁içeriyi	-9379
▁içerler	-9380
▁içersen	-9381
▁işitmiş	-9382
▁işkence	-9383
▁işliyor	-9384
▁i̇çkiyi	-9385
▁kadıdan	-9386
▁kahvalt	-9387
▁kaldigi	-9388
▁kaldığı	-9389
▁kaliyor	-9390
▁kalkmak	-9391
▁kalkmaz	-9392
▁kalıyor	-9393
▁kapatır	-9394
▁kapilip	-9395
▁karatay	-9396
▁karışık	-9397
▁kasapta	-9398
▁katarak	-9399
afık	-9400
atta	-9401
ucak	-9402
ukta	-9403
ıkta	-9404
▁akc	-9405
▁cit	-9406
▁i̇h	-9407
▁mi̇	-9408
▁rom	-9409
bullu	-9410
dirim	-9411
tünçü	-9412
▁...”	-9413
▁bi̇l	-9414
▁etek	-9415
▁idum	-9416
▁ocak	-9417
▁sıca	-9418
▁vası	-9419
▁yank	-9420
amları	-9421
kisini	-9422
tarını	-9423
unuzla	-9424
ırları	-9425
▁bucak	-9426
▁citti	-9427
▁istes	-9428
▁istey	-9429
▁istur	-9430
▁romat	-9431
▁saran	-9432
▁uykun	-9433
▁vasıt	-9434
ersiniz	-9435
itremiş	-9436
mayınız	-9437
ralyaya	-9438
▁akıyor	-9439
▁bakmaz	-9440
▁birinc	-9441
▁edecek	-9442
▁içimin	-9443
▁i̇htiy	-9444
▁kadını	-9445
▁kararı	-9446
▁statta	-9447
▁trenin	-9448
▁yaptık	-9449
▁yaptır	-9450
hekimlik	-9451
memesine	-9452
▁akciğer	-9453
▁binmeye	-9454
▁bi̇llah	-9455
▁bozamam	-9456
▁ilgiyle	-9457
▁inandır	-9458
▁katilim	-9459
▁kavgası	-9460
▁kaybetm	-9461
▁kazandı	-9462
▁kazımış	-9463
▁kaçacak	-9464
▁kağıdın	-9465
▁kediyle	-9466
▁kekemem	-9467
▁keramet	-9468
▁keserim	-9469
▁kisiden	-9470
▁kitapta	-9471
▁kişiliğ	-9472
▁komşuya	-9473
▁konuşul	-9474
▁koşarım	-9475
▁kutuyum	-9476
▁köpekle	-9477
▁köylüyü	-9478
▁kürekle	-9479
▁kürsüde	-9480
▁küvetin	-9481
▁kıymaya	-9482
▁kıymeti	-9483
▁kızacak	-9484
▁kızınız	-9485
▁mahalle	-9486
▁mazeret	-9487
▁mektebi	-9488
▁mektuba	-9489
▁merkezi	-9490
▁misunuz	-9491
▁mi̇si̇n	-9492
▁morukta	-9493
▁motorda	-9494
▁motorun	-9495
▁muhtarı	-9496
▁mükafat	-9497
▁münafık	-9498
▁napalım	-9499
com	-9500
▁31	-9501
dada	-9502
erip	-9503
kada	-9504
kuyu	-9505
omob	-9506
ümde	-9507
üpür	-9508
▁eri	-9509
▁teç	-9510
akanı	-9511
endre	-9512
meniz	-9513
▁araç	-9514
▁ömür	-9515
amazdı	-9516
endreu	-9517
i̇ncil	-9518
omobil	-9519
▁anada	-9520
▁asmak	-9521
▁cemil	-9522
▁dağcı	-9523
▁geçil	-9524
▁geçiş	-9525
▁minib	-9526
▁süpür	-9527
▁teyup	-9528
▁ttttt	-9529
▁turan	-9530
▁yaman	-9531
▁yokta	-9532
ikamete	-9533
imizcom	-9534
samayan	-9535
▁buymuş	-9536
▁inşaat	-9537
▁kaçtığ	-9538
▁kızına	-9539
▁savmak	-9540
▁soldan	-9541
▁özneyi	-9542
▁şiiirr	-9543
eri̇kada	-9544
eyimizin	-9545
▁bulunup	-9546
▁geçince	-9547
▁güzelim	-9548
▁inşaata	-9549
▁i̇nanma	-9550
▁köpekte	-9551
▁köylüsü	-9552
▁minibüs	-9553
▁nasiyat	-9554
▁nikahta	-9555
▁niyetin	-9556
▁oflarsa	-9557
▁oglunun	-9558
▁okullar	-9559
▁okunsun	-9560
▁olanına	-9561
▁olaydan	-9562
▁olmadık	-9563
▁oluğuna	-9564
▁onlarla	-9565
▁orayıda	-9566
▁oğludur	-9567
▁palasta	-9568
▁paşanun	-9569
▁penguen	-9570
▁peşinde	-9571
▁pirzola	-9572
▁pişeler	-9573
▁postacı	-9574
▁rafları	-9575
▁rastlay	-9576
▁rekabet	-9577
▁renktir	-9578
▁sabikan	-9579
▁salıver	-9580
▁sananee	-9581
▁sarıkta	-9582
▁sarıldı	-9583
▁saygıya	-9584
▁senedir	-9585
▁sevinme	-9586
▁sigaral	-9587
▁sizinle	-9588
▁sorarız	-9589
▁sormayı	-9590
▁sorumlu	-9591
▁soruver	-9592
▁sunanın	-9593
▁sunulan	-9594
▁sıkıntı	-9595
▁sınıfın	-9596
▁tadıyla	-9597
▁takarım	-9598
▁tambura	-9599
gut	-9600
i̇ğ	-9601
aaar	-9602
assa	-9603
ekti	-9604
i̇de	-9605
lügü	-9606
tısı	-9607
utta	-9608
utun	-9609
▁ti̇	-9610
▁çıp	-9611
anlaş	-9612
dırıl	-9613
filak	-9614
lidir	-9615
▁amac	-9616
▁ci̇n	-9617
▁isar	-9618
▁yırt	-9619
i̇ği̇m	-9620
ıcılar	-9621
▁arası	-9622
▁aydır	-9623
▁ektin	-9624
▁kedin	-9625
▁kılık	-9626
▁mıydı	-9627
▁peki̇	-9628
▁rusun	-9629
▁sözde	-9630
▁tablo	-9631
▁vaaar	-9632
▁yanıp	-9633
düzleri	-9634
tabutun	-9635
▁beklen	-9636
▁bilyon	-9637
▁diysun	-9638
▁hanlar	-9639
▁isutta	-9640
▁kaplar	-9641
▁nasırı	-9642
▁sabunu	-9643
▁sirada	-9644
▁turgut	-9645
▁versem	-9646
▁zamane	-9647
▁çıplak	-9648
▁ölçmüş	-9649
dırıldığ	-9650
vetlidir	-9651
▁adamdır	-9652
▁alışmış	-9653
▁attığım	-9654
▁başının	-9655
▁boşanır	-9656
▁cevapta	-9657
▁ci̇nsel	-9658
▁erkekti	-9659
▁erkence	-9660
▁evlilik	-9661
▁evlisin	-9662
▁giderse	-9663
▁infilak	-9664
▁isareti	-9665
▁i̇lerde	-9666
▁i̇çi̇de	-9667
▁kovayla	-9668
▁körlügü	-9669
▁kılıklı	-9670
▁sesimin	-9671
▁sorarım	-9672
▁tabloyu	-9673
▁tanimad	-9674
▁tanımak	-9675
▁tanırım	-9676
▁tanıyan	-9677
▁tarifin	-9678
▁tarzaaa	-9679
▁tasında	-9680
▁taşının	-9681
▁taşıyor	-9682
▁tekidir	-9683
▁telaşın	-9684
▁temelın	-9685
▁topladı	-9686
▁topları	-9687
▁tttttto	-9688
▁tutulma	-9689
▁tutuyor	-9690
▁tıkayan	-9691
▁unutmaz	-9692
▁usandım	-9693
▁uydurur	-9694
▁uyurest	-9695
▁uzandım	-9696
▁uzundur	-9697
▁vaktine	-9698
▁verdion	-9699
tli	-9700
zeli	-9701
▁ele	-9702
▁inz	-9703
▁siç	-9704
▁umu	-9705
ekkep	-9706
linin	-9707
litur	-9708
oloji	-9709
sinin	-9710
▁atla	-9711
▁atma	-9712
▁cimr	-9713
▁elde	-9714
▁inad	-9715
▁kony	-9716
▁pağa	-9717
▁star	-9718
atmaya	-9719
irinin	-9720
▁cinin	-9721
▁diken	-9722
▁inden	-9723
▁inzib	-9724
▁kapıc	-9725
▁kaybo	-9726
▁uluma	-9727
▁yandı	-9728
samadan	-9729
ıtmadan	-9730
▁binmis	-9731
▁raporu	-9732
▁yersen	-9733
▁yüzüme	-9734
▁öldürm	-9735
▁değiliz	-9736
▁inzibat	-9737
▁içerdin	-9738
▁konyalı	-9739
▁oynamak	-9740
▁paranın	-9741
▁pasaklı	-9742
▁sebzeli	-9743
▁sininin	-9744
▁sizinki	-9745
▁siçti̇m	-9746
▁unuttum	-9747
▁valiler	-9748
▁verince	-9749
▁vuramaz	-9750
▁vurunca	-9751
▁yalamış	-9752
▁yamalak	-9753
▁yandığı	-9754
▁yapamam	-9755
▁yaparak	-9756
▁yaparsa	-9757
▁yapiyor	-9758
▁yatağın	-9759
▁yatıyor	-9760
▁yazalım	-9761
▁yazılar	-9762
▁yaşayan	-9763
▁yaşları	-9764
▁yaşında	-9765
▁yediniz	-9766
▁yemesem	-9767
▁yerimiz	-9768
▁yerlere	-9769
▁yetenek	-9770
▁yeterli	-9771
▁yetmişe	-9772
▁yiyesin	-9773
▁yi̇ti̇p	-9774
▁yoldaki	-9775
▁yutarım	-9776
▁yüklemi	-9777
▁yüzbaşı	-9778
▁yüzünde	-9779
▁yüzüver	-9780
▁yüzüyor	-9781
▁yıkanır	-9782
▁yılında	-9783
▁yırtıcı	-9784
▁zamanki	-9785
▁zekiyum	-9786
▁zıplaya	-9787
▁çabucak	-9788
▁çakıyor	-9789
▁çaldığı	-9790
▁çalılar	-9791
▁çalıştı	-9792
▁çarşısı	-9793
▁çekerek	-9794
▁çekerim	-9795
▁çekilen	-9796
▁çekmece	-9797
▁çekmeye	-9798
▁çikarın	-9799
ayip	-9800
ayıf	-9801
emit	-9802
ifet	-9803
mmet	-9804
▁meş	-9805
▁oto	-9806
abası	-9807
azsin	-9808
oğlak	-9809
▁asma	-9810
▁buni	-9811
▁dalı	-9812
▁kası	-9813
▁ölçü	-9814
deydim	-9815
hocaya	-9816
lamayı	-9817
rekans	-9818
▁bağın	-9819
▁kirpi	-9820
▁lanet	-9821
▁otobu	-9822
▁sırtı	-9823
▁yerdi	-9824
▁zayıf	-9825
i̇mi̇ze	-9826
lerhoca	-9827
silerin	-9828
▁ahmmet	-9829
▁ayagin	-9830
▁hakemi	-9831
▁haydin	-9832
▁içerek	-9833
▁kıştır	-9834
▁mecbur	-9835
▁meşgul	-9836
▁neymiş	-9837
▁sezilm	-9838
▁söylet	-9839
▁uçakla	-9840
▁yersin	-9841
ektiğini	-9842
▁ağırbaş	-9843
▁bakanın	-9844
▁frekans	-9845
▁göremez	-9846
▁gülünce	-9847
▁hastane	-9848
▁kemirir	-9849
▁kiremit	-9850
▁marifet	-9851
▁sorguya	-9852
▁taksiye	-9853
▁yağacak	-9854
▁çaliyor	-9855
▁çorbada	-9856
▁çorbaya	-9857
▁çıkamaz	-9858
▁çıkaran	-9859
▁çıkarıl	-9860
▁çıkatıp	-9861
▁çıkılan	-9862
▁çıkıyor	-9863
▁çıkışta	-9864
▁ödevini	-9865
▁öldürüp	-9866
▁ölmeden	-9867
▁ölmedim	-9868
▁ölümden	-9869
▁önceden	-9870
▁öğrendi	-9871
▁üzerime	-9872
▁üzerini	-9873
▁üzgünüz	-9874
▁üzüldük	-9875
▁şaşırdı	-9876
▁şehirli	-9877
▁şemsiye	-9878
▁şeylere	-9879
▁şişenin	-9880
▁şoförün	-9881
▁şunlara	-9882
alıdırlar	-9883
canlardan	-9884
di̇yorsun	-9885
dumi̇ncil	-9886
ebilirler	-9887
eceksiniz	-9888
ektirecek	-9889
ememiştir	-9890
eselamlaş	-9891
grultuyor	-9892
ilsonları	-9893
landırmaz	-9894
lanmıştım	-9895
larımızın	-9896
layacağız	-9897
lendiğini	-9898
leştirmiş	-9899
pte	-9900
ledi	-9901
vere	-9902
▁kev	-9903
bürat	-9904
luyor	-9905
mişse	-9906
verdi	-9907
verin	-9908
▁nakl	-9909
▁nesi	-9910
▁sizu	-9911
birden	-9912
metmem	-9913
▁açmis	-9914
▁burda	-9915
▁cafer	-9916
▁delir	-9917
▁hemse	-9918
▁işler	-9919
▁kaşır	-9920
▁külle	-9921
▁poşet	-9922
▁verse	-9923
▁yakıt	-9924
▁yazan	-9925
▁yazık	-9926
▁yazın	-9927
▁buralı	-9928
▁dönmem	-9929
▁halsiz	-9930
▁harpte	-9931
▁içesim	-9932
▁kevser	-9933
▁kurana	-9934
▁kâğıda	-9935
▁neyine	-9936
▁turşuu	-9937
▁yazmak	-9938
büratörü	-9939
▁akıllan	-9940
▁babanın	-9941
▁demişse	-9942
▁döneyim	-9943
▁erkekle	-9944
▁genelde	-9945
▁girmeye	-9946
▁gürledi	-9947
▁hemsehr	-9948
▁köpeğim	-9949
▁olduysa	-9950
▁pişirdi	-9951
▁sararak	-9952
▁tarlada	-9953
▁yazının	-9954
▁	-9955
a	-9956
e	-9957
i	-9958
r	-9959
n	-9960
d	-9961
l	-9962
m	-9963
ı	-9964
k	-9965
u	-9966
y	-9967
o	-9968
s	-9969
t	-9970
b	-9971
ş	-9972
h	-9973
ü	-9974
c	-9975
z	-9976
g	-9977
v	-9978
ç	-9979
ğ	-9980
p	-9981
ö	-9982
f	-9983
”	-9984
“	-9985
̇	-9986
’	-9987
.	-9988
0	-9989
1	-9990
â	-9991
2	-9992
3	-9993
5	-9994
j	-9995
‘	-9996
