<UNK>	0
<s>	0
</s>	0
▁b	-0
▁d	-1
ar	-2
er	-3
▁k	-4
in	-5
an	-6
en	-7
ir	-8
▁s	-9
▁h	-10
▁g	-11
ın	-12
▁a	-13
em	-14
▁y	-15
or	-16
▁t	-17
ca	-18
▁bir	-19
iş	-20
el	-21
▁o	-22
un	-23
am	-24
▁.	-25
lar	-26
ak	-27
oca	-28
▁v	-29
▁i	-30
ır	-31
▁ç	-32
ay	-33
▁e	-34
▁hoca	-35
▁n	-36
ek	-37
ur	-38
iy	-39
▁m	-40
ün	-41
al	-42
im	-43
as	-44
ey	-45
il	-46
ad	-47
ed	-48
emiş	-49
aş	-50
ış	-51
et	-52
▁demiş	-53
az	-54
at	-55
ler	-56
ce	-57
iz	-58
ap	-59
▁ol	-60
▁ö	-61
ım	-62
de	-63
um	-64
on	-65
ah	-66
▁p	-67
ık	-68
▁bu	-69
ok	-70
▁tem	-71
es	-72
▁ad	-73
▁“	-74
▁de	-75
ab	-76
▁temel	-77
uş	-78
▁ş	-79
di	-80
▁ve	-81
le	-82
yor	-83
▁gi	-84
▁sor	-85
da	-86
miş	-87
▁adam	-88
▁da	-89
▁gö	-90
sun	-91
ıl	-92
ını	-93
▁,	-94
ine	-95
ür	-96
mış	-97
▁der	-98
ağ	-99
▁al	-100
▁ver	-101
▁ben	-102
st	-103
öy	-104
dan	-105
▁gel	-106
▁ne	-107
▁ko	-108
▁ar	-109
iye	-110
▁nas	-111
uk	-112
ğr	-113
muş	-114
ini	-115
▁ki	-116
ına	-117
üz	-118
den	-119
ik	-120
is	-121
la	-122
▁baş	-123
aya	-124
▁iç	-125
▁son	-126
uz	-127
üş	-128
ra	-129
iyor	-130
uy	-131
din	-132
▁gün	-133
▁kar	-134
▁bak	-135
▁z	-136
.”	-137
▁an	-138
ol	-139
ız	-140
▁ev	-141
ıyor	-142
du	-143
▁sonra	-144
ken	-145
der	-146
red	-147
▁sen	-148
▁var	-149
ul	-150
▁dur	-151
▁yap	-152
ma	-153
oc	-154
▁f	-155
eye	-156
▁gör	-157
reddin	-158
▁diye	-159
▁nasreddin	-160
inde	-161
ük	-162
▁ay	-163
▁ge	-164
av	-165
▁on	-166
▁ce	-167
▁öğr	-168
iğ	-169
ıy	-170
eğ	-171
▁bil	-172
unu	-173
▁”	-174
tan	-175
ığ	-176
▁kom	-177
▁çoc	-178
▁eş	-179
endi	-180
▁kal	-181
▁çık	-182
ki	-183
ana	-184
ıs	-185
▁c	-186
lam	-187
▁git	-188
şu	-189
▁ist	-190
▁et	-191
▁cev	-192
▁kad	-193
▁için	-194
▁yan	-195
▁i̇	-196
ları	-197
▁düş	-198
▁çocuk	-199
af	-200
ta	-201
cak	-202
eri	-203
▁ak	-204
öyl	-205
ında	-206
▁biri	-207
aç	-208
eden	-209
▁r	-210
aman	-211
öyle	-212
ada	-213
▁geç	-214
üm	-215
ince	-216
▁yok	-217
i̇	-218
men	-219
▁komşu	-220
▁han	-221
▁üz	-222
▁dok	-223
ıp	-224
▁ark	-225
▁kap	-226
dır	-227
ekt	-228
tor	-229
▁ama	-230
▁biz	-231
▁do	-232
▁zaman	-233
▁dö	-234
ez	-235
eyi	-236
▁çok	-237
ut	-238
▁cevap	-239
▁u	-240
▁ef	-241
▁sorar	-242
▁sormuş	-243
▁mi	-244
▁ön	-245
etmen	-246
▁at	-247
iler	-248
lı	-249
ya	-250
maya	-251
▁her	-252
▁el	-253
▁doktor	-254
▁öğretmen	-255
dı	-256
aha	-257
▁in	-258
▁dursun	-259
iç	-260
li	-261
▁kon	-262
▁eşeğ	-263
hoca	-264
inin	-265
▁par	-266
▁karş	-267
▁gider	-268
lan	-269
▁yol	-270
mak	-271
▁bun	-272
▁hay	-273
▁çal	-274
eş	-275
ayı	-276
ası	-277
▁ot	-278
erek	-279
it	-280
enc	-281
nın	-282
▁mı	-283
▁oldu	-284
▁üzer	-285
sa	-286
▁bo	-287
▁yer	-288
sin	-289
ının	-290
▁daha	-291
▁değ	-292
bi	-293
ev	-294
se	-295
edi	-296
adaş	-297
eki	-298
uyor	-299
üyor	-300
▁del	-301
▁siz	-302
te	-303
▁iş	-304
▁or	-305
anın	-306
ver	-307
▁yaz	-308
▁çıkar	-309
ep	-310
esi	-311
▁hem	-312
lamış	-313
▁en	-314
aşır	-315
ından	-316
▁düşün	-317
▁verir	-318
ül	-319
▁l	-320
▁ağ	-321
▁efendi	-322
acak	-323
tır	-324
▁dön	-325
▁iki	-326
uğ	-327
end	-328
lay	-329
▁mu	-330
▁öl	-331
maz	-332
▁hiç	-333
▁sır	-334
▁eder	-335
▁nasıl	-336
▁arkadaş	-337
▁kö	-338
▁hanım	-339
cek	-340
▁ya	-341
inden	-342
ğl	-343
anı	-344
müş	-345
▁ses	-346
eyince	-347
▁gitmiş	-348
..	-349
üy	-350
isi	-351
ten	-352
▁uy	-353
ağır	-354
leri	-355
▁söyl	-356
▁kadar	-357
üç	-358
▁çocuklar	-359
▁su	-360
▁kur	-361
hocam	-362
ti	-363
tı	-364
▁aç	-365
▁er	-366
▁bin	-367
▁neden	-368
arak	-369
yi	-370
lad	-371
▁ok	-372
öz	-373
▁tek	-374
ığı	-375
▁olur	-376
iyorum	-377
▁1	-378
▁ner	-379
▁tar	-380
▁deyince	-381
ip	-382
▁bul	-383
▁otur	-384
▁as	-385
▁bur	-386
▁kay	-387
▁yar	-388
▁bana	-389
cı	-390
adan	-391
▁bab	-392
▁kim	-393
▁oğl	-394
▁tut	-395
▁gelir	-396
mek	-397
azar	-398
▁yem	-399
▁hocam	-400
ars	-401
cağ	-402
▁doğr	-403
▁pazar	-404
▁biraz	-405
op	-406
▁has	-407
▁ile	-408
▁kaç	-409
▁sab	-410
▁şey	-411
▁konuş	-412
dir	-413
meye	-414
▁hep	-415
▁yüz	-416
larını	-417
▁benim	-418
▁başlar	-419
aki	-420
▁gir	-421
dur	-422
etir	-423
▁şöyle	-424
aat	-425
ahu	-426
edir	-427
▁dol	-428
▁köyl	-429
▁değil	-430
▁üzerine	-431
lah	-432
una	-433
▁ann	-434
▁bizim	-435
▁doğru	-436
▁kendi	-437
▁gelmiş	-438
ede	-439
met	-440
▁so	-441
ilir	-442
▁getir	-443
▁günün	-444
eniz	-445
ıyorsun	-446
ağı	-447
ediğ	-448
▁hak	-449
▁olm	-450
▁söz	-451
▁öğrenc	-452
▁birinde	-453
verir	-454
su	-455
lat	-456
üst	-457
ıya	-458
▁il	-459
amaz	-460
üler	-461
▁iyi	-462
▁sür	-463
▁olan	-464
▁böyle	-465
▁bey	-466
▁bunun	-467
ece	-468
▁tam	-469
▁tan	-470
▁ter	-471
alı	-472
san	-473
ınız	-474
▁yak	-475
▁sana	-476
diğ	-477
lik	-478
ayan	-479
▁mer	-480
▁olduğ	-481
▁senin	-482
▁adamın	-483
üt	-484
mez	-485
▁tak	-486
▁yıl	-487
bet	-488
lık	-489
▁mis	-490
▁sah	-491
ef	-492
▁uz	-493
alar	-494
▁deyi	-495
tü	-496
bir	-497
man	-498
amış	-499
▁ayn	-500
▁bunu	-501
▁yine	-502
▁hemen	-503
▁sabah	-504
eb	-505
len	-506
ınca	-507
▁hal	-508
▁kaz	-509
asına	-510
eh	-511
çi	-512
sar	-513
▁dem	-514
▁kır	-515
▁sat	-516
▁top	-517
▁yanına	-518
dum	-519
gün	-520
orb	-521
üzel	-522
▁göz	-523
▁onu	-524
asını	-525
▁ister	-526
tir	-527
ıyı	-528
iniz	-529
▁alt	-530
▁kız	-531
▁bağır	-532
▁vermiş	-533
ci	-534
dü	-535
dim	-536
eler	-537
▁hav	-538
▁sal	-539
▁saat	-540
▁soru	-541
▁önce	-542
uv	-543
dun	-544
dür	-545
▁ed	-546
acağ	-547
▁gül	-548
▁koy	-549
iyorsun	-550
ark	-551
sen	-552
üne	-553
▁duy	-554
▁taş	-555
▁tel	-556
▁ayak	-557
▁gibi	-558
▁kend	-559
▁anlat	-560
▁şaşır	-561
▁karşıl	-562
ili	-563
▁mü	-564
lara	-565
▁kes	-566
▁köy	-567
▁küç	-568
arson	-569
▁akıl	-570
▁deli	-571
▁kalk	-572
mışlar	-573
▁garson	-574
lem	-575
sın	-576
▁şu	-577
daki	-578
▁dil	-579
▁san	-580
▁başlamış	-581
gi	-582
abı	-583
▁eve	-584
▁yaş	-585
▁bakar	-586
▁sırada	-587
ka	-588
tık	-589
▁akş	-590
▁diğ	-591
▁fak	-592
▁gid	-593
▁yen	-594
▁üst	-595
larak	-596
ığını	-597
▁evet	-598
ee	-599
lü	-600
up	-601
ör	-602
üp	-603
ısı	-604
ayım	-605
▁koş	-606
▁kul	-607
▁köp	-608
▁sak	-609
▁yür	-610
▁çar	-611
ların	-612
▁sahi	-613
▁ensar	-614
arı	-615
rar	-616
▁ah	-617
alım	-618
atır	-619
▁dav	-620
▁lir	-621
▁sin	-622
▁dedi	-623
▁güzel	-624
▁merak	-625
om	-626
oş	-627
▁2	-628
ime	-629
laş	-630
▁sı	-631
▁bit	-632
▁büy	-633
▁ula	-634
▁alır	-635
▁bilm	-636
▁ters	-637
▁çorb	-638
ıyorum	-639
▁durum	-640
▁yapar	-641
▁çalış	-642
▁birisi	-643
▁deyiverir	-644
mi	-645
ağa	-646
han	-647
iyi	-648
kaç	-649
sız	-650
▁yo	-651
ster	-652
▁bek	-653
▁sev	-654
▁tab	-655
▁tav	-656
▁yat	-657
esine	-658
▁eşek	-659
▁para	-660
▁fakat	-661
▁taraf	-662
00	-663
kü	-664
duğ	-665
▁ek	-666
▁ik	-667
▁üç	-668
▁ağr	-669
▁beş	-670
▁i̇n	-671
▁kah	-672
▁çek	-673
▁süre	-674
▁yahu	-675
abilir	-676
▁küçük	-677
▁oğlum	-678
▁birkaç	-679
▁köylüler	-680
aa	-681
yı	-682
dım	-683
suz	-684
deki	-685
eyim	-686
▁bah	-687
▁bel	-688
▁herk	-689
▁kadı	-690
lerini	-691
▁sorun	-692
▁çağır	-693
▁olarak	-694
▁komşusu	-695
fa	-696
▁3	-697
adı	-698
tiğ	-699
tür	-700
▁aş	-701
▁es	-702
eyen	-703
▁akç	-704
▁bal	-705
▁kav	-706
▁ona	-707
asında	-708
▁allah	-709
▁büyük	-710
▁olsun	-711
▁göster	-712
▁hanımı	-713
▁olacak	-714
ere	-715
▁öy	-716
alan	-717
iyle	-718
ünce	-719
▁ilk	-720
▁pap	-721
▁yet	-722
▁çay	-723
▁şim	-724
▁aynı	-725
▁evde	-726
▁olmuş	-727
▁kaldır	-728
bu	-729
ec	-730
aze	-731
gil	-732
ret	-733
uyu	-734
ünü	-735
▁am	-736
▁boş	-737
▁etm	-738
▁kaf	-739
▁sık	-740
▁çün	-741
▁şek	-742
▁dost	-743
▁dayan	-744
▁evine	-745
▁hayır	-746
▁herkes	-747
▁kapıyı	-748
tim	-749
tur	-750
uya	-751
▁av	-752
unda	-753
ımız	-754
▁cem	-755
▁kahv	-756
▁peki	-757
▁yeni	-758
larına	-759
▁efend	-760
▁karşı	-761
▁nedir	-762
▁çünkü	-763
▁olduğunu	-764
...	-765
dın	-766
ser	-767
▁uç	-768
edim	-769
ırak	-770
▁dün	-771
▁haz	-772
▁kas	-773
▁kor	-774
▁arab	-775
▁kurt	-776
▁bilet	-777
▁tekrar	-778
▁pazarda	-779
if	-780
lu	-781
ob	-782
ça	-783
tin	-784
tım	-785
elim	-786
yahu	-787
ılır	-788
ıyla	-789
▁ber	-790
▁ise	-791
▁say	-792
▁tat	-793
▁niye	-794
▁yolc	-795
▁bırak	-796
▁götür	-797
▁hakim	-798
▁şimdi	-799
dük	-800
ete	-801
asın	-802
ecek	-803
eceğ	-804
ehir	-805
ulur	-806
▁bor	-807
▁dağ	-808
▁dev	-809
▁dik	-810
▁ken	-811
▁man	-812
sunuz	-813
▁baba	-814
▁karar	-815
▁yemek	-816
▁hastan	-817
liğ	-818
mad	-819
siz	-820
▁ac	-821
▁em	-822
edik	-823
ladı	-824
ütün	-825
▁bağ	-826
▁boz	-827
▁diy	-828
lerin	-829
ıştır	-830
▁beni	-831
▁lira	-832
lerden	-833
▁ancak	-834
▁gelen	-835
▁gören	-836
▁kadın	-837
▁kazan	-838
▁içinde	-839
si	-840
yn	-841
dik	-842
sün	-843
tik	-844
ğur	-845
▁..	-846
▁giy	-847
▁haf	-848
▁kıs	-849
▁sok	-850
▁tur	-851
▁yağ	-852
▁bakk	-853
▁geri	-854
▁koca	-855
▁bütün	-856
▁diğer	-857
▁hazır	-858
▁tutar	-859
▁çocuğ	-860
▁öğrenci	-861
iv	-862
ön	-863
ara	-864
imi	-865
▁ca	-866
▁is	-867
aber	-868
afir	-869
enin	-870
ünde	-871
▁gen	-872
▁gez	-873
▁hoc	-874
▁pir	-875
▁sağ	-876
▁unu	-877
▁içer	-878
▁i̇ki	-879
▁kork	-880
▁sını	-881
▁taze	-882
▁öyle	-883
lardan	-884
▁başka	-885
▁etmiş	-886
▁olmaz	-887
▁karşıs	-888
▁efendim	-889
▁misafir	-890
▁yapıyorsun	-891
ıt	-892
▁5	-893
▁‘	-894
bul	-895
ceğ	-896
duk	-897
▁eğ	-898
adır	-899
iyet	-900
▁din	-901
▁gaz	-902
▁göl	-903
▁hoş	-904
▁miy	-905
▁bile	-906
▁fark	-907
▁gide	-908
▁onun	-909
▁size	-910
▁yere	-911
▁akşam	-912
▁almış	-913
▁eşeği	-914
▁gerek	-915
▁sizin	-916
iyorlar	-917
▁derler	-918
▁kayser	-919
▁öğrenciler	-920
me	-921
us	-922
ant	-923
eli	-924
eme	-925
ilo	-926
mis	-927
▁iz	-928
amam	-929
▁dış	-930
abını	-931
allah	-932
erken	-933
siniz	-934
▁hayv	-935
adeniz	-936
▁değiş	-937
▁insan	-938
▁sordu	-939
▁annesi	-940
▁bakkal	-941
larından	-942
▁gelince	-943
▁hocanın	-944
▁arkadaşı	-945
▁demişler	-946
▁karadeniz	-947
eç	-948
dık	-949
ran	-950
yon	-951
ımı	-952
▁af	-953
▁az	-954
dığı	-955
lere	-956
ınav	-957
▁vur	-958
▁çev	-959
ekten	-960
ektir	-961
▁hast	-962
▁mekt	-963
▁tane	-964
esinde	-965
▁adama	-966
▁hangi	-967
▁söyle	-968
▁sınav	-969
ıyorlar	-970
ıyormuş	-971
▁birden	-972
▁sahibi	-973
▁giderken	-974
▁öğretmenim	-975
eği	-976
i̇ş	-977
may	-978
▁ha	-979
▁ıs	-980
▁ask	-981
▁ağz	-982
▁cen	-983
▁gön	-984
▁hız	-985
▁kaş	-986
▁kuy	-987
▁oda	-988
▁tür	-989
meden	-990
▁anlam	-991
▁bugün	-992
▁görür	-993
▁papağ	-994
▁sinir	-995
▁sınıf	-996
▁derken	-997
▁dilenc	-998
▁şaşırmış	-999
▁cevaplamış	-1000
ga	-1001
üc	-1002
mam	-1003
raf	-1004
sam	-1005
ğuk	-1006
▁öt	-1007
aten	-1008
imiz	-1009
▁bas	-1010
▁hır	-1011
▁kiş	-1012
▁kıy	-1013
▁yük	-1014
ileri	-1015
ladım	-1016
likte	-1017
ılmış	-1018
▁hemş	-1019
▁unut	-1020
▁deniz	-1021
▁devam	-1022
▁istem	-1023
▁onlar	-1024
▁yoksa	-1025
▁başını	-1026
▁doktora	-1027
▁eşeğini	-1028
ba	-1029
baş	-1030
can	-1031
deş	-1032
kat	-1033
kom	-1034
sek	-1035
▁mo	-1036
...”	-1037
arım	-1038
ayet	-1039
utan	-1040
▁can	-1041
▁cüm	-1042
▁har	-1043
▁hat	-1044
▁kat	-1045
▁mak	-1046
▁ort	-1047
▁rah	-1048
▁vak	-1049
▁yor	-1050
▁zor	-1051
esini	-1052
▁ders	-1053
▁uzun	-1054
ıyordu	-1055
▁adamı	-1056
▁bulun	-1057
▁girer	-1058
▁içeri	-1059
▁köpek	-1060
▁müdür	-1061
▁ondan	-1062
▁temiz	-1063
▁zaten	-1064
▁çorba	-1065
ektedir	-1066
▁bakmış	-1067
▁hayvan	-1068
▁hırsız	-1069
▁dayanam	-1070
▁görünce	-1071
▁cevabını	-1072
▁komşusun	-1073
▁üzerinde	-1074
oz	-1075
üs	-1076
rum	-1077
sey	-1078
uğu	-1079
ükk	-1080
eyin	-1081
tesi	-1082
tığı	-1083
unca	-1084
▁bi̇	-1085
▁dal	-1086
▁duv	-1087
▁ger	-1088
▁kol	-1089
▁oku	-1090
▁sol	-1091
▁şik	-1092
giliz	-1093
ırlar	-1094
▁dükk	-1095
▁uyan	-1096
asının	-1097
tıktan	-1098
▁ayakk	-1099
▁bilir	-1100
▁halde	-1101
▁manav	-1102
▁misin	-1103
▁tatlı	-1104
▁yolda	-1105
ediğini	-1106
iyormuş	-1107
▁eşeğin	-1108
▁olduğu	-1109
▁varmış	-1110
▁bakalım	-1111
▁komutan	-1112
▁sınıfta	-1113
▁birlikte	-1114
▁kayserili	-1115
ac	-1116
ye	-1117
âl	-1118
azı	-1119
düğ	-1120
eti	-1121
gın	-1122
mem	-1123
▁od	-1124
▁tu	-1125
efon	-1126
erin	-1127
esin	-1128
hbet	-1129
ilde	-1130
iyat	-1131
unun	-1132
urum	-1133
uval	-1134
▁akl	-1135
▁ali	-1136
▁ard	-1137
▁den	-1138
▁fil	-1139
▁hey	-1140
▁i̇ç	-1141
▁kuz	-1142
▁kür	-1143
▁lok	-1144
▁mem	-1145
▁uyk	-1146
▁ziy	-1147
▁eğer	-1148
▁kötü	-1149
lerine	-1150
▁anlay	-1151
▁güler	-1152
▁hayat	-1153
▁kasab	-1154
▁soğuk	-1155
▁yoğur	-1156
▁cevabı	-1157
▁geçmiş	-1158
▁hiçbir	-1159
▁kaybet	-1160
▁kendis	-1161
▁sohbet	-1162
▁şekilde	-1163
be	-1164
şe	-1165
düm	-1166
eng	-1167
eğe	-1168
i̇n	-1169
▁bi	-1170
▁tr	-1171
▁uş	-1172
erim	-1173
etin	-1174
için	-1175
olis	-1176
▁dör	-1177
▁fad	-1178
▁hâl	-1179
▁seb	-1180
▁tah	-1181
▁yuk	-1182
isine	-1183
madan	-1184
mamış	-1185
▁ağız	-1186
▁bahç	-1187
▁defa	-1188
▁gece	-1189
▁kağı	-1190
▁kısa	-1191
▁okul	-1192
▁seni	-1193
▁yanl	-1194
muşlar	-1195
▁ahmet	-1196
▁asker	-1197
▁geldi	-1198
▁geçen	-1199
▁geçir	-1200
▁hafta	-1201
▁iyice	-1202
▁kavga	-1203
▁kenar	-1204
▁köylü	-1205
▁öldür	-1206
▁ertesi	-1207
▁geldiğ	-1208
▁seslen	-1209
▁yoğurt	-1210
▁çıkmış	-1211
▁ağrıyor	-1212
▁deliler	-1213
▁düşünür	-1214
▁telefon	-1215
▁ardından	-1216
▁sorarlar	-1217
va	-1218
ele	-1219
lak	-1220
sem	-1221
tem	-1222
tığ	-1223
üşt	-1224
▁ih	-1225
▁ip	-1226
▁öd	-1227
edin	-1228
emez	-1229
▁doğ	-1230
▁pek	-1231
▁sad	-1232
▁sar	-1233
▁tuz	-1234
▁yön	-1235
amaya	-1236
arken	-1237
ediği	-1238
isini	-1239
urken	-1240
ünden	-1241
▁ayağ	-1242
▁berb	-1243
▁inan	-1244
▁olsa	-1245
▁otob	-1246
▁yolu	-1247
dükten	-1248
iyordu	-1249
ındaki	-1250
▁arada	-1251
▁cemal	-1252
▁davet	-1253
▁mektu	-1254
▁niçin	-1255
▁sevin	-1256
▁verdi	-1257
▁çevir	-1258
▁öğren	-1259
▁burada	-1260
▁dikkat	-1261
▁durumu	-1262
▁hocaya	-1263
▁nerede	-1264
▁nereye	-1265
▁yerine	-1266
lerinden	-1267
▁akşehir	-1268
▁merakla	-1269
▁oturuyor	-1270
üğ	-1271
ali	-1272
mağ	-1273
usu	-1274
▁10	-1275
▁pr	-1276
adım	-1277
aret	-1278
inci	-1279
unuz	-1280
▁def	-1281
▁döv	-1282
▁fır	-1283
▁kan	-1284
▁mah	-1285
▁pen	-1286
▁sof	-1287
▁tok	-1288
▁tır	-1289
▁çöz	-1290
eleri	-1291
encer	-1292
komşu	-1293
▁elin	-1294
▁görm	-1295
▁kapı	-1296
▁kedi	-1297
▁kolt	-1298
▁oğlu	-1299
▁tart	-1300
▁yani	-1301
tikten	-1302
üyorum	-1303
▁almak	-1304
▁başım	-1305
▁dolaş	-1306
▁eşeğe	-1307
▁görev	-1308
▁güneş	-1309
▁hızlı	-1310
▁kaşık	-1311
▁motor	-1312
▁musun	-1313
▁orada	-1314
▁sahib	-1315
▁salak	-1316
▁yolcu	-1317
▁çuval	-1318
üyorsun	-1319
▁binmiş	-1320
▁dışarı	-1321
▁gönder	-1322
▁karısı	-1323
▁pazara	-1324
▁verdiğ	-1325
▁yahudi	-1326
▁yanlış	-1327
▁diyerek	-1328
▁ederler	-1329
▁eşeğine	-1330
▁istemiş	-1331
▁ayakkabı	-1332
▁karşılaş	-1333
▁taraftan	-1334
ag	-1335
ke	-1336
uç	-1337
dak	-1338
kın	-1339
lük	-1340
mur	-1341
nin	-1342
son	-1343
▁iy	-1344
ekte	-1345
emem	-1346
eyle	-1347
eyse	-1348
işir	-1349
▁abi	-1350
▁boy	-1351
▁buy	-1352
▁huy	-1353
▁kab	-1354
▁kek	-1355
▁kuş	-1356
▁mat	-1357
▁mey	-1358
▁söy	-1359
▁uğr	-1360
▁yal	-1361
▁yav	-1362
▁yık	-1363
tadır	-1364
▁açık	-1365
▁bekl	-1366
▁bize	-1367
▁borç	-1368
▁canı	-1369
▁dört	-1370
▁eski	-1371
▁hava	-1372
▁odun	-1373
▁tabi	-1374
▁yazı	-1375
▁yorg	-1376
allahi	-1377
▁anlar	-1378
▁aşağı	-1379
▁döner	-1380
▁dünya	-1381
▁düşer	-1382
▁düştü	-1383
▁gelip	-1384
▁giden	-1385
▁haber	-1386
▁hatır	-1387
▁polis	-1388
▁yarın	-1389
asından	-1390
aşırken	-1391
▁cemaat	-1392
▁diğeri	-1393
▁fadime	-1394
▁söyler	-1395
▁yağmur	-1396
▁yolcul	-1397
▁çalmış	-1398
▁ağızdan	-1399
▁başladı	-1400
▁dilenci	-1401
▁dönerek	-1402
▁getirir	-1403
▁sonunda	-1404
▁başlarlar	-1405
▁karşılaşır	-1406
ne	-1407
re	-1408
ri	-1409
uc	-1410
ây	-1411
amı	-1412
bür	-1413
dığ	-1414
hal	-1415
ika	-1416
ilm	-1417
inc	-1418
luk	-1419
nun	-1420
par	-1421
pey	-1422
tın	-1423
ılı	-1424
▁oy	-1425
▁öz	-1426
▁ış	-1427
duğu	-1428
ekim	-1429
elik	-1430
laya	-1431
umur	-1432
usun	-1433
▁bar	-1434
▁i̇l	-1435
▁kez	-1436
▁mad	-1437
▁pat	-1438
▁vaz	-1439
▁yiy	-1440
▁çab	-1441
▁şah	-1442
ektim	-1443
larda	-1444
mıştı	-1445
sanız	-1446
▁alan	-1447
▁ayşe	-1448
▁ağaç	-1449
▁aşağ	-1450
▁borc	-1451
▁buna	-1452
▁eden	-1453
▁epey	-1454
▁evin	-1455
▁günü	-1456
▁komş	-1457
▁sofr	-1458
▁verm	-1459
amazan	-1460
dığını	-1461
▁altın	-1462
▁duvar	-1463
▁duyan	-1464
▁görün	-1465
▁hasta	-1466
▁yeter	-1467
▁şikây	-1468
meyecek	-1469
▁başına	-1470
▁birbir	-1471
▁girmiş	-1472
▁görsün	-1473
▁gülmüş	-1474
▁hemşer	-1475
▁lokant	-1476
▁parayı	-1477
▁vardır	-1478
▁yaklaş	-1479
▁yolunu	-1480
▁konuşur	-1481
▁oturmuş	-1482
▁yürüyor	-1483
▁değiştir	-1484
▁gösterir	-1485
▁i̇ngiliz	-1486
▁sormuşlar	-1487
dr	-1488
tu	-1489
za	-1490
ama	-1491
ben	-1492
day	-1493
ene	-1494
tar	-1495
tiy	-1496
tum	-1497
uma	-1498
ünc	-1499
üye	-1500
▁30	-1501
▁be	-1502
▁ey	-1503
aban	-1504
alık	-1505
emat	-1506
stan	-1507
tiği	-1508
ünün	-1509
ılan	-1510
ılık	-1511
ınır	-1512
ısın	-1513
▁ara	-1514
▁bay	-1515
▁bed	-1516
▁boğ	-1517
▁dak	-1518
▁diş	-1519
▁gar	-1520
▁kör	-1521
▁mas	-1522
▁mes	-1523
▁nef	-1524
▁pas	-1525
▁sav	-1526
▁tal	-1527
▁tes	-1528
▁tuh	-1529
▁çiv	-1530
▁şak	-1531
▁şaş	-1532
bette	-1533
lanır	-1534
lerde	-1535
undan	-1536
ısını	-1537
▁akçe	-1538
▁dinl	-1539
▁etti	-1540
▁gelm	-1541
▁göle	-1542
▁kayb	-1543
▁kilo	-1544
▁kuyr	-1545
▁köye	-1546
▁müşt	-1547
▁tanı	-1548
▁tavş	-1549
▁yola	-1550
▁çarp	-1551
dıktan	-1552
eceğim	-1553
esinin	-1554
▁bende	-1555
▁deyip	-1556
▁gazet	-1557
▁hamam	-1558
▁kalır	-1559
▁namaz	-1560
▁olanı	-1561
▁olmad	-1562
▁sıcak	-1563
▁tamam	-1564
▁yalan	-1565
layarak	-1566
▁babası	-1567
▁buraya	-1568
▁elinde	-1569
▁kardeş	-1570
▁kullan	-1571
▁nasret	-1572
▁sadece	-1573
▁soruyu	-1574
▁temele	-1575
▁yukarı	-1576
▁bakkala	-1577
▁biletçi	-1578
▁duruyor	-1579
▁gidecek	-1580
▁gülerek	-1581
▁içinden	-1582
▁kendine	-1583
▁kendini	-1584
▁matemat	-1585
▁mektubu	-1586
▁nereden	-1587
▁papağan	-1588
▁sorunca	-1589
▁söylemiş	-1590
▁lokantada	-1591
▁karşısında	-1592
▁karadenizli	-1593
of	-1594
rı	-1595
sı	-1596
çe	-1597
aca	-1598
ayi	-1599
bis	-1600
cuz	-1601
dip	-1602
hay	-1603
lek	-1604
mus	-1605
ığa	-1606
▁dü	-1607
▁si	-1608
akta	-1609
eğin	-1610
uyla	-1611
üncü	-1612
▁ayı	-1613
▁dam	-1614
▁ede	-1615
▁esn	-1616
▁gür	-1617
▁had	-1618
▁hel	-1619
▁işe	-1620
▁may	-1621
▁maç	-1622
▁met	-1623
▁mez	-1624
▁oyn	-1625
▁sir	-1626
▁çak	-1627
▁çam	-1628
▁öde	-1629
▁şük	-1630
anlık	-1631
ağını	-1632
layıp	-1633
mayın	-1634
uğunu	-1635
▁boyn	-1636
▁cenn	-1637
▁geçm	-1638
▁gitm	-1639
▁iler	-1640
▁işte	-1641
▁i̇lk	-1642
▁ucuz	-1643
▁uyku	-1644
▁uzat	-1645
▁yedi	-1646
▁öbür	-1647
asıyla	-1648
dikten	-1649
lanmış	-1650
▁delik	-1651
▁dokuz	-1652
▁etmez	-1653
▁geçer	-1654
▁gülüm	-1655
▁ihtiy	-1656
▁kimin	-1657
▁kolay	-1658
▁kulak	-1659
▁niyet	-1660
▁sakin	-1661
▁subaş	-1662
▁tuhaf	-1663
▁türlü	-1664
▁vardı	-1665
▁şeker	-1666
elerini	-1667
larımız	-1668
larında	-1669
lerinde	-1670
▁berber	-1671
▁epeyce	-1672
▁görmüş	-1673
▁kurtul	-1674
▁senden	-1675
▁söylem	-1676
▁tartış	-1677
▁tursun	-1678
▁yardım	-1679
▁yoktur	-1680
▁yüksek	-1681
▁çocuğa	-1682
▁adamlar	-1683
▁anlatır	-1684
▁aşağıya	-1685
▁beraber	-1686
▁çalışır	-1687
▁şikâyet	-1688
▁dayanamaz	-1689
▁kenarında	-1690
▁matematik	-1691
▁nasrettin	-1692
▁bilmiyorum	-1693
▁komşularından	-1694
oo	-1695
tt	-1696
kar	-1697
oğl	-1698
ram	-1699
ste	-1700
umu	-1701
ümr	-1702
ıcı	-1703
şiş	-1704
▁ro	-1705
▁öğ	-1706
anız	-1707
avuş	-1708
ayıp	-1709
ilot	-1710
mayı	-1711
ıldı	-1712
ıyım	-1713
▁100	-1714
▁ceb	-1715
▁cin	-1716
▁ded	-1717
▁erk	-1718
▁fen	-1719
▁gec	-1720
▁gev	-1721
▁hap	-1722
▁inc	-1723
▁pil	-1724
▁ser	-1725
▁sey	-1726
▁val	-1727
▁yay	-1728
adığı	-1729
hanım	-1730
ladık	-1731
larım	-1732
manda	-1733
seniz	-1734
ıldır	-1735
▁bi̇r	-1736
▁cami	-1737
▁gözü	-1738
▁hakk	-1739
▁hani	-1740
▁heyb	-1741
▁işit	-1742
▁kere	-1743
▁kürs	-1744
▁olay	-1745
▁parç	-1746
▁sözü	-1747
▁torb	-1748
▁uşak	-1749
▁önem	-1750
▁üzüm	-1751
amadım	-1752
efendi	-1753
lamaya	-1754
lemeye	-1755
mişler	-1756
▁anlaş	-1757
▁artık	-1758
▁atmış	-1759
▁ayağa	-1760
▁balık	-1761
▁belli	-1762
▁bitir	-1763
▁bitti	-1764
▁bulur	-1765
▁dedik	-1766
▁ekmek	-1767
▁elbis	-1768
▁etraf	-1769
▁gidin	-1770
▁gitti	-1771
▁gürül	-1772
▁hatun	-1773
▁kapat	-1774
▁mezar	-1775
▁rahat	-1776
▁talim	-1777
▁tanım	-1778
▁tıraş	-1779
▁vakit	-1780
▁yarış	-1781
▁yaşlı	-1782
▁yumur	-1783
▁çabuk	-1784
▁çalar	-1785
▁önüne	-1786
▁şahit	-1787
arkadaş	-1788
▁altına	-1789
▁aradan	-1790
▁aralar	-1791
▁ağzını	-1792
▁bahşiş	-1793
▁benden	-1794
▁düşmüş	-1795
▁evinin	-1796
▁huysuz	-1797
▁kekeme	-1798
▁makbul	-1799
▁onları	-1800
▁parmağ	-1801
▁sesler	-1802
▁önünde	-1803
▁garsona	-1804
▁geliyor	-1805
▁gidiyor	-1806
▁kahvede	-1807
▁musunuz	-1808
▁ramazan	-1809
▁sofraya	-1810
▁soruyor	-1811
▁tutarsa	-1812
▁yapacağ	-1813
▁çağırır	-1814
▁arasında	-1815
▁düşünmüş	-1816
▁komşular	-1817
▁yapıştır	-1818
▁yerinden	-1819
▁konuşmaya	-1820
▁arkadaşlar	-1821
▁arkadaşına	-1822
▁dolaşırken	-1823
▁istiyorsun	-1824
▁düşündükten	-1825
▁oturuyormuş	-1826
fk	-1827
gı	-1828
ro	-1829
aaz	-1830
ann	-1831
ans	-1832
bak	-1833
bur	-1834
dün	-1835
dız	-1836
sak	-1837
ven	-1838
zan	-1839
ıma	-1840
şey	-1841
▁bö	-1842
▁du	-1843
▁gü	-1844
▁ök	-1845
adık	-1846
caba	-1847
esiz	-1848
işah	-1849
oför	-1850
ımda	-1851
ışır	-1852
▁alb	-1853
▁atı	-1854
▁beğ	-1855
▁gi̇	-1856
▁hab	-1857
▁hiz	-1858
▁kam	-1859
▁kir	-1860
▁kum	-1861
▁küp	-1862
▁laz	-1863
▁mar	-1864
▁muz	-1865
▁sef	-1866
▁sil	-1867
▁tüm	-1868
▁yed	-1869
▁yut	-1870
▁zey	-1871
▁çif	-1872
▁öfk	-1873
▁şiş	-1874
anlar	-1875
ceğim	-1876
ediye	-1877
emeye	-1878
erler	-1879
manın	-1880
mıyor	-1881
ümrük	-1882
ısına	-1883
▁alıp	-1884
▁anne	-1885
▁ateş	-1886
▁ağır	-1887
▁bazı	-1888
▁bilg	-1889
▁edil	-1890
▁fran	-1891
▁ince	-1892
▁iyil	-1893
▁pili	-1894
▁sesi	-1895
▁sıra	-1896
▁öldü	-1897
▁ısır	-1898
▁ışık	-1899
incisi	-1900
masını	-1901
▁acaba	-1902
▁aslan	-1903
▁beyaz	-1904
▁bulam	-1905
▁buyur	-1906
▁cümle	-1907
▁demek	-1908
▁demis	-1909
▁erken	-1910
▁filan	-1911
▁miyim	-1912
▁nasil	-1913
▁okula	-1914
▁sinem	-1915
▁teker	-1916
▁telaş	-1917
▁veren	-1918
▁yaban	-1919
▁yazar	-1920
▁yerde	-1921
▁çetin	-1922
▁şoför	-1923
vallahi	-1924
▁aferin	-1925
▁birşey	-1926
▁dakika	-1927
▁derece	-1928
▁doldur	-1929
▁gümrük	-1930
▁hizmet	-1931
▁oluyor	-1932
▁rahmet	-1933
▁satıcı	-1934
▁vermek	-1935
▁yandan	-1936
▁yemeye	-1937
▁yemeği	-1938
▁bakayım	-1939
▁elbette	-1940
▁evladım	-1941
▁eşekten	-1942
▁fransız	-1943
▁götürür	-1944
▁isteyen	-1945
▁olmamış	-1946
▁yanında	-1947
▁yapmaya	-1948
üyorsunuz	-1949
▁eşeğinin	-1950
▁herkesin	-1951
▁sinirlen	-1952
▁yolculuk	-1953
ıyorlarmış	-1954
▁bağırmaya	-1955
▁istiyorum	-1956
▁komşuları	-1957
▁konuşuyor	-1958
▁ayaklarını	-1959
▁hastanesinde	-1960
ih	-1961
mı	-1962
üb	-1963
alt	-1964
dat	-1965
dem	-1966
eze	-1967
hem	-1968
i̇m	-1969
laç	-1970
leş	-1971
nız	-1972
say	-1973
ter	-1974
▁bm	-1975
▁id	-1976
▁im	-1977
▁os	-1978
▁pu	-1979
▁un	-1980
▁ün	-1981
amak	-1982
ayın	-1983
enir	-1984
erik	-1985
ette	-1986
eviz	-1987
imin	-1988
kadı	-1989
mağa	-1990
sana	-1991
taki	-1992
tanı	-1993
tere	-1994
ulan	-1995
umuz	-1996
▁bat	-1997
▁ciğ	-1998
▁dür	-1999
▁faz	-2000
▁hor	-2001
▁ilg	-2002
▁i̇k	-2003
▁i̇ş	-2004
▁kok	-2005
▁mel	-2006
▁men	-2007
▁mil	-2008
▁mol	-2009
▁mut	-2010
▁pad	-2011
▁peş	-2012
▁reç	-2013
▁saç	-2014
▁çat	-2015
acağı	-2016
cağız	-2017
dinin	-2018
diniz	-2019
duğum	-2020
ehmet	-2021
eyrum	-2022
layan	-2023
lemek	-2024
masın	-2025
temel	-2026
▁alış	-2027
▁aman	-2028
▁atar	-2029
▁fars	-2030
▁gerç	-2031
▁gölü	-2032
▁heye	-2033
▁koşu	-2034
▁kuru	-2035
▁okuy	-2036
▁sırt	-2037
▁tren	-2038
▁utan	-2039
▁vaaz	-2040
▁veri	-2041
▁yakl	-2042
▁zann	-2043
▁zeng	-2044
▁çarş	-2045
▁çift	-2046
▁ölür	-2047
cektim	-2048
larken	-2049
▁araba	-2050
▁ayağı	-2051
▁ağaca	-2052
▁babam	-2053
▁bakla	-2054
▁başar	-2055
▁belki	-2056
▁birde	-2057
▁dağıt	-2058
▁diyor	-2059
▁dönüp	-2060
▁düzel	-2061
▁elini	-2062
▁etmek	-2063
▁gener	-2064
▁geçti	-2065
▁indir	-2066
▁kahve	-2067
▁kalab	-2068
▁kasap	-2069
▁katır	-2070
▁olsay	-2071
▁pilot	-2072
▁sakal	-2073
▁sefer	-2074
▁tamir	-2075
▁varsa	-2076
▁yakal	-2077
▁yürüy	-2078
▁ölmüş	-2079
▁öteki	-2080
▁şehir	-2081
evizyon	-2082
lerinin	-2083
▁akçeyi	-2084
▁birgün	-2085
▁burası	-2086
▁denize	-2087
▁dürüst	-2088
▁kapalı	-2089
▁kapısı	-2090
▁kapıya	-2091
▁kazanı	-2092
▁koymuş	-2093
▁kurtar	-2094
▁köyden	-2095
▁kızgın	-2096
▁meydan	-2097
▁parmak	-2098
▁pencer	-2099
▁sessiz	-2100
▁verdim	-2101
▁yalnız	-2102
▁yapmış	-2103
▁yıldız	-2104
▁çuvala	-2105
▁üstüne	-2106
▁altında	-2107
▁bunları	-2108
▁buradan	-2109
▁getirin	-2110
▁görevli	-2111
▁heyecan	-2112
▁karşıya	-2113
▁ormanda	-2114
▁padişah	-2115
▁temelin	-2116
▁vaziyet	-2117
▁vereyim	-2118
ıyorsunuz	-2119
▁babasına	-2120
▁elindeki	-2121
▁hanımına	-2122
▁karıştır	-2123
▁karşıdan	-2124
▁kasabaya	-2125
▁olabilir	-2126
▁sinemaya	-2127
▁kaldırmış	-2128
▁kaybettim	-2129
▁veriverir	-2130
▁çocuklara	-2131
▁bilmeyecek	-2132
▁televizyon	-2133
▁yürüyormuş	-2134
id	-2135
ze	-2136
▁’	-2137
ast	-2138
ava	-2139
bil	-2140
eee	-2141
eçi	-2142
gah	-2143
ize	-2144
i̇l	-2145
ura	-2146
üse	-2147
ınk	-2148
ızı	-2149
▁1.	-2150
▁ab	-2151
▁ec	-2152
▁ku	-2153
▁kâ	-2154
▁ır	-2155
abil	-2156
ahat	-2157
ayla	-2158
gunu	-2159
imde	-2160
iyim	-2161
i̇i̇	-2162
ığım	-2163
ığın	-2164
▁500	-2165
▁acı	-2166
▁beb	-2167
▁buğ	-2168
▁cüb	-2169
▁dir	-2170
▁dua	-2171
▁erz	-2172
▁göm	-2173
▁haç	-2174
▁ney	-2175
▁res	-2176
▁riv	-2177
▁saz	-2178
▁seç	-2179
▁suç	-2180
▁sıv	-2181
▁sıç	-2182
▁tas	-2183
▁teş	-2184
▁til	-2185
▁yas	-2186
▁yir	-2187
▁önc	-2188
▁öyl	-2189
adaki	-2190
arıya	-2191
ağına	-2192
edeki	-2193
fendi	-2194
ilere	-2195
lacak	-2196
lardı	-2197
madım	-2198
makta	-2199
muyor	-2200
▁anda	-2201
▁asıl	-2202
▁beri	-2203
▁fena	-2204
▁genç	-2205
▁göre	-2206
▁hadi	-2207
▁ilan	-2208
▁i̇yi	-2209
▁karn	-2210
▁kayn	-2211
▁kims	-2212
▁kişi	-2213
▁kuzu	-2214
▁kırk	-2215
▁otel	-2216
▁rast	-2217
▁taşı	-2218
▁yöne	-2219
▁yüzü	-2220
▁üzül	-2221
▁şaka	-2222
▁şeyi	-2223
acağız	-2224
ediğin	-2225
eyeyim	-2226
iyecek	-2227
tiğini	-2228
ılacak	-2229
ısında	-2230
▁annem	-2231
▁bakan	-2232
▁beğen	-2233
▁bilgi	-2234
▁biner	-2235
▁düdük	-2236
▁erkek	-2237
▁fazla	-2238
▁gidip	-2239
▁havuz	-2240
▁haydi	-2241
▁hepsi	-2242
▁ikram	-2243
▁ilerl	-2244
▁kağıt	-2245
▁kimse	-2246
▁kırık	-2247
▁madem	-2248
▁mahal	-2249
▁nefes	-2250
▁odaya	-2251
▁olduk	-2252
▁pişir	-2253
▁salon	-2254
▁sanan	-2255
▁sesle	-2256
▁sirke	-2257
▁tabut	-2258
▁tarif	-2259
▁verin	-2260
▁yaptı	-2261
▁yavaş	-2262
▁yürüm	-2263
▁çavuş	-2264
▁üzere	-2265
▁üzgün	-2266
▁şükür	-2267
dakiler	-2268
layınca	-2269
seyerek	-2270
tığında	-2271
▁aklına	-2272
▁alacak	-2273
▁aynaya	-2274
▁bedava	-2275
▁birine	-2276
▁birini	-2277
▁deliye	-2278
▁durdur	-2279
▁duruma	-2280
▁farsça	-2281
▁geldim	-2282
▁geveze	-2283
▁hergün	-2284
▁istedi	-2285
▁içeris	-2286
▁işiten	-2287
▁kalmış	-2288
▁kağıdı	-2289
▁koltuğ	-2290
▁manava	-2291
▁mehmet	-2292
▁memnun	-2293
▁olunca	-2294
▁oradan	-2295
▁toplan	-2296
▁yıllar	-2297
▁yıllık	-2298
▁üçüncü	-2299
▁şaşkın	-2300
maktadır	-2301
▁anladım	-2302
▁aramaya	-2303
▁arkadan	-2304
▁biliyor	-2305
▁birinin	-2306
▁delinin	-2307
▁dostlar	-2308
▁erzurum	-2309
▁general	-2310
▁gerekir	-2311
▁giderek	-2312
▁kapının	-2313
▁müşteri	-2314
▁yumurta	-2315
▁ziyaret	-2316
▁çamaşır	-2317
▁çaresiz	-2318
▁dersinde	-2319
▁dikkatli	-2320
▁doktorun	-2321
▁giderler	-2322
▁görmüyor	-2323
▁karşılık	-2324
▁günlerden	-2325
▁kalabalık	-2326
▁karşısına	-2327
▁kendisine	-2328
▁kendisini	-2329
▁otururken	-2330
▁seslenmiş	-2331
▁öğretmeni	-2332
▁aralarında	-2333
▁arkasından	-2334
▁karadenizl	-2335
▁olmadığını	-2336
▁arkadaşları	-2337
▁dayanamayıp	-2338
▁i̇çlerinden	-2339
▁gülümseyerek	-2340
cu	-2341
oh	-2342
ot	-2343
oğ	-2344
sk	-2345
tr	-2346
ân	-2347
üf	-2348
ıc	-2349
aly	-2350
bel	-2351
cın	-2352
dek	-2353
det	-2354
ebi	-2355
ekk	-2356
enn	-2357
fet	-2358
hoş	-2359
ina	-2360
inç	-2361
ire	-2362
iğn	-2363
işe	-2364
kün	-2365
leğ	-2366
mal	-2367
mut	-2368
rat	-2369
▁50	-2370
▁pi	-2371
▁po	-2372
▁yu	-2373
▁şa	-2374
amet	-2375
anır	-2376
ağın	-2377
ebil	-2378
eder	-2379
ekli	-2380
eğim	-2381
henn	-2382
iydi	-2383
iyiz	-2384
lası	-2385
liğe	-2386
lığı	-2387
madı	-2388
sene	-2389
sini	-2390
taya	-2391
tayı	-2392
trol	-2393
uldu	-2394
uyum	-2395
ücük	-2396
üğün	-2397
ırım	-2398
▁biç	-2399
▁dök	-2400
▁evi	-2401
▁fat	-2402
▁fik	-2403
▁gem	-2404
▁ked	-2405
▁kem	-2406
▁kep	-2407
▁kit	-2408
▁kop	-2409
▁rab	-2410
▁rüy	-2411
▁suy	-2412
▁tor	-2413
▁tık	-2414
▁ust	-2415
▁vap	-2416
▁vay	-2417
▁zıp	-2418
▁çeş	-2419
▁çır	-2420
ayrum	-2421
hayır	-2422
hekim	-2423
imizi	-2424
iymiş	-2425
lerle	-2426
madın	-2427
medim	-2428
menin	-2429
oblem	-2430
sanın	-2431
sınız	-2432
tırma	-2433
▁adet	-2434
▁adım	-2435
▁adın	-2436
▁aldı	-2437
▁beye	-2438
▁bizi	-2439
▁burn	-2440
▁ceza	-2441
▁düny	-2442
▁halk	-2443
▁hang	-2444
▁konu	-2445
▁kuzi	-2446
▁maya	-2447
▁muay	-2448
▁okum	-2449
▁pire	-2450
▁sizi	-2451
▁tutt	-2452
▁türk	-2453
▁uyuy	-2454
▁uçak	-2455
▁çiğn	-2456
▁öküz	-2457
▁öldi	-2458
acağım	-2459
düğünü	-2460
ebilir	-2461
ememiş	-2462
larmış	-2463
liğini	-2464
masına	-2465
seydim	-2466
tığını	-2467
ısının	-2468
▁adını	-2469
▁aldın	-2470
▁ağrım	-2471
▁batır	-2472
▁belir	-2473
▁derin	-2474
▁derki	-2475
▁dokun	-2476
▁dostu	-2477
▁dönen	-2478
▁eline	-2479
▁fiyat	-2480
▁gayet	-2481
▁girip	-2482
▁görem	-2483
▁görül	-2484
▁gözüm	-2485
▁hekim	-2486
▁işten	-2487
▁i̇şte	-2488
▁kabul	-2489
▁kalın	-2490
▁karış	-2491
▁kesil	-2492
▁molla	-2493
▁nerde	-2494
▁olmak	-2495
▁osman	-2496
▁parça	-2497
▁sabun	-2498
▁sebep	-2499
▁sorma	-2500
▁sıvaz	-2501
▁tabii	-2502
▁yanıt	-2503
▁yemiş	-2504
▁yüzme	-2505
esinden	-2506
▁adamla	-2507
▁amerik	-2508
▁bıldır	-2509
▁cehenn	-2510
▁cenaze	-2511
▁demi̇ş	-2512
▁dönmüş	-2513
▁dükkan	-2514
▁ediyor	-2515
▁etmeye	-2516
▁gazete	-2517
▁gözüne	-2518
▁hocayı	-2519
▁kıymet	-2520
▁oğlunu	-2521
▁rotanı	-2522
▁sesini	-2523
▁sevinç	-2524
▁temeli	-2525
▁yapars	-2526
▁yokmuş	-2527
▁yorgan	-2528
▁zengin	-2529
▁çocuğu	-2530
▁önemli	-2531
ladıktan	-2532
mektedir	-2533
▁anlamlı	-2534
▁anlayan	-2535
▁bakıyor	-2536
▁bağırır	-2537
▁bulduğu	-2538
▁böylece	-2539
▁diyecek	-2540
▁evinden	-2541
▁gürültü	-2542
▁kontrol	-2543
▁kürsüye	-2544
▁misiniz	-2545
▁otobüse	-2546
▁problem	-2547
▁söyledi	-2548
▁söyleye	-2549
▁sırtına	-2550
▁uyandır	-2551
▁verdiği	-2552
▁yapacak	-2553
▁yapalım	-2554
▁çalınır	-2555
▁çıkarıp	-2556
▁önünden	-2557
▁bunların	-2558
▁ettikten	-2559
▁getirmiş	-2560
▁gezerken	-2561
▁geçerken	-2562
▁geçirmiş	-2563
▁kafasını	-2564
▁köylünün	-2565
▁oldugunu	-2566
▁yaklaşır	-2567
▁bakıyorum	-2568
▁beyefendi	-2569
▁bunlardan	-2570
▁bıldırcın	-2571
▁gidiyorum	-2572
▁görüyorum	-2573
▁komşusuna	-2574
▁sırasında	-2575
▁üzerinden	-2576
▁başlayınca	-2577
▁biliyorsun	-2578
▁geldiğinde	-2579
▁komşusundan	-2580
▁öğrencilerine	-2581
aj	-2582
fi	-2583
gr	-2584
ii	-2585
pt	-2586
rr	-2587
şi	-2588
▁â	-2589
aaa	-2590
acı	-2591
asi	-2592
cez	-2593
di̇	-2594
eni	-2595
fat	-2596
gar	-2597
geç	-2598
gun	-2599
gıç	-2600
ile	-2601
ing	-2602
i̇k	-2603
kem	-2604
kim	-2605
kin	-2606
laf	-2607
let	-2608
lul	-2609
mas	-2610
oto	-2611
rak	-2612
ron	-2613
sik	-2614
sil	-2615
siy	-2616
tiş	-2617
çoc	-2618
ğul	-2619
▁.”	-2620
▁12	-2621
▁2.	-2622
▁3.	-2623
▁kı	-2624
▁us	-2625
▁öp	-2626
akal	-2627
arın	-2628
ates	-2629
aval	-2630
ayum	-2631
azen	-2632
dayı	-2633
diği	-2634
dris	-2635
edum	-2636
emek	-2637
eyip	-2638
gara	-2639
ilen	-2640
inip	-2641
iğim	-2642
lahi	-2643
lama	-2644
ması	-2645
mi̇ş	-2646
onun	-2647
seri	-2648
urat	-2649
uğum	-2650
uğun	-2651
ırla	-2652
▁alç	-2653
▁ata	-2654
▁ayr	-2655
▁ban	-2656
▁böl	-2657
▁daa	-2658
▁düz	-2659
▁ekm	-2660
▁giz	-2661
▁gök	-2662
▁hes	-2663
▁huz	-2664
▁işi	-2665
▁keş	-2666
▁kov	-2667
▁köş	-2668
▁laf	-2669
▁lan	-2670
▁muh	-2671
▁müm	-2672
▁num	-2673
▁pah	-2674
▁pam	-2675
▁pey	-2676
▁piş	-2677
▁ren	-2678
▁sel	-2679
▁süz	-2680
▁tep	-2681
▁tey	-2682
▁tez	-2683
▁çik	-2684
▁ölç	-2685
▁öne	-2686
▁şık	-2687
aliba	-2688
arlar	-2689
cılar	-2690
diler	-2691
diven	-2692
dılar	-2693
ekkür	-2694
inizi	-2695
larla	-2696
latır	-2697
lendi	-2698
lenin	-2699
lerim	-2700
müyor	-2701
saret	-2702
veriş	-2703
çocuk	-2704
ürler	-2705
ınızı	-2706
ıymış	-2707
▁altı	-2708
▁amel	-2709
▁anon	-2710
▁arar	-2711
▁arka	-2712
▁arız	-2713
▁ayrı	-2714
▁açar	-2715
▁ağrı	-2716
▁başı	-2717
▁cübb	-2718
▁cüml	-2719
▁dağı	-2720
▁dolu	-2721
▁edin	-2722
▁elma	-2723
▁foto	-2724
▁hakl	-2725
▁hala	-2726
▁iken	-2727
▁ilaç	-2728
▁itir	-2729
▁izin	-2730
▁kara	-2731
▁kime	-2732
▁maçı	-2733
▁olup	-2734
▁oyun	-2735
▁salı	-2736
▁suyu	-2737
▁tası	-2738
▁test	-2739
▁uzak	-2740
▁zenc	-2741
▁çeng	-2742
▁ödev	-2743
▁ötek	-2744
▁şuna	-2745
cağını	-2746
eceğiz	-2747
ilerim	-2748
indeki	-2749
isinin	-2750
kardeş	-2751
mesine	-2752
sonlar	-2753
▁annec	-2754
▁açmış	-2755
▁basın	-2756
▁bazen	-2757
▁biçim	-2758
▁canım	-2759
▁durur	-2760
▁düşür	-2761
▁eksik	-2762
▁evden	-2763
▁garip	-2764
▁gelin	-2765
▁hafif	-2766
▁hancı	-2767
▁harit	-2768
▁hatta	-2769
▁haçan	-2770
▁helva	-2771
▁ileri	-2772
▁inmiş	-2773
▁kaldı	-2774
▁kanat	-2775
▁keser	-2776
▁kocas	-2777
▁kopar	-2778
▁metre	-2779
▁miyav	-2780
▁neler	-2781
▁oraya	-2782
▁pilav	-2783
▁rabbi	-2784
▁saate	-2785
▁sakın	-2786
▁satar	-2787
▁savaş	-2788
▁sayın	-2789
▁sonuç	-2790
▁tilki	-2791
▁turşu	-2792
▁unutk	-2793
▁uğraş	-2794
▁vapur	-2795
▁yarım	-2796
▁yatak	-2797
▁yazıp	-2798
▁yetiş	-2799
▁yirmi	-2800
▁zaval	-2801
▁çalın	-2802
▁çıkıp	-2803
▁üstüm	-2804
acağını	-2805
edikten	-2806
giltere	-2807
ilerden	-2808
stanbul	-2809
▁balığa	-2810
▁beklem	-2811
▁bildir	-2812
▁bilmem	-2813
▁bilmez	-2814
▁bindir	-2815
▁boşalt	-2816
▁bundan	-2817
▁duvara	-2818
▁düşünc	-2819
▁edecez	-2820
▁edilir	-2821
▁galiba	-2822
▁geldik	-2823
▁gitmek	-2824
▁giymiş	-2825
▁haberi	-2826
▁hediye	-2827
▁i̇nsan	-2828
▁kaybol	-2829
▁koltuk	-2830
▁kurdun	-2831
▁kuyuya	-2832
▁masada	-2833
▁mayası	-2834
▁mektup	-2835
▁meleğe	-2836
▁meyhan	-2837
▁mümkün	-2838
▁olursa	-2839
▁otobüs	-2840
▁oturan	-2841
▁oğluna	-2842
▁pahalı	-2843
▁sebebi	-2844
▁subaşı	-2845
▁tavşan	-2846
▁tembel	-2847
▁tencer	-2848
▁tutmuş	-2849
▁verdum	-2850
▁yazmam	-2851
▁yemeğe	-2852
▁yoldan	-2853
▁zanned	-2854
▁çiftçi	-2855
▁çiviyi	-2856
lamışlar	-2857
▁adamdan	-2858
▁anlamak	-2859
▁ayağına	-2860
▁ağaçtan	-2861
▁bilirim	-2862
▁borcunu	-2863
▁bulunan	-2864
▁bırakır	-2865
▁duyulur	-2866
▁dönüyor	-2867
▁ingiliz	-2868
▁kahveye	-2869
▁kalksın	-2870
▁kendime	-2871
▁kocaman	-2872
▁konuşma	-2873
▁koyulur	-2874
▁kıyamet	-2875
▁motorla	-2876
▁odasına	-2877
▁okuldan	-2878
▁oldukça	-2879
▁sinirli	-2880
▁sözleri	-2881
▁sürekli	-2882
▁çalışan	-2883
▁çuvalın	-2884
▁öyleyse	-2885
▁üstünde	-2886
▁şaşırır	-2887
iyorlardı	-2888
▁ameliyat	-2889
▁annesine	-2890
▁arkasına	-2891
▁arızalan	-2892
▁bağırmış	-2893
▁başhekim	-2894
▁bilmiyor	-2895
▁değildir	-2896
▁ediyorum	-2897
▁hayırdır	-2898
▁karısına	-2899
▁kenarına	-2900
▁kulağını	-2901
▁merdiven	-2902
▁parçalar	-2903
▁sahibine	-2904
▁sakalını	-2905
▁seslenir	-2906
▁sevinçle	-2907
▁tanıdığı	-2908
▁teşekkür	-2909
▁verdiğim	-2910
▁verirken	-2911
▁yaparlar	-2912
▁çorbanız	-2913
▁çıkarken	-2914
arkadaşlar	-2915
iyorlarmış	-2916
▁alışveriş	-2917
▁anlatmaya	-2918
▁anlayınca	-2919
▁baktıktan	-2920
▁delilerin	-2921
▁dürüstlük	-2922
▁düşünerek	-2923
▁gitmişler	-2924
▁gözlerini	-2925
▁hanımının	-2926
▁heyecanlı	-2927
▁sahibinin	-2928
▁vaziyette	-2929
▁çıkmışlar	-2930
▁şikâyetçi	-2931
▁etmektedir	-2932
▁içerisinde	-2933
▁yapıştırır	-2934
▁başlamışlar	-2935
▁söylüyorsun	-2936
50	-2937
ic	-2938
kk	-2939
ğı	-2940
▁j	-2941
aba	-2942
abz	-2943
amb	-2944
ang	-2945
aşi	-2946
bab	-2947
ban	-2948
cih	-2949
dey	-2950
değ	-2951
ehr	-2952
fır	-2953
ica	-2954
iri	-2955
ist	-2956
ite	-2957
i̇r	-2958
kel	-2959
ley	-2960
lüğ	-2961
min	-2962
muz	-2963
mıs	-2964
oğu	-2965
pek	-2966
tas	-2967
urt	-2968
yüz	-2969
çok	-2970
üph	-2971
üsü	-2972
üğü	-2973
▁13	-2974
▁ho	-2975
▁if	-2976
▁of	-2977
▁sp	-2978
▁st	-2979
▁tl	-2980
ayak	-2981
bire	-2982
bunu	-2983
düğü	-2984
edes	-2985
eeee	-2986
eket	-2987
enen	-2988
eri̇	-2989
eğer	-2990
gini	-2991
ilik	-2992
iliğ	-2993
işey	-2994
laka	-2995
mesi	-2996
tara	-2997
tarı	-2998
ucum	-2999
udan	-3000
udur	-3001
ukat	-3002
urur	-3003
uvar	-3004
ünüz	-3005
ğraf	-3006
ıydı	-3007
▁200	-3008
▁afa	-3009
▁ahb	-3010
▁bis	-3011
▁bük	-3012
▁cam	-3013
▁diz	-3014
▁don	-3015
▁eti	-3016
▁etk	-3017
▁eşi	-3018
▁fin	-3019
▁hin	-3020
▁idi	-3021
▁ipi	-3022
▁izl	-3023
▁ker	-3024
▁kus	-3025
▁kıl	-3026
▁kıp	-3027
▁mor	-3028
▁pis	-3029
▁rüz	-3030
▁sap	-3031
▁sek	-3032
▁sim	-3033
▁siv	-3034
▁siy	-3035
▁soy	-3036
▁sus	-3037
▁sön	-3038
▁toz	-3039
▁tör	-3040
▁tıp	-3041
▁uyy	-3042
▁yam	-3043
▁zar	-3044
▁zek	-3045
▁çür	-3046
▁şap	-3047
▁şun	-3048
▁şur	-3049
ahmet	-3050
angoz	-3051
ansör	-3052
asyon	-3053
benim	-3054
ceğiz	-3055
cının	-3056
cığım	-3057
dunuz	-3058
dınız	-3059
eceği	-3060
elere	-3061
endir	-3062
iyler	-3063
lamak	-3064
landı	-3065
lenir	-3066
lıkla	-3067
mamak	-3068
mesin	-3069
oğlum	-3070
senin	-3071
sonra	-3072
tihan	-3073
ürken	-3074
ımızı	-3075
▁ahir	-3076
▁ahır	-3077
▁aram	-3078
▁arap	-3079
▁atın	-3080
▁avuc	-3081
▁açıl	-3082
▁ağac	-3083
▁bekt	-3084
▁benz	-3085
▁düşü	-3086
▁ekşi	-3087
▁emri	-3088
▁erim	-3089
▁eyüp	-3090
▁ezan	-3091
▁gene	-3092
▁isim	-3093
▁karı	-3094
▁kepç	-3095
▁keçi	-3096
▁kuyu	-3097
▁köpr	-3098
▁neye	-3099
▁okun	-3100
▁oldi	-3101
▁oğul	-3102
▁plan	-3103
▁renk	-3104
▁sağa	-3105
▁sonr	-3106
▁söze	-3107
▁taha	-3108
▁topr	-3109
▁uyum	-3110
▁uyur	-3111
▁uşağ	-3112
▁yaşl	-3113
▁çekt	-3114
▁çivi	-3115
▁öğüt	-3116
▁ünlü	-3117
▁şüph	-3118
apları	-3119
ceksin	-3120
cektir	-3121
fettiş	-3122
iyatro	-3123
lenmiş	-3124
lerken	-3125
leştir	-3126
mesini	-3127
mıştır	-3128
pekiyi	-3129
suzluk	-3130
uyorum	-3131
▁albay	-3132
▁anons	-3133
▁armut	-3134
▁bacak	-3135
▁bakın	-3136
▁bilen	-3137
▁bişey	-3138
▁bozuk	-3139
▁buldu	-3140
▁bunda	-3141
▁değer	-3142
▁doğur	-3143
▁duran	-3144
▁dönüş	-3145
▁fikir	-3146
▁filmi	-3147
▁gardr	-3148
▁gediğ	-3149
▁gördü	-3150
▁görüş	-3151
▁gülüş	-3152
▁hayal	-3153
▁hâlde	-3154
▁hızla	-3155
▁idrar	-3156
▁ikisi	-3157
▁ikiye	-3158
▁ilgil	-3159
▁incel	-3160
▁içine	-3161
▁kalan	-3162
▁kesin	-3163
▁keşke	-3164
▁konya	-3165
▁koyul	-3166
▁koşup	-3167
▁kuşun	-3168
▁köyde	-3169
▁memur	-3170
▁mesaj	-3171
▁mısın	-3172
▁numar	-3173
▁olmas	-3174
▁pamuk	-3175
▁papag	-3176
▁papaz	-3177
▁penum	-3178
▁reçet	-3179
▁serin	-3180
▁sokak	-3181
▁sözüm	-3182
▁sıfır	-3183
▁sıkın	-3184
▁tabak	-3185
▁tabur	-3186
▁takıl	-3187
▁tekme	-3188
▁tokat	-3189
▁topar	-3190
▁trabz	-3191
▁tutul	-3192
▁valla	-3193
▁vefat	-3194
▁yakın	-3195
▁yerim	-3196
▁yuvar	-3197
▁yılan	-3198
▁zenci	-3199
▁ziyaf	-3200
▁ziyar	-3201
▁çeker	-3202
▁çıkan	-3203
▁çıktı	-3204
▁şıkır	-3205
larının	-3206
layacak	-3207
uyorsun	-3208
▁afacan	-3209
▁akçeye	-3210
▁akıllı	-3211
▁akşama	-3212
▁alarak	-3213
▁alırım	-3214
▁arkaya	-3215
▁asılır	-3216
▁avukat	-3217
▁açarak	-3218
▁baktım	-3219
▁bağdat	-3220
▁bindin	-3221
▁bunlar	-3222
▁camide	-3223
▁dalgın	-3224
▁damdan	-3225
▁defter	-3226
▁dinlem	-3227
▁dolayı	-3228
▁durmuş	-3229
▁dükkân	-3230
▁gelmez	-3231
▁gittiğ	-3232
▁gördüm	-3233
▁görevl	-3234
▁havuza	-3235
▁hocası	-3236
▁ikinci	-3237
▁iyileş	-3238
▁işaret	-3239
▁kalkıp	-3240
▁kapağı	-3241
▁kaptan	-3242
▁kendin	-3243
▁kesmiş	-3244
▁komşum	-3245
▁korkut	-3246
▁kurban	-3247
▁memlek	-3248
▁müşter	-3249
▁nerden	-3250
▁okulda	-3251
▁olmadı	-3252
▁olmalı	-3253
▁olmaya	-3254
▁onlara	-3255
▁ortaya	-3256
▁oturur	-3257
▁sarhoş	-3258
▁sokağa	-3259
▁sordun	-3260
▁sınava	-3261
▁temizl	-3262
▁tercih	-3263
▁tutmaz	-3264
▁unutur	-3265
▁uykuya	-3266
▁yanmış	-3267
▁yargıç	-3268
▁yazmış	-3269
▁yöntem	-3270
▁zeytin	-3271
▁önceki	-3272
▁şeyler	-3273
abiliriz	-3274
amıyorum	-3275
hayırdır	-3276
mıyorsun	-3277
▁alırken	-3278
▁arabası	-3279
▁asansör	-3280
▁bakarak	-3281
▁baklava	-3282
▁baltayı	-3283
▁bağırıp	-3284
▁başında	-3285
▁bektaşi	-3286
▁benimle	-3287
▁binerek	-3288
▁cemaate	-3289
▁cennete	-3290
▁cesaret	-3291
▁denizin	-3292
▁değişir	-3293
▁dönünce	-3294
▁düşündü	-3295
▁ederken	-3296
▁elinden	-3297
▁gelirse	-3298
▁gidelim	-3299
▁gidince	-3300
▁gittiği	-3301
▁gözleri	-3302
▁haberim	-3303
▁hepiniz	-3304
▁hepsini	-3305
▁ihtiyac	-3306
▁istedim	-3307
▁istediğ	-3308
▁içeriye	-3309
▁kaşıkla	-3310
▁kendisi	-3311
▁koşmaya	-3312
▁olmayan	-3313
▁patates	-3314
▁sesleri	-3315
▁seyahat	-3316
▁sohbeti	-3317
▁sokakta	-3318
▁sorunum	-3319
▁tahtaya	-3320
▁tanıdık	-3321
▁tiyatro	-3322
▁vallahi	-3323
▁vererek	-3324
▁vermeye	-3325
▁yabancı	-3326
▁yakalan	-3327
▁yapayım	-3328
▁yapıyor	-3329
▁yiyecek	-3330
▁zavallı	-3331
▁çocuğum	-3332
▁çıkarır	-3333
▁şaşıran	-3334
▁şikayet	-3335
▁ayakları	-3336
▁bilirsin	-3337
▁bilmeyen	-3338
▁cevaplar	-3339
▁diğerine	-3340
▁dışarıya	-3341
▁eşeğimin	-3342
▁fotoğraf	-3343
▁gediğine	-3344
▁geçmeden	-3345
▁geçmekte	-3346
▁görenler	-3347
▁hayvanat	-3348
▁istersin	-3349
▁kayseril	-3350
▁marangoz	-3351
▁müfettiş	-3352
▁papağanı	-3353
▁pastırma	-3354
▁söyleyin	-3355
▁sıkıştır	-3356
▁verirler	-3357
▁verirsen	-3358
▁yaparsın	-3359
▁yürümeye	-3360
▁zamandır	-3361
▁çıkarlar	-3362
▁öldürmüş	-3363
▁öğrenmiş	-3364
▁anneciğim	-3365
▁arkadaşım	-3366
▁arkasında	-3367
▁babacığım	-3368
▁birincisi	-3369
▁dolaşmaya	-3370
▁gerçekten	-3371
▁hastasına	-3372
▁kaybetmiş	-3373
▁komutanım	-3374
▁vereceğim	-3375
▁çocukları	-3376
▁bekliyorum	-3377
▁birdenbire	-3378
▁diyecektim	-3379
▁düşünmeden	-3380
▁gidiyorsun	-3381
▁göstererek	-3382
▁gülüyorsun	-3383
▁istediğini	-3384
▁misafirler	-3385
▁parmağınız	-3386
▁pencereden	-3387
▁unutkanlık	-3388
▁çocukların	-3389
▁arkadaşının	-3390
▁başlamıştır	-3391
▁dayanamamış	-3392
▁karşılaşmış	-3393
▁dediklerinde	-3394
▁istiyorsunuz	-3395
▁karşılaştığı	-3396
▁karşısındaki	-3397
hş	-3398
ib	-3399
mu	-3400
oç	-3401
yo	-3402
akl	-3403
ani	-3404
ata	-3405
aşa	-3406
bar	-3407
bey	-3408
boş	-3409
cik	-3410
cık	-3411
del	-3412
düt	-3413
eis	-3414
evs	-3415
fen	-3416
gel	-3417
las	-3418
naz	-3419
net	-3420
ort	-3421
pat	-3422
rik	-3423
sat	-3424
sel	-3425
ska	-3426
sor	-3427
tam	-3428
ton	-3429
tuk	-3430
var	-3431
vet	-3432
ızr	-3433
ışı	-3434
şek	-3435
şum	-3436
▁fi	-3437
▁he	-3438
▁le	-3439
▁ma	-3440
▁sö	-3441
▁ül	-3442
abın	-3443
adam	-3444
arda	-3445
arkı	-3446
cağı	-3447
ceği	-3448
cıya	-3449
dana	-3450
deli	-3451
deye	-3452
diye	-3453
ebaş	-3454
erif	-3455
esip	-3456
etle	-3457
eyla	-3458
hemş	-3459
inca	-3460
iver	-3461
iyum	-3462
lari	-3463
liği	-3464
lığa	-3465
mana	-3466
memi	-3467
meyi	-3468
mızı	-3469
olur	-3470
ptal	-3471
rafa	-3472
rail	-3473
resi	-3474
reyi	-3475
rola	-3476
sine	-3477
skoç	-3478
udum	-3479
ukur	-3480
zacı	-3481
örek	-3482
ülür	-3483
üstü	-3484
ütük	-3485
üyle	-3486
ıyan	-3487
▁aff	-3488
▁ana	-3489
▁art	-3490
▁arz	-3491
▁bol	-3492
▁cad	-3493
▁caf	-3494
▁cim	-3495
▁dum	-3496
▁eee	-3497
▁ein	-3498
▁evl	-3499
▁fas	-3500
▁fay	-3501
▁giş	-3502
▁güc	-3503
▁ham	-3504
▁hop	-3505
▁hıy	-3506
▁ine	-3507
▁ipe	-3508
▁jür	-3509
▁kut	-3510
▁kış	-3511
▁lüt	-3512
▁mal	-3513
▁muy	-3514
▁nal	-3515
▁nur	-3516
▁ola	-3517
▁pak	-3518
▁per	-3519
▁piz	-3520
▁rad	-3521
▁sis	-3522
▁süt	-3523
▁sığ	-3524
▁taz	-3525
▁tef	-3526
▁yeş	-3527
▁yör	-3528
▁çim	-3529
▁çor	-3530
▁ögr	-3531
▁ölü	-3532
aktan	-3533
alığı	-3534
anbul	-3535
arsak	-3536
aştır	-3537
cedes	-3538
dasın	-3539
derel	-3540
ebini	-3541
ecekt	-3542
enize	-3543
esene	-3544
etmez	-3545
evsim	-3546
eğini	-3547
gahta	-3548
halde	-3549
hemen	-3550
irdeğ	-3551
irmen	-3552
ivers	-3553
izliğ	-3554
i̇li̇	-3555
i̇şte	-3556
lamız	-3557
larsa	-3558
likle	-3559
lında	-3560
meyen	-3561
ormal	-3562
rafik	-3563
stein	-3564
tanın	-3565
timal	-3566
tmi̇ş	-3567
tınız	-3568
ulduğ	-3569
usunu	-3570
uştur	-3571
yorum	-3572
çiyim	-3573
ılmaz	-3574
ımdan	-3575
▁1000	-3576
▁amir	-3577
▁avuç	-3578
▁ayın	-3579
▁ayır	-3580
▁bekç	-3581
▁boya	-3582
▁bran	-3583
▁burc	-3584
▁böyl	-3585
▁cuma	-3586
▁dehş	-3587
▁emin	-3588
▁erik	-3589
▁eşya	-3590
▁gönl	-3591
▁güle	-3592
▁hapı	-3593
▁harc	-3594
▁harf	-3595
▁hele	-3596
▁imam	-3597
▁işin	-3598
▁i̇st	-3599
▁kalb	-3600
▁kana	-3601
▁kata	-3602
▁kova	-3603
▁koşa	-3604
▁kurş	-3605
▁kâğı	-3606
▁mızr	-3607
▁olun	-3608
▁orad	-3609
▁poyn	-3610
▁rece	-3611
▁reis	-3612
▁rica	-3613
▁sanc	-3614
▁stad	-3615
▁sust	-3616
▁tarz	-3617
▁tatl	-3618
▁tura	-3619
▁usul	-3620
▁uyar	-3621
▁uğur	-3622
▁vakt	-3623
▁vura	-3624
▁yana	-3625
▁yetk	-3626
▁yürü	-3627
▁âdet	-3628
▁çalı	-3629
▁çant	-3630
▁çoğu	-3631
▁öder	-3632
▁önde	-3633
▁önün	-3634
▁özür	-3635
▁öğle	-3636
▁üstü	-3637
alarda	-3638
diğini	-3639
duktan	-3640
edeyse	-3641
elerde	-3642
emedim	-3643
encere	-3644
haneye	-3645
ilerin	-3646
isiyle	-3647
keleti	-3648
komşum	-3649
ladığı	-3650
laması	-3651
larlar	-3652
lasına	-3653
laştır	-3654
liğine	-3655
lıktan	-3656
lığını	-3657
tasiye	-3658
ulacak	-3659
çasına	-3660
ıverir	-3661
ışında	-3662
▁aldır	-3663
▁anlad	-3664
▁aptal	-3665
▁atlam	-3666
▁atlar	-3667
▁baban	-3668
▁bacağ	-3669
▁baktı	-3670
▁bakış	-3671
▁barış	-3672
▁basar	-3673
▁bebek	-3674
▁binen	-3675
▁bizde	-3676
▁bizum	-3677
▁bi̇tt	-3678
▁borcu	-3679
▁boğaz	-3680
▁bulup	-3681
▁cenaz	-3682
▁ciğer	-3683
▁dağın	-3684
▁dedim	-3685
▁dedin	-3686
▁dediğ	-3687
▁dilek	-3688
▁duruş	-3689
▁dönem	-3690
▁dövüş	-3691
▁düşen	-3692
▁eczan	-3693
▁eller	-3694
▁ettiğ	-3695
▁giren	-3696
▁giyer	-3697
▁güven	-3698
▁haklı	-3699
▁herif	-3700
▁horoz	-3701
▁hoşaf	-3702
▁huzur	-3703
▁ishal	-3704
▁içmiş	-3705
▁i̇mad	-3706
▁katta	-3707
▁kavuk	-3708
▁kaçan	-3709
▁kaçır	-3710
▁kesip	-3711
▁kitap	-3712
▁komad	-3713
▁koyar	-3714
▁kulağ	-3715
▁köprü	-3716
▁kütük	-3717
▁kıpır	-3718
▁kızıl	-3719
▁lazım	-3720
▁leyla	-3721
▁lokan	-3722
▁meğer	-3723
▁murat	-3724
▁mıdır	-3725
▁nasul	-3726
▁neydi	-3727
▁odaci	-3728
▁okuma	-3729
▁olana	-3730
▁oralı	-3731
▁orası	-3732
▁orhan	-3733
▁pasta	-3734
▁prize	-3735
▁sahip	-3736
▁sahte	-3737
▁sekiz	-3738
▁silah	-3739
▁sivri	-3740
▁soran	-3741
▁sıkıl	-3742
▁takip	-3743
▁tanim	-3744
▁tavan	-3745
▁tavuk	-3746
▁taşın	-3747
▁teyze	-3748
▁torun	-3749
▁tuzlu	-3750
▁türkü	-3751
▁uygun	-3752
▁uğrar	-3753
▁vakti	-3754
▁varmı	-3755
▁varır	-3756
▁yarar	-3757
▁yasak	-3758
▁yokuş	-3759
▁zehir	-3760
▁çadır	-3761
▁çukur	-3762
▁çörek	-3763
▁çözüm	-3764
▁önden	-3765
▁üzümü	-3766
adığını	-3767
alardan	-3768
amazsın	-3769
amışlar	-3770
amıştır	-3771
diğinde	-3772
dukları	-3773
eceksin	-3774
ecektir	-3775
larınız	-3776
lasının	-3777
masıyla	-3778
mayayım	-3779
tıkları	-3780
ulduğum	-3781
üyorlar	-3782
ılmıştı	-3783
▁altını	-3784
▁arkada	-3785
▁ayaklı	-3786
▁azrail	-3787
▁açılır	-3788
▁açınca	-3789
▁ağacın	-3790
▁ağzına	-3791
▁baklav	-3792
▁bardak	-3793
▁baston	-3794
▁batıya	-3795
▁bayrak	-3796
▁başlam	-3797
▁belirt	-3798
▁boşuna	-3799
▁buldum	-3800
▁burnun	-3801
▁buğday	-3802
▁cebime	-3803
▁cennet	-3804
▁davacı	-3805
▁davalı	-3806
▁deliyi	-3807
▁derhal	-3808
▁derste	-3809
▁dolabı	-3810
▁doğuya	-3811
▁duymuş	-3812
▁düzelt	-3813
▁düştüğ	-3814
▁eczacı	-3815
▁ederek	-3816
▁ederim	-3817
▁edince	-3818
▁ekmeği	-3819
▁elbise	-3820
▁etrafa	-3821
▁evinde	-3822
▁fincan	-3823
▁fırsat	-3824
▁fırtın	-3825
▁gerçek	-3826
▁gitsin	-3827
▁gömleğ	-3828
▁görmek	-3829
▁gürült	-3830
▁halkın	-3831
▁hayret	-3832
▁hoşuna	-3833
▁hâlini	-3834
▁itiraz	-3835
▁i̇skoç	-3836
▁kalmaz	-3837
▁kamyon	-3838
▁kapıda	-3839
▁kaşığı	-3840
▁kediyi	-3841
▁kocası	-3842
▁koşsam	-3843
▁kurnaz	-3844
▁kusura	-3845
▁kuyruk	-3846
▁köyüne	-3847
▁kırmış	-3848
▁lütfen	-3849
▁mahkem	-3850
▁memuru	-3851
▁meslek	-3852
▁mevsim	-3853
▁milyon	-3854
▁nereli	-3855
▁olmasa	-3856
▁olması	-3857
▁paraya	-3858
▁patron	-3859
▁pirinç	-3860
▁ressam	-3861
▁reçete	-3862
▁saatte	-3863
▁saklan	-3864
▁sallar	-3865
▁saniye	-3866
▁sağına	-3867
▁seyred	-3868
▁sigara	-3869
▁soluna	-3870
▁sormus	-3871
▁soruya	-3872
▁suçsuz	-3873
▁söyley	-3874
▁sözünü	-3875
▁sınavı	-3876
▁sınıfa	-3877
▁tahmin	-3878
▁takdir	-3879
▁tambur	-3880
▁tamirc	-3881
▁tanesi	-3882
▁tarafa	-3883
▁tavuğu	-3884
▁tezgah	-3885
▁tokadı	-3886
▁trafik	-3887
▁tuttun	-3888
▁tırman	-3889
▁uzatır	-3890
▁versin	-3891
▁vurdum	-3892
▁yapmak	-3893
▁yapmiş	-3894
▁yerini	-3895
▁yoktum	-3896
▁yorgun	-3897
▁yüzüne	-3898
▁yüzünü	-3899
▁çaldır	-3900
▁çekmiş	-3901
▁çektir	-3902
▁çoktan	-3903
▁çıkart	-3904
▁çıkmaz	-3905
▁ölünce	-3906
▁üstünü	-3907
▁şükred	-3908
abilirim	-3909
asındaki	-3910
ebaşları	-3911
▁adamsın	-3912
▁altıncı	-3913
▁anlamış	-3914
▁aşağıda	-3915
▁bakınca	-3916
▁başucum	-3917
▁bilelim	-3918
▁birinci	-3919
▁bizimki	-3920
▁bozuldu	-3921
▁bulamaz	-3922
▁bulunur	-3923
▁buyurun	-3924
▁bırakıp	-3925
▁demişti	-3926
▁dokuzda	-3927
▁doğurdu	-3928
▁dükkana	-3929
▁efendum	-3930
▁etmeden	-3931
▁etmeyin	-3932
▁gazetec	-3933
▁gelerek	-3934
▁geçirir	-3935
▁giriyor	-3936
▁görülen	-3937
▁görünür	-3938
▁görüyor	-3939
▁güneşin	-3940
▁güzelce	-3941
▁hanımın	-3942
▁hemşire	-3943
▁heybeyi	-3944
▁ihtimal	-3945
▁ihtiyar	-3946
▁imtihan	-3947
▁insanın	-3948
▁istemez	-3949
▁içeride	-3950
▁i̇kinci	-3951
▁kadılık	-3952
▁kadının	-3953
▁kalacak	-3954
▁kalkmış	-3955
▁kapıdan	-3956
▁kayseri	-3957
▁kendimi	-3958
▁kişiyiz	-3959
▁konuşan	-3960
▁koşarak	-3961
▁köylüye	-3962
▁küçücük	-3963
▁olmasın	-3964
▁olsaydı	-3965
▁onlarda	-3966
▁onların	-3967
▁seninle	-3968
▁sesiyle	-3969
▁sorular	-3970
▁sıkılan	-3971
▁taburcu	-3972
▁takıldı	-3973
▁tamirci	-3974
▁tavşanı	-3975
▁temelle	-3976
▁tersine	-3977
▁trabzon	-3978
▁veremem	-3979
▁yakalar	-3980
▁yaptığı	-3981
▁yazıver	-3982
▁yazıyor	-3983
▁yerinde	-3984
▁çağırıp	-3985
▁çevirir	-3986
▁çorbayı	-3987
▁çıkınca	-3988
▁çıkışır	-3989
▁öfkeyle	-3990
▁ünivers	-3991
▁şunları	-3992
▁akçeleri	-3993
▁alacağım	-3994
▁altından	-3995
▁amerikan	-3996
▁anlatmış	-3997
▁annesini	-3998
▁bakarken	-3999
▁başarılı	-4000
▁belediye	-4001
▁dağıstan	-4002
▁delikten	-4003
▁delileri	-4004
▁dinleyen	-4005
▁einstein	-4006
▁gişedeki	-4007
▁gi̇tmi̇ş	-4008
▁hakkında	-4009
▁hastalan	-4010
▁hırsızın	-4011
▁ikincisi	-4012
▁insanlar	-4013
▁iskeleti	-4014
▁istanbul	-4015
▁izlemeye	-4016
▁kaldırır	-4017
▁kalırlar	-4018
▁kapısını	-4019
▁karanlık	-4020
▁kendiler	-4021
▁kimsenin	-4022
▁komşunun	-4023
▁korkudan	-4024
▁mercedes	-4025
▁nerenize	-4026
▁niyetini	-4027
▁pazardan	-4028
▁sebepten	-4029
▁seslendi	-4030
▁sıkılmış	-4031
▁tarafına	-4032
▁tuhafiye	-4033
▁vermeden	-4034
▁vermemiş	-4035
▁yanıtlar	-4036
▁yardımcı	-4037
▁yaylamız	-4038
▁yürürken	-4039
▁zamanlar	-4040
▁ziyarete	-4041
▁çekirdeğ	-4042
▁çıkarmış	-4043
▁annesinin	-4044
▁arkadaşın	-4045
▁babasının	-4046
▁bacaklara	-4047
▁bakmışlar	-4048
▁biliyorum	-4049
▁bulmuşlar	-4050
▁bulunduğu	-4051
▁cehenneme	-4052
▁defasında	-4053
▁dilenciye	-4054
▁düşüverir	-4055
▁farketmez	-4056
▁geldiğini	-4057
▁gideceğiz	-4058
▁gittikten	-4059
▁görmüşler	-4060
▁gümrükten	-4061
▁içerisine	-4062
▁i̇nsanlar	-4063
▁i̇stanbul	-4064
▁kapısında	-4065
▁komşusunu	-4066
▁koymuşlar	-4067
▁kuyruğunu	-4068
▁kırtasiye	-4069
▁kıymetini	-4070
▁neredeyse	-4071
▁neresinde	-4072
▁soruların	-4073
▁süzdükten	-4074
▁tiyatroya	-4075
▁toplanmış	-4076
▁vermişler	-4077
▁yapılacak	-4078
▁çalmışlar	-4079
▁çıkararak	-4080
▁çıktıktan	-4081
▁şaşırarak	-4082
▁bahçesinde	-4083
▁dokunsanız	-4084
▁düşünceler	-4085
▁içlerinden	-4086
▁i̇ngiltere	-4087
▁mahallenin	-4088
▁meydanında	-4089
▁sinirlenir	-4090
▁talimgahta	-4091
▁tanımadığı	-4092
▁yakaladığı	-4093
▁yapıyorlar	-4094
▁komşularına	-4095
▁komşularını	-4096
▁sıkıştırmak	-4097
▁çocuklardan	-4098
▁öğrencilere	-4099
▁birbirlerine	-4100
▁yolcularımız	-4101
▁olmamışçasına	-4102
▁sıvazladıktan	-4103
,”	-4104
2.	-4105
gö	-4106
gü	-4107
mm	-4108
oj	-4109
os	-4110
sl	-4111
uh	-4112
uu	-4113
ât	-4114
çı	-4115
üv	-4116
ği	-4117
̇m	-4118
▁ı	-4119
art	-4120
beş	-4121
bol	-4122
dad	-4123
dal	-4124
diy	-4125
dra	-4126
duy	-4127
düz	-4128
eff	-4129
emi	-4130
ess	-4131
est	-4132
fle	-4133
gin	-4134
güz	-4135
her	-4136
hop	-4137
ima	-4138
int	-4139
iği	-4140
jan	-4141
kap	-4142
kır	-4143
lif	-4144
liy	-4145
luy	-4146
lım	-4147
mer	-4148
nün	-4149
oks	-4150
oku	-4151
opp	-4152
puz	-4153
run	-4154
sal	-4155
si̇	-4156
sup	-4157
sür	-4158
tay	-4159
tüm	-4160
tün	-4161
unt	-4162
uro	-4163
uşu	-4164
vur	-4165
vün	-4166
yan	-4167
yer	-4168
çuk	-4169
önü	-4170
ücc	-4171
üyü	-4172
ıyo	-4173
▁25	-4174
▁bı	-4175
▁ez	-4176
▁me	-4177
▁og	-4178
▁ul	-4179
▁um	-4180
▁vs	-4181
▁ye	-4182
▁ör	-4183
▁üc	-4184
aaaa	-4185
adar	-4186
ader	-4187
agir	-4188
aklı	-4189
ales	-4190
alum	-4191
anca	-4192
anda	-4193
arsa	-4194
asağ	-4195
atık	-4196
aydı	-4197
dini	-4198
edil	-4199
▁di	-4200
dişe	-4201
eeey	-4202
ehre	-4203
elli	-4204
emli	-4205
esem	-4206
evet	-4207
eyfi	-4208
gamb	-4209
graf	-4210
hakl	-4211
hınk	-4212
ilip	-4213
imon	-4214
iser	-4215
iyom	-4216
izde	-4217
izin	-4218
i̇ye	-4219
kara	-4220
kaya	-4221
kiyi	-4222
kına	-4223
ladi	-4224
medi	-4225
oğlu	-4226
oğuk	-4227
part	-4228
reti	-4229
sinm	-4230
si̇n	-4231
tada	-4232
çayı	-4233
çiye	-4234
ürüz	-4235
üste	-4236
ıcır	-4237
ımla	-4238
ısıt	-4239
▁10'	-4240
▁131	-4241
▁150	-4242
▁adı	-4243
▁ail	-4244
▁bom	-4245
▁buz	-4246
▁bür	-4247
▁cel	-4248
▁cep	-4249
▁cid	-4250
▁cik	-4251
▁cir	-4252
▁dek	-4253
▁doy	-4254
▁düt	-4255
▁dıs	-4256
▁ekl	-4257
▁emr	-4258
▁ens	-4259
▁eyi	-4260
▁eşş	-4261
▁fer	-4262
▁fir	-4263
▁hah	-4264
▁hid	-4265
▁his	-4266
▁hur	-4267
▁iri	-4268
▁ism	-4269
▁i̇f	-4270
▁i̇m	-4271
▁i̇s	-4272
▁kil	-4273
▁kül	-4274
▁lis	-4275
▁lon	-4276
▁mim	-4277
▁müj	-4278
▁mül	-4279
▁mıy	-4280
▁mış	-4281
▁nin	-4282
▁paç	-4283
▁paş	-4284
▁pes	-4285
▁pet	-4286
▁poş	-4287
▁raf	-4288
▁rüş	-4289
▁saf	-4290
▁sec	-4291
▁sez	-4292
▁sik	-4293
▁soğ	-4294
▁spi	-4295
▁sub	-4296
▁tad	-4297
▁tay	-4298
▁teb	-4299
▁küv	-4300
▁ten	-4301
▁teğ	-4302
▁tik	-4303
▁tom	-4304
▁too	-4305
▁tün	-4306
▁tüy	-4307
▁vad	-4308
▁vit	-4309
▁yaa	-4310
▁yum	-4311
▁yün	-4312
▁yır	-4313
▁zil	-4314
▁çağ	-4315
▁çob	-4316
▁çuv	-4317
▁öle	-4318
▁şer	-4319
▁şok	-4320
alara	-4321
arsam	-4322
ayıda	-4323
bilet	-4324
bilir	-4325
ceğum	-4326
cuğum	-4327
dedir	-4328
duğun	-4329
eddüt	-4330
endim	-4331
enler	-4332
esten	-4333
güzar	-4334
iklet	-4335
iyete	-4336
iğini	-4337
i̇nan	-4338
kiler	-4339
ladığ	-4340
lanan	-4341
lanıp	-4342
layım	-4343
layın	-4344
laşıp	-4345
leyen	-4346
leyin	-4347
luluk	-4348
luyum	-4349
lıkta	-4350
lıyor	-4351
lığın	-4352
madık	-4353
makla	-4354
mayan	-4355
mekte	-4356
memiş	-4357
miyor	-4358
siyah	-4359
sizin	-4360
skoca	-4361
tamam	-4362
tiler	-4363
tiniz	-4364
umaya	-4365
unuzu	-4366
urası	-4367
çavuş	-4368
ımıza	-4369
▁acen	-4370
▁acık	-4371
▁adal	-4372
▁ajan	-4373
▁aklı	-4374
▁alay	-4375
▁alın	-4376
▁amca	-4377
▁amma	-4378
▁anah	-4379
▁anır	-4380
▁ardı	-4381
▁atan	-4382
▁ayni	-4383
▁azar	-4384
▁aşçı	-4385
▁bağa	-4386
▁başk	-4387
▁bine	-4388
▁boks	-4389
▁boyu	-4390
▁bölg	-4391
▁cedi	-4392
▁dağa	-4393
▁dert	-4394
▁deye	-4395
▁dişi	-4396
▁edip	-4397
▁eeee	-4398
▁efen	-4399
▁etli	-4400
▁etme	-4401
▁euro	-4402
▁eğit	-4403
▁fani	-4404
▁fayd	-4405
▁gidi	-4406
▁hale	-4407
▁haşa	-4408
▁hede	-4409
▁hınk	-4410
▁iddi	-4411
▁inat	-4412
▁iner	-4413
▁inip	-4414
▁içki	-4415
▁jüri	-4416
▁kahk	-4417
▁kalp	-4418
▁kamp	-4419
▁kavg	-4420
▁keyi	-4421
▁kirk	-4422
▁kürk	-4423
▁kısm	-4424
▁merk	-4425
▁mide	-4426
▁mily	-4427
▁mini	-4428
▁müsl	-4429
▁neyi	-4430
▁nine	-4431
▁nuri	-4432
▁odac	-4433
▁okut	-4434
▁omuz	-4435
▁otuz	-4436
▁peçi	-4437
▁port	-4438
▁razı	-4439
▁rekt	-4440
▁sayf	-4441
▁sirk	-4442
▁sola	-4443
▁suda	-4444
▁sürü	-4445
▁sıçr	-4446
▁tadı	-4447
▁taşa	-4448
▁tuzu	-4449
▁tücc	-4450
▁ulan	-4451
▁uyuş	-4452
▁uzan	-4453
▁uçağ	-4454
▁uçup	-4455
▁yaaa	-4456
▁yanı	-4457
▁yarı	-4458
▁yavr	-4459
▁yeme	-4460
▁yeri	-4461
▁yurt	-4462
▁zeyt	-4463
▁çare	-4464
▁çeki	-4465
▁ödem	-4466
▁övün	-4467
▁özel	-4468
▁üzün	-4469
▁ısıt	-4470
▁şapk	-4471
▁şunu	-4472
aaaaan	-4473
abının	-4474
aların	-4475
alesef	-4476
alıdır	-4477
amadık	-4478
ayarak	-4479
ağının	-4480
deymiş	-4481
dırmış	-4482
dığına	-4483
ecinin	-4484
ekleri	-4485
elenir	-4486
eleyin	-4487
emedik	-4488
emedum	-4489
etleri	-4490
eyiniz	-4491
gamber	-4492
ininin	-4493
iyetle	-4494
i̇lahi	-4495
lendir	-4496
lerdir	-4497
lersin	-4498
madığı	-4499
maktan	-4500
mazsan	-4501
mazsın	-4502
mislar	-4503
müşler	-4504
mıştım	-4505
partım	-4506
retini	-4507
untuya	-4508
uyordu	-4509
uğumuz	-4510
uğunda	-4511
yorsun	-4512
ımızın	-4513
ınacak	-4514
ınarın	-4515
ısınız	-4516
ıyoruz	-4517
şeklik	-4518
▁adına	-4519
▁aklım	-4520
▁aldım	-4521
▁alman	-4522
▁almiş	-4523
▁annes	-4524
▁apart	-4525
▁araya	-4526
▁argın	-4527
▁asılı	-4528
▁atışı	-4529
▁aynen	-4530
▁ayrıl	-4531
▁bahan	-4532
▁bahar	-4533
▁bakma	-4534
▁bakıp	-4535
▁balon	-4536
▁bayan	-4537
▁bağış	-4538
▁beeey	-4539
▁bekçi	-4540
▁beyen	-4541
▁beşik	-4542
▁birer	-4543
▁birik	-4544
▁boğul	-4545
▁canlı	-4546
▁ceket	-4547
▁cimri	-4548
▁dakik	-4549
▁davac	-4550
▁dayak	-4551
▁deden	-4552
▁demir	-4553
▁derse	-4554
▁devek	-4555
▁diler	-4556
▁dişim	-4557
▁döndü	-4558
▁düzen	-4559
▁emred	-4560
▁enayi	-4561
▁eskim	-4562
▁esnaf	-4563
▁esnem	-4564
▁etsin	-4565
▁ettik	-4566
▁ettim	-4567
▁eşine	-4568
▁fakir	-4569
▁falan	-4570
▁fatma	-4571
▁gecik	-4572
▁geliş	-4573
▁geniş	-4574
▁gölde	-4575
▁gölün	-4576
▁günah	-4577
▁günde	-4578
▁gıcır	-4579
▁hakkı	-4580
▁hayir	-4581
▁hıyar	-4582
▁idris	-4583
▁inmek	-4584
▁içmek	-4585
▁işini	-4586
▁kalem	-4587
▁kalfa	-4588
▁kapal	-4589
▁kaplı	-4590
▁karin	-4591
▁kayın	-4592
▁keyfi	-4593
▁kimya	-4594
▁konuk	-4595
▁konum	-4596
▁kudur	-4597
▁kürsü	-4598
▁kıyaf	-4599
▁kızan	-4600
▁kızın	-4601
▁limon	-4602
▁meden	-4603
▁miydi	-4604
▁moral	-4605
▁muska	-4606
▁nasih	-4607
▁oldum	-4608
▁oğlak	-4609
▁param	-4610
▁recep	-4611
▁roman	-4612
▁saati	-4613
▁sadak	-4614
▁sahil	-4615
▁salim	-4616
▁sanki	-4617
▁saygı	-4618
▁senun	-4619
▁sergi	-4620
▁seçim	-4621
▁siyah	-4622
▁sokup	-4623
▁susar	-4624
▁suyun	-4625
▁sıçra	-4626
▁sığın	-4627
▁tabel	-4628
▁takım	-4629
▁tatil	-4630
▁tuval	-4631
▁uçuşu	-4632
▁valiz	-4633
▁verip	-4634
▁yakar	-4635
▁yanın	-4636
▁yapma	-4637
▁yatar	-4638
▁yaşın	-4639
▁yedik	-4640
▁yeşil	-4641
▁yiyen	-4642
▁yönel	-4643
▁çakıl	-4644
▁çarık	-4645
▁çarşı	-4646
▁çürük	-4647
▁ödeye	-4648
▁öfkel	-4649
▁öksür	-4650
▁öldüm	-4651
▁öldüğ	-4652
▁ısrar	-4653
▁şarkı	-4654
▁şayet	-4655
▁şehre	-4656
▁şüphe	-4657
acakmış	-4658
acaksın	-4659
acaktım	-4660
asağlam	-4661
dekiler	-4662
duğumda	-4663
dığında	-4664
ebilmek	-4665
ecekler	-4666
ecektim	-4667
eceğine	-4668
elbette	-4669
esinler	-4670
larıyla	-4671
lıyorum	-4672
masının	-4673
mıyoruz	-4674
öyleyse	-4675
ınından	-4676
▁aklıma	-4677
▁alayım	-4678
▁aldığı	-4679
▁amirim	-4680
▁ankara	-4681
▁aramış	-4682
▁arkası	-4683
▁askere	-4684
▁atmaya	-4685
▁avucun	-4686
▁bakmak	-4687
▁bedeli	-4688
▁bekli̇	-4689
▁beyler	-4690
▁bitmiş	-4691
▁bizden	-4692
▁boynuz	-4693
▁bugüne	-4694
▁bulduk	-4695
▁buyrun	-4696
▁canını	-4697
▁ciğeri	-4698
▁cümlen	-4699
▁davran	-4700
▁deveye	-4701
▁dolusu	-4702
▁dostum	-4703
▁dövüşt	-4704
▁düdüğü	-4705
▁düşman	-4706
▁endişe	-4707
▁erimez	-4708
▁geldin	-4709
▁gemisi	-4710
▁gezmek	-4711
▁girmek	-4712
▁gitmez	-4713
▁gittik	-4714
▁gittin	-4715
▁gizley	-4716
▁gökyüz	-4717
▁gördün	-4718
▁gördüğ	-4719
▁gözünü	-4720
▁gülüms	-4721
▁günlük	-4722
▁halini	-4723
▁hiddet	-4724
▁hoşbeş	-4725
▁idrara	-4726
▁ilişir	-4727
▁isteye	-4728
▁iyidur	-4729
▁i̇dris	-4730
▁i̇nönü	-4731
▁i̇ster	-4732
▁kadına	-4733
▁kafanı	-4734
▁kaldir	-4735
▁kalkar	-4736
▁kapıcı	-4737
▁karpuz	-4738
▁kasaba	-4739
▁kenara	-4740
▁kendim	-4741
▁kesilm	-4742
▁kişiye	-4743
▁konser	-4744
▁kulağı	-4745
▁köpeğe	-4746
▁köpeği	-4747
▁liraya	-4748
▁lirayı	-4749
▁londra	-4750
▁madaly	-4751
▁mahall	-4752
▁mektub	-4753
▁mensup	-4754
▁mesajı	-4755
▁mesele	-4756
▁muayen	-4757
▁normal	-4758
▁oluruz	-4759
▁ormana	-4760
▁ortada	-4761
▁otaban	-4762
▁otelci	-4763
▁oturdu	-4764
▁pireye	-4765
▁pişkin	-4766
▁pi̇li̇	-4767
▁polise	-4768
▁rüzgar	-4769
▁rüşvet	-4770
▁sabaha	-4771
▁sabahı	-4772
▁salonu	-4773
▁sağlam	-4774
▁selçuk	-4775
▁sordum	-4776
▁söylen	-4777
▁sürdür	-4778
▁sıkınt	-4779
▁sırası	-4780
▁tarafı	-4781
▁tarlad	-4782
▁teklif	-4783
▁teneff	-4784
▁tombul	-4785
▁tuttum	-4786
▁uşağım	-4787
▁varken	-4788
▁vazgeç	-4789
▁verdin	-4790
▁vermen	-4791
▁vermez	-4792
▁yalvar	-4793
▁yaptın	-4794
▁yaptığ	-4795
▁yavrum	-4796
▁yazdır	-4797
▁yazılı	-4798
▁yenmez	-4799
▁yerken	-4800
▁yerler	-4801
▁yoluna	-4802
▁yüklem	-4803
▁yüksel	-4804
▁yüzden	-4805
▁yılanı	-4806
▁çaylak	-4807
▁çengel	-4808
▁çocukl	-4809
▁çuvalı	-4810
▁öndeki	-4811
▁üstüme	-4812
▁ırmağa	-4813
emeyecek	-4814
esindeki	-4815
ilsonlar	-4816
komşular	-4817
malarını	-4818
ulduğunu	-4819
çocuklar	-4820
▁acından	-4821
▁ahırdan	-4822
▁aklımda	-4823
▁akçelik	-4824
▁almadın	-4825
▁anlatın	-4826
▁arabayı	-4827
▁aslında	-4828
▁atlamış	-4829
▁avukatı	-4830
▁bakarım	-4831
▁baksana	-4832
▁bilemez	-4833
▁bilgisi	-4834
▁biriyle	-4835
▁boynunu	-4836
▁bozulur	-4837
▁bulacak	-4838
▁bulayım	-4839
▁bununla	-4840
▁buğdayı	-4841
▁bırakın	-4842
▁cümlede	-4843
▁dediniz	-4844
▁dediğin	-4845
▁delikan	-4846
▁demedim	-4847
▁değerli	-4848
▁değildi	-4849
▁değilim	-4850
▁diyemez	-4851
▁dolabın	-4852
▁dolaşır	-4853
▁dostuna	-4854
▁doğruca	-4855
▁doğruyu	-4856
▁dursuna	-4857
▁dursunu	-4858
▁durumda	-4859
▁duvarın	-4860
▁duyunca	-4861
▁dönüşte	-4862
▁düşünüp	-4863
▁etmekte	-4864
▁etrafın	-4865
▁ettiğim	-4866
▁eşeğimi	-4867
▁gardrob	-4868
▁gelirim	-4869
▁gerekli	-4870
▁getiren	-4871
▁geçiyor	-4872
▁gönlünü	-4873
▁gözümün	-4874
▁gücüyle	-4875
▁gülmeye	-4876
▁hangisi	-4877
▁hastayı	-4878
▁hayrola	-4879
▁hazırla	-4880
▁hemşehr	-4881
▁isterim	-4882
▁istiyor	-4883
▁izlemek	-4884
▁işgüzar	-4885
▁kafadar	-4886
▁kalmadı	-4887
▁kaptığı	-4888
▁karşıda	-4889
▁kasları	-4890
▁kazanın	-4891
▁kaçmaya	-4892
▁keyifle	-4893
▁kimseyi	-4894
▁koltuğa	-4895
▁komiser	-4896
▁koskoca	-4897
▁kurusun	-4898
▁kurşuna	-4899
▁kuyruğu	-4900
▁kuyunun	-4901
▁köpeğin	-4902
▁körüğün	-4903
▁kırmızı	-4904
▁meydana	-4905
▁mezarda	-4906
▁muayene	-4907
▁mutlaka	-4908
▁müdürün	-4909
▁okumaya	-4910
▁olanlar	-4911
▁olmanın	-4912
▁olmazsa	-4913
▁olursun	-4914
▁oğlunuz	-4915
▁pakayum	-4916
▁pazarcı	-4917
▁pişirip	-4918
▁sanırım	-4919
▁satılık	-4920
▁saymaya	-4921
▁secdeye	-4922
▁seninki	-4923
▁severim	-4924
▁sizlere	-4925
▁solunda	-4926
▁sonraki	-4927
▁sınavda	-4928
▁sırayla	-4929
▁takılır	-4930
▁tavuğun	-4931
▁tavırla	-4932
▁taşları	-4933
▁telaşla	-4934
▁telgraf	-4935
▁tersini	-4936
▁tiksinm	-4937
▁tuttuğu	-4938
▁unutmak	-4939
▁unutmuş	-4940
▁uykusuz	-4941
▁verecek	-4942
▁veriyor	-4943
▁vermi̇ş	-4944
▁versene	-4945
▁yandaki	-4946
▁yanmaya	-4947
▁yanıyor	-4948
▁yaparım	-4949
▁yaparız	-4950
▁yaramaz	-4951
▁yaratık	-4952
▁yağarsa	-4953
▁yorganı	-4954
▁yürüyüş	-4955
▁yüzmeye	-4956
▁zorunda	-4957
▁çarpmış	-4958
▁çekilir	-4959
▁çengeli	-4960
▁çocukla	-4961
▁çocuğun	-4962
▁çıkarsa	-4963
▁çıkmaya	-4964
▁şaşırıp	-4965
▁şimdiye	-4966
diklerini	-4967
ilerinden	-4968
larınızın	-4969
mışlardır	-4970
üyorlardı	-4971
▁alabilir	-4972
▁almışlar	-4973
▁anlatmak	-4974
▁bakarlar	-4975
▁bakkalım	-4976
▁başlamiş	-4977
▁başçavuş	-4978
▁bindirir	-4979
▁bisiklet	-4980
▁brandayı	-4981
▁bulurlar	-4982
▁cehennem	-4983
▁dediğini	-4984
▁dehşetle	-4985
▁demektir	-4986
▁değirmen	-4987
▁diyorlar	-4988
▁diyormuş	-4989
▁dostları	-4990
▁durdurur	-4991
▁dururken	-4992
▁dönerken	-4993
▁dünyanın	-4994
▁düşmedim	-4995
▁düşürmüş	-4996
▁ensesine	-4997
▁erkenden	-4998
▁etrafını	-4999
▁geldiler	-5000
▁gelirler	-5001
▁gelmiyor	-5002
▁getirdim	-5003
▁gidersek	-5004
▁girerler	-5005
▁gitmeyin	-5006
▁gönderdi	-5007
▁götürmüş	-5008
▁haritayı	-5009
▁hayvanın	-5010
▁herhalde	-5011
▁heybenin	-5012
▁isimleri	-5013
▁istersen	-5014
▁izlersin	-5015
▁içeriden	-5016
▁içindeki	-5017
▁i̇nsanın	-5018
▁i̇çinden	-5019
▁kadınlar	-5020
▁kardeşim	-5021
▁kasabada	-5022
▁kaybeder	-5023
▁kendinin	-5024
▁kocasını	-5025
▁komşumuz	-5026
▁kurtulur	-5027
▁maalesef	-5028
▁mollalar	-5029
▁nedenini	-5030
▁olacaktı	-5031
▁olsaydım	-5032
▁ortalığı	-5033
▁ortasına	-5034
▁parasını	-5035
▁portakal	-5036
▁problemi	-5037
▁rahatsız	-5038
▁sebebini	-5039
▁sevinmiş	-5040
▁simsiyah	-5041
▁sorulara	-5042
▁soruları	-5043
▁susuzluk	-5044
▁söyledim	-5045
▁söylenir	-5046
▁sıvazlar	-5047
▁tabutunu	-5048
▁tamamlay	-5049
▁tartışma	-5050
▁tavşanın	-5051
▁taşırken	-5052
▁tereddüt	-5053
▁tutmazsa	-5054
▁unuturum	-5055
▁yanarken	-5056
▁yaparken	-5057
▁yatarken	-5058
▁yağmurda	-5059
▁yağmurlu	-5060
▁yemekler	-5061
▁yolcular	-5062
▁yukarıya	-5063
▁yuvarlak	-5064
▁yıllarda	-5065
▁çaldılar	-5066
▁çalınmış	-5067
▁çeşmenin	-5068
▁çıkardın	-5069
▁önündeki	-5070
adıklarını	-5071
mayacağını	-5072
▁adamcağız	-5073
▁akşehirde	-5074
▁alıyormuş	-5075
▁atıyormuş	-5076
▁atıyorsun	-5077
▁aşağıdaki	-5078
▁bakıyoruz	-5079
▁başındaki	-5080
▁beklemeye	-5081
▁birbirine	-5082
▁bozuntuya	-5083
▁bulamadım	-5084
▁cemaatten	-5085
▁dediğinde	-5086
▁defterini	-5087
▁diğerleri	-5088
▁doktorlar	-5089
▁düştüğünü	-5090
▁düşünecek	-5091
▁düşünüyor	-5092
▁dışarıdan	-5093
▁ediyorlar	-5094
▁ediyormuş	-5095
▁efendinin	-5096
▁geceleyin	-5097
▁geliyorum	-5098
▁getiririm	-5099
▁göndermiş	-5100
▁görmediği	-5101
▁hastanede	-5102
▁hırsızlar	-5103
▁ihtiyacım	-5104
▁ingilizce	-5105
▁istediğin	-5106
▁istemiyor	-5107
▁kaldırmak	-5108
▁kimliğini	-5109
▁kocasının	-5110
▁koltuğuna	-5111
▁kompartım	-5112
▁konuşulur	-5113
▁konuşuruz	-5114
▁koşuyorum	-5115
▁kurnazlık	-5116
▁mezarlığa	-5117
▁odunların	-5118
▁olacağını	-5119
▁papağanın	-5120
▁peygamber	-5121
▁sananeeee	-5122
▁subaşının	-5123
▁suçsuzdur	-5124
▁sözlerini	-5125
▁tartışmış	-5126
▁telefonda	-5127
▁telefonla	-5128
▁temizliğe	-5129
▁tutulacak	-5130
▁uzamıştır	-5131
▁verseydim	-5132
▁yaklaşmış	-5133
▁yanlarına	-5134
▁yapacağım	-5135
▁yazıyordu	-5136
▁yerleştir	-5137
▁yukarıdan	-5138
▁yıllardır	-5139
▁zamanında	-5140
▁çaldırdın	-5141
▁çıkardığı	-5142
▁çıkarmaya	-5143
▁öğrenince	-5144
kardeşlerim	-5145
▁arkadaşını	-5146
▁ayaklarına	-5147
▁bastonuyla	-5148
▁dağıstanlı	-5149
▁dilencinin	-5150
▁duruyorsun	-5151
▁düşünürken	-5152
▁ederlerken	-5153
▁elebaşları	-5154
▁eriksonlar	-5155
▁gidersiniz	-5156
▁gidiyormuş	-5157
▁hamamcılar	-5158
▁hastaneden	-5159
▁hastasının	-5160
▁inanıyorum	-5161
▁istemişler	-5162
▁kardeşinin	-5163
▁komşusunun	-5164
▁kızılderel	-5165
▁medeniyete	-5166
▁sallayarak	-5167
▁sapasağlam	-5168
▁tarzaaaaan	-5169
▁toparlayan	-5170
▁tuhafiyeci	-5171
▁yapacaksın	-5172
▁yapacağımı	-5173
▁yapacağını	-5174
▁çalışırken	-5175
▁öldürürler	-5176
▁üniversite	-5177
▁üzerlerine	-5178
▁anlatıyordu	-5179
▁bağlamışlar	-5180
▁bağırıyordu	-5181
▁dolaştıktan	-5182
▁düşünüyorum	-5183
▁hastanesine	-5184
▁hemşerileri	-5185
▁ilerleyince	-5186
▁istemiyorum	-5187
▁karşılarına	-5188
▁kendilerine	-5189
▁koyulmuşlar	-5190
▁köylülerden	-5191
▁matematikçi	-5192
▁oturduğumda	-5193
▁rahmetinden	-5194
▁sinirlenmiş	-5195
▁söylemişler	-5196
▁tamircisine	-5197
▁yanlışlıkla	-5198
▁çamaşırları	-5199
▁öğrencisine	-5200
▁öğretmenine	-5201
▁dağıtıyormuş	-5202
▁hastanesinin	-5203
▁kullanabilir	-5204
▁meyhanecinin	-5205
▁yolculuğumuz	-5206
▁çekirdeğiyle	-5207
▁öğrencilerin	-5208
▁şikâyetçiyim	-5209
▁misafirlerden	-5210
▁söylüyorsunuz	-5211
▁yapıyorlarmış	-5212
▁öğrencilerden	-5213
▁arkadaşlarının	-5214
▁arızalanmıştır	-5215
▁ayakkabılarını	-5216
▁merdivenlerden	-5217
.3	-5218
do	-5219
gu	-5220
gâ	-5221
ko	-5222
lo	-5223
mü	-5224
uf	-5225
ve	-5226
âf	-5227
öp	-5228
üh	-5229
ams	-5230
aru	-5231
arz	-5232
atu	-5233
ayu	-5234
ayü	-5235
bah	-5236
biz	-5237
ble	-5238
buy	-5239
cas	-5240
cat	-5241
cem	-5242
cil	-5243
com	-5244
dar	-5245
daş	-5246
dev	-5247
dok	-5248
dol	-5249
ena	-5250
fak	-5251
fil	-5252
fte	-5253
gan	-5254
gen	-5255
ger	-5256
gul	-5257
gur	-5258
gâr	-5259
gür	-5260
gır	-5261
har	-5262
hat	-5263
hey	-5264
his	-5265
hum	-5266
ice	-5267
ici	-5268
iyo	-5269
i̇p	-5270
i̇ç	-5271
kan	-5272
kol	-5273
köy	-5274
kım	-5275
laj	-5276
lim	-5277
lıl	-5278
lığ	-5279
med	-5280
mel	-5281
mor	-5282
nas	-5283
ner	-5284
odu	-5285
okr	-5286
ola	-5287
oya	-5288
pıp	-5289
ral	-5290
raz	-5291
sad	-5292
sağ	-5293
sed	-5294
sık	-5295
tak	-5296
taç	-5297
tek	-5298
tel	-5299
5'	-5300
hep	-5301
nep	-5302
tun	-5303
tış	-5304
und	-5305
uni	-5306
ust	-5307
uza	-5308
yak	-5309
yal	-5310
yat	-5311
yaş	-5312
yla	-5313
yok	-5314
yür	-5315
ziz	-5316
ölü	-5317
örü	-5318
öğr	-5319
ücü	-5320
üks	-5321
ülü	-5322
üme	-5323
ünç	-5324
ğin	-5325
ğür	-5326
ıki	-5327
ırı	-5328
ıta	-5329
şık	-5330
▁aa	-5331
▁dk	-5332
▁eh	-5333
▁gr	-5334
▁ib	-5335
▁ir	-5336
▁it	-5337
▁no	-5338
▁rö	-5339
▁te	-5340
▁ur	-5341
▁çı	-5342
▁öm	-5343
▁üf	-5344
▁üş	-5345
adın	-5346
adığ	-5347
ahür	-5348
akib	-5349
alak	-5350
alır	-5351
anak	-5352
anam	-5353
anem	-5354
anin	-5355
anoz	-5356
apor	-5357
asik	-5358
asir	-5359
asız	-5360
atan	-5361
avin	-5362
azer	-5363
ağaz	-5364
bant	-5365
başı	-5366
beyi	-5367
cuya	-5368
daha	-5369
demi	-5370
deyi	-5371
dine	-5372
dını	-5373
dıra	-5374
ekle	-5375
elki	-5376
engu	-5377
esel	-5378
esey	-5379
este	-5380
evan	-5381
evra	-5382
eydi	-5383
eyir	-5384
eyiz	-5385
eşeğ	-5386
fağa	-5387
gili	-5388
günü	-5389
hopa	-5390
idan	-5391
iden	-5392
ilim	-5393
illi	-5394
inda	-5395
irir	-5396
isin	-5397
itan	-5398
itli	-5399
ome	-5400
pih	-5401
uğa	-5402
altı	-5403
cıyı	-5404
iyec	-5405
iyse	-5406
iyun	-5407
iyuz	-5408
izma	-5409
işan	-5410
işin	-5411
işki	-5412
kini	-5413
kiye	-5414
lacı	-5415
layı	-5416
lerj	-5417
liye	-5418
lüğü	-5419
manı	-5420
mark	-5421
mist	-5422
neyi	-5423
okul	-5424
oloj	-5425
olon	-5426
peki	-5427
pteş	-5428
sanı	-5429
sime	-5430
siye	-5431
stes	-5432
suna	-5433
sunu	-5434
tlam	-5435
ular	-5436
umun	-5437
unup	-5438
uver	-5439
vali	-5440
vatu	-5441
vran	-5442
üver	-5443
üzde	-5444
üzik	-5445
üzum	-5446
ğini	-5447
ıkra	-5448
ımış	-5449
ırıl	-5450
ıyıp	-5451
ışta	-5452
ıştı	-5453
şeyi	-5454
▁ada	-5455
▁akr	-5456
▁ast	-5457
▁ayg	-5458
▁ayy	-5459
▁bez	-5460
▁büz	-5461
▁bıy	-5462
▁cez	-5463
▁cör	-5464
▁düm	-5465
▁eli	-5466
▁fiz	-5467
▁fut	-5468
▁gay	-5469
▁gor	-5470
▁göb	-5471
▁göv	-5472
▁güç	-5473
▁hit	-5474
▁ima	-5475
▁inş	-5476
▁içi	-5477
▁işl	-5478
▁i̇p	-5479
▁i̇z	-5480
▁kağ	-5481
▁ki̇	-5482
▁köt	-5483
▁kıt	-5484
▁lak	-5485
▁lam	-5486
▁las	-5487
▁mik	-5488
▁min	-5489
▁mük	-5490
▁mün	-5491
▁mür	-5492
▁nam	-5493
▁ned	-5494
▁net	-5495
▁neş	-5496
▁oni	-5497
▁orh	-5498
▁pab	-5499
ehan	-5500
faat	-5501
kede	-5502
lıyı	-5503
▁pal	-5504
▁pağ	-5505
▁pul	-5506
▁rak	-5507
▁ran	-5508
▁rağ	-5509
▁rek	-5510
▁rez	-5511
▁rız	-5512
▁sep	-5513
▁sip	-5514
▁si̇	-5515
▁sop	-5516
▁sün	-5517
▁sız	-5518
▁taa	-5519
▁teh	-5520
▁una	-5521
▁uyu	-5522
▁vah	-5523
▁yil	-5524
▁yoo	-5525
▁zam	-5526
▁zev	-5527
▁zik	-5528
▁zul	-5529
▁çit	-5530
▁çiz	-5531
▁ölm	-5532
▁şem	-5533
adamı	-5534
aları	-5535
amayı	-5536
amına	-5537
aneti	-5538
armış	-5539
arsız	-5540
aydum	-5541
aysun	-5542
ayımı	-5543
cağum	-5544
demiş	-5545
devum	-5546
diğim	-5547
diğum	-5548
durur	-5549
dırır	-5550
efend	-5551
ekeme	-5552
elini	-5553
endik	-5554
endil	-5555
erden	-5556
eride	-5557
erine	-5558
eydum	-5559
eysun	-5560
ginde	-5561
hancı	-5562
hatun	-5563
hisar	-5564
ilmiş	-5565
imden	-5566
imize	-5567
indan	-5568
inist	-5569
irlay	-5570
irmiş	-5571
irsek	-5572
iyede	-5573
iyeye	-5574
içini	-5575
kinin	-5576
lerce	-5577
lerdi	-5578
liler	-5579
lıdır	-5580
lıklı	-5581
lının	-5582
mağın	-5583
medin	-5584
neden	-5585
nedir	-5586
reden	-5587
rılır	-5588
seydi	-5589
shopa	-5590
sinde	-5591
uması	-5592
umdan	-5593
urayı	-5594
uğuna	-5595
yiyum	-5596
çinin	-5597
ümden	-5598
ürsün	-5599
000	-5600
gör	-5601
dimi	-5602
esör	-5603
raaa	-5604
▁baa	-5605
▁haa	-5606
dadır	-5607
hangi	-5608
tirir	-5609
üzeri	-5610
ırken	-5611
▁aday	-5612
▁akil	-5613
▁alam	-5614
▁anam	-5615
▁aran	-5616
▁araş	-5617
▁asar	-5618
▁asil	-5619
▁atlı	-5620
▁avaz	-5621
▁avut	-5622
▁ayag	-5623
▁açan	-5624
▁açik	-5625
▁açıp	-5626
▁ağab	-5627
▁ağar	-5628
▁balı	-5629
▁başa	-5630
▁dede	-5631
▁deme	-5632
▁denk	-5633
▁dile	-5634
▁doya	-5635
▁emre	-5636
▁evim	-5637
▁gemi	-5638
▁gölg	-5639
▁güne	-5640
▁hana	-5641
▁idin	-5642
▁ikin	-5643
▁ilet	-5644
▁inci	-5645
▁inek	-5646
▁inen	-5647
▁iniş	-5648
▁inti	-5649
▁iste	-5650
▁izci	-5651
▁içen	-5652
▁içim	-5653
▁içme	-5654
▁işar	-5655
▁i̇le	-5656
▁i̇lg	-5657
▁kazı	-5658
▁kaça	-5659
▁kimi	-5660
▁kisi	-5661
▁koyu	-5662
▁kuşk	-5663
▁köyü	-5664
▁köşe	-5665
▁kıza	-5666
▁kızı	-5667
▁malı	-5668
▁miya	-5669
▁nasi	-5670
▁okka	-5671
▁oley	-5672
▁orda	-5673
▁ordu	-5674
▁orta	-5675
▁oruç	-5676
▁oyal	-5677
▁pana	-5678
▁pilm	-5679
▁puan	-5680
▁rize	-5681
▁sabr	-5682
▁sand	-5683
▁sanş	-5684
▁sark	-5685
▁sayı	-5686
▁sazı	-5687
▁saça	-5688
▁suya	-5689
▁tazı	-5690
▁teki	-5691
▁terk	-5692
▁teşh	-5693
▁tiye	-5694
▁topp	-5695
▁toro	-5696
▁umur	-5697
▁uslu	-5698
▁yata	-5699
amba	-5700
bule	-5701
enej	-5702
i̇ne	-5703
umlu	-5704
▁300	-5705
▁mec	-5706
▁puf	-5707
aydın	-5708
masun	-5709
sünün	-5710
tiğin	-5711
▁acel	-5712
▁acem	-5713
▁amer	-5714
▁avcı	-5715
▁avlu	-5716
▁ağzı	-5717
▁bağr	-5718
▁boşa	-5719
▁emar	-5720
▁kafa	-5721
▁kolu	-5722
▁yetm	-5723
▁yiye	-5724
▁yüze	-5725
▁yıka	-5726
▁zeki	-5727
▁zili	-5728
▁çayı	-5729
▁çeke	-5730
▁çekm	-5731
▁çıkm	-5732
▁çırp	-5733
▁öden	-5734
▁ödeş	-5735
▁üste	-5736
▁ışıl	-5737
▁şehr	-5738
▁şeye	-5739
akiler	-5740
alılar	-5741
alının	-5742
amamış	-5743
anınca	-5744
anırsa	-5745
arudad	-5746
atırtı	-5747
babası	-5748
basını	-5749
daydın	-5750
dayken	-5751
dursun	-5752
duğuna	-5753
dırmak	-5754
eceğum	-5755
edemiş	-5756
ediniz	-5757
elerin	-5758
elerle	-5759
elikle	-5760
emeden	-5761
emeyen	-5762
endiği	-5763
eniyor	-5764
esidir	-5765
hemşer	-5766
ihayet	-5767
imizin	-5768
inizin	-5769
işinde	-5770
karaya	-5771
landır	-5772
lileri	-5773
luymuş	-5774
luğunu	-5775
maları	-5776
mazlar	-5777
mektir	-5778
mezmiş	-5779
mezsen	-5780
misler	-5781
nından	-5782
seydin	-5783
sinden	-5784
tiğine	-5785
tırmaz	-5786
ulunca	-5787
ururla	-5788
vermiş	-5789
ülerek	-5790
üyelim	-5791
üyünce	-5792
ıldığı	-5793
ılırsa	-5794
ımızda	-5795
ınızda	-5796
ınızın	-5797
▁acele	-5798
▁acıgö	-5799
müs	-5800
▁2.5	-5801
▁küs	-5802
▁poz	-5803
başlı	-5804
bunun	-5805
mayin	-5806
polis	-5807
▁gaza	-5808
▁gram	-5809
▁isır	-5810
▁pant	-5811
▁çevr	-5812
başıya	-5813
ceğini	-5814
ederim	-5815
inceye	-5816
okrasi	-5817
▁acına	-5818
▁adaya	-5819
▁adeta	-5820
▁afrik	-5821
▁aldat	-5822
▁alerj	-5823
▁aliye	-5824
▁almaz	-5825
▁arabi	-5826
▁arkad	-5827
▁asena	-5828
▁asmış	-5829
▁ateşe	-5830
▁ateşi	-5831
▁atlat	-5832
▁atmak	-5833
▁avrat	-5834
▁aydın	-5835
▁bahçe	-5836
▁bakır	-5837
▁banka	-5838
▁bayat	-5839
▁başta	-5840
▁başın	-5841
▁bekle	-5842
▁benum	-5843
▁bilem	-5844
▁bilim	-5845
▁biten	-5846
▁biter	-5847
▁boyum	-5848
▁boşal	-5849
▁bulab	-5850
▁burnu	-5851
▁burun	-5852
▁bürün	-5853
▁cafer	-5854
▁dalga	-5855
▁dalıp	-5856
▁damın	-5857
▁dağda	-5858
▁degil	-5859
▁dener	-5860
▁dersi	-5861
▁direk	-5862
▁domuz	-5863
▁durak	-5864
▁durun	-5865
▁duyar	-5866
▁dönün	-5867
▁dörde	-5868
▁döver	-5869
▁elden	-5870
▁elimi	-5871
▁emine	-5872
▁erdal	-5873
▁erdir	-5874
▁erini	-5875
▁ermiş	-5876
▁etmem	-5877
▁eşlik	-5878
▁fidan	-5879
▁genel	-5880
▁geçip	-5881
▁girdi	-5882
▁giyin	-5883
▁gökte	-5884
▁gönlü	-5885
▁güver	-5886
▁hakem	-5887
▁hayli	-5888
▁haçen	-5889
▁helal	-5890
▁heybe	-5891
▁hindi	-5892
▁huyun	-5893
▁ilacı	-5894
▁indik	-5895
▁islik	-5896
▁ispat	-5897
▁iyisi	-5898
▁içini	-5899
ucu	-5900
▁ipu	-5901
dığım	-5902
▁bari	-5903
▁deft	-5904
▁kuşu	-5905
▁mahk	-5906
▁âşık	-5907
▁ödey	-5908
▁üncü	-5909
▁ışığ	-5910
emedin	-5911
sanıza	-5912
▁attığ	-5913
▁açtığ	-5914
▁damda	-5915
▁doğdu	-5916
▁işine	-5917
▁i̇laç	-5918
▁kabar	-5919
▁kadem	-5920
▁kadin	-5921
▁kadir	-5922
▁kafil	-5923
▁kamuf	-5924
▁kapan	-5925
▁kapıs	-5926
▁karak	-5927
▁karga	-5928
▁karım	-5929
▁katlı	-5930
▁kayar	-5931
▁kayıp	-5932
▁kazık	-5933
▁kaçar	-5934
▁kedim	-5935
▁keman	-5936
▁kemik	-5937
▁konak	-5938
▁koyup	-5939
▁koşan	-5940
▁koşar	-5941
▁koşuş	-5942
▁kucak	-5943
▁kurun	-5944
▁kuruş	-5945
▁kuzin	-5946
▁köpük	-5947
▁kürke	-5948
▁küçüğ	-5949
▁kısık	-5950
▁kızar	-5951
▁kızım	-5952
▁lazum	-5953
▁lüzum	-5954
▁makin	-5955
▁midur	-5956
▁misun	-5957
▁model	-5958
▁muydu	-5959
▁mübar	-5960
▁müzik	-5961
▁mışıl	-5962
▁ni̇ye	-5963
▁okyan	-5964
▁olaya	-5965
▁olayı	-5966
▁olsan	-5967
▁otele	-5968
▁oturt	-5969
▁oymak	-5970
▁oyunu	-5971
▁pabuç	-5972
▁parka	-5973
▁planı	-5974
▁radyo	-5975
▁revan	-5976
▁sabır	-5977
▁safça	-5978
▁sakız	-5979
▁saman	-5980
▁sanık	-5981
▁sanıp	-5982
▁sarıl	-5983
▁satıl	-5984
▁satın	-5985
▁sayar	-5986
▁sağda	-5987
▁sende	-5988
▁seçer	-5989
▁sigar	-5990
▁sinav	-5991
▁sinek	-5992
▁sizce	-5993
▁sofra	-5994
▁solda	-5995
▁solun	-5996
▁sudan	-5997
▁surat	-5998
▁susuz	-5999
cası	-6000
oooo	-6001
▁eyy	-6002
▁ttt	-6003
anızı	-6004
haydi	-6005
pilot	-6006
tular	-6007
▁cins	-6008
▁help	-6009
▁prof	-6010
ettiği	-6011
tuğunu	-6012
▁boynu	-6013
▁cebim	-6014
▁dizip	-6015
▁ettum	-6016
▁hapis	-6017
▁incil	-6018
▁mayal	-6019
▁savun	-6020
▁söndi	-6021
▁sözlü	-6022
▁sıcağ	-6023
▁sırrı	-6024
▁tahta	-6025
▁taksi	-6026
▁tanık	-6027
▁tarih	-6028
▁tavrı	-6029
▁taşır	-6030
▁taşıt	-6031
▁taşıy	-6032
▁telas	-6033
▁temal	-6034
▁terör	-6035
▁tokuz	-6036
▁topal	-6037
▁toplu	-6038
▁torba	-6039
▁tünel	-6040
▁ucuza	-6041
▁uçağa	-6042
▁uçağı	-6043
▁vatan	-6044
▁vazif	-6045
▁yanan	-6046
▁yanar	-6047
▁yapsa	-6048
▁yapıp	-6049
▁yarin	-6050
▁yazım	-6051
▁yağış	-6052
▁yedir	-6053
▁yemez	-6054
▁yenil	-6055
▁yenir	-6056
▁yeten	-6057
▁yoktu	-6058
▁yorul	-6059
▁yukar	-6060
▁yörük	-6061
▁yüzer	-6062
▁yüzlü	-6063
▁yıkar	-6064
▁çakar	-6065
▁çalan	-6066
▁çalma	-6067
▁çalıp	-6068
▁çamur	-6069
▁çayın	-6070
▁çekil	-6071
▁çözer	-6072
▁çıkma	-6073
▁çıtır	-6074
▁öbürü	-6075
▁önünü	-6076
▁öteye	-6077
▁öğret	-6078
▁ülkem	-6079
▁üzeri	-6080
▁ıslak	-6081
▁ıslan	-6082
▁şahıs	-6083
▁şakır	-6084
▁şeyin	-6085
▁şişir	-6086
acaktır	-6087
aktadır	-6088
amazlar	-6089
anından	-6090
cağının	-6091
danarak	-6092
deyince	-6093
diğimiz	-6094
duğunda	-6095
dükleri	-6096
dıkları	-6097
ecekken	-6098
elerine	-6099
bakın	-6100
i̇mi̇	-6101
▁habu	-6102
▁osur	-6103
▁usak	-6104
▁şans	-6105
altıya	-6106
ışırız	-6107
▁cörse	-6108
▁horul	-6109
▁ilgis	-6110
▁küpün	-6111
▁kısmı	-6112
▁mutlu	-6113
▁muzip	-6114
▁utanc	-6115
▁yedük	-6116
▁yutar	-6117
agirmis	-6118
dinizmi	-6119
hanelik	-6120
kattaki	-6121
ladınız	-6122
ladığum	-6123
lanarak	-6124
lanmaya	-6125
lanıyor	-6126
layalım	-6127
layayım	-6128
laşınca	-6129
leriyle	-6130
leşecek	-6131
madınız	-6132
mayınca	-6133
miyorum	-6134
mıyorum	-6135
sonları	-6136
sonunda	-6137
tacağız	-6138
taların	-6139
usundan	-6140
uyorlar	-6141
uyormuş	-6142
validem	-6143
ümanlar	-6144
ınırken	-6145
ığından	-6146
ışmadan	-6147
▁abidin	-6148
▁adamda	-6149
▁adamin	-6150
▁ahbabı	-6151
▁albayı	-6152
▁amanın	-6153
▁ameri̇	-6154
▁anneme	-6155
▁arabam	-6156
▁arayıp	-6157
▁askeri	-6158
▁atarak	-6159
▁atıldı	-6160
▁atınca	-6161
▁atıyor	-6162
▁avanak	-6163
▁ayağım	-6164
▁ayıdan	-6165
▁ayının	-6166
▁açarım	-6167
▁açmaya	-6168
▁açılış	-6169
▁ağaçta	-6170
▁ağrısı	-6171
▁babamı	-6172
▁bacağı	-6173
▁baktık	-6174
▁bağlar	-6175
▁başlık	-6176
▁bekler	-6177
▁bilmiş	-6178
▁bindik	-6179
▁bindim	-6180
▁binmek	-6181
▁bitmez	-6182
▁bi̇ri̇	-6183
▁borçlu	-6184
▁bulgur	-6185
▁cafede	-6186
▁canına	-6187
▁cumaya	-6188
▁dalmış	-6189
▁davada	-6190
▁demeye	-6191
▁demlen	-6192
▁derede	-6193
▁değeri	-6194
▁dikmiş	-6195
▁dinler	-6196
▁doksan	-6197
▁dokuzu	-6198
▁dolana	-6199
▁küf	-6200
işeci	-6201
▁5000	-6202
▁abla	-6203
▁post	-6204
▁usta	-6205
▁zeka	-6206
ablası	-6207
acığım	-6208
ayudun	-6209
i̇i̇i̇	-6210
larina	-6211
▁bi̇ze	-6212
▁dökül	-6213
▁düğün	-6214
▁karnı	-6215
▁kepçe	-6216
▁resim	-6217
▁resmi	-6218
▁tıkam	-6219
▁yular	-6220
▁öküze	-6221
▁ölüsü	-6222
▁ırmak	-6223
alyeyle	-6224
anırken	-6225
diğimde	-6226
isiymiş	-6227
▁ablası	-6228
▁ahırın	-6229
▁dolmuş	-6230
▁doğrul	-6231
▁dünden	-6232
▁düştün	-6233
▁ederiz	-6234
▁edeyim	-6235
▁edilen	-6236
▁elinin	-6237
▁emrini	-6238
▁erleri	-6239
▁eskimo	-6240
▁ettiği	-6241
▁evdeki	-6242
▁eşekle	-6243
▁eşeğim	-6244
▁eşinin	-6245
▁feryat	-6246
▁fiyata	-6247
▁fiyatı	-6248
▁futbol	-6249
▁fıldır	-6250
▁gardiy	-6251
▁gelsin	-6252
▁gereği	-6253
▁geriye	-6254
▁geçmek	-6255
▁gidiyo	-6256
▁gitmem	-6257
▁gittim	-6258
▁gişeci	-6259
▁gömlek	-6260
▁gözden	-6261
▁gözümü	-6262
▁güneşe	-6263
▁günler	-6264
▁hamama	-6265
▁hasarı	-6266
▁hasret	-6267
▁hastal	-6268
▁havalı	-6269
▁havaya	-6270
▁havayı	-6271
▁hayali	-6272
▁hayran	-6273
▁hedefi	-6274
▁hocada	-6275
▁hostes	-6276
▁hoşlan	-6277
▁iftara	-6278
▁ilginç	-6279
▁ilgisi	-6280
▁incele	-6281
▁inince	-6282
▁iyilik	-6283
▁izleye	-6284
▁içelim	-6285
▁içkiyi	-6286
▁işleri	-6287
▁kafayı	-6288
▁kafesi	-6289
▁kaldım	-6290
▁kaldın	-6291
▁karara	-6292
▁karıma	-6293
▁kazası	-6294
▁keskin	-6295
▁kimden	-6296
▁kimdur	-6297
▁kimsin	-6298
▁komedi	-6299
di̇n	-6300
icem	-6301
kkkk	-6302
rrrr	-6303
geçen	-6304
silas	-6305
▁aile	-6306
▁hoop	-6307
▁tört	-6308
▁uyyy	-6309
▁asite	-6310
▁bükük	-6311
▁gizli	-6312
▁lafın	-6313
▁mağaz	-6314
▁olgun	-6315
▁pengu	-6316
▁selam	-6317
▁tepsi	-6318
▁uçurt	-6319
▁zarar	-6320
▁ölçün	-6321
i̇recek	-6322
malıydı	-6323
mutlaka	-6324
▁dümdüz	-6325
▁hesabı	-6326
▁hindim	-6327
▁huzura	-6328
▁ismini	-6329
▁itiraf	-6330
▁i̇lahi	-6331
▁kitaba	-6332
▁komşus	-6333
▁konumu	-6334
▁konuyu	-6335
▁kovayı	-6336
▁koydum	-6337
▁kumsal	-6338
▁kuzuya	-6339
▁köşeye	-6340
▁küveti	-6341
▁küçüğü	-6342
▁kıldır	-6343
▁kıpırd	-6344
▁kırmak	-6345
▁kırpıp	-6346
▁kıvran	-6347
▁kıyıya	-6348
▁liramı	-6349
▁mantar	-6350
▁manyak	-6351
▁merkez	-6352
▁millet	-6353
▁miydin	-6354
▁muavin	-6355
▁muhtar	-6356
▁mutlul	-6357
▁namazı	-6358
▁niyeti	-6359
▁okundu	-6360
▁okuyan	-6361
▁olamaz	-6362
▁oltaya	-6363
▁olurum	-6364
▁onunla	-6365
▁otelde	-6366
▁oturun	-6367
▁oturup	-6368
▁paramı	-6369
▁parası	-6370
▁parlak	-6371
▁pilavı	-6372
▁pislik	-6373
▁pişman	-6374
▁rektör	-6375
▁rüyada	-6376
▁rüzgâr	-6377
▁saatin	-6378
▁sakızı	-6379
▁salona	-6380
▁sankim	-6381
▁satmak	-6382
▁seni̇n	-6383
▁sevdir	-6384
▁sevmem	-6385
▁sinyal	-6386
▁sizden	-6387
▁sokrat	-6388
▁sonsuz	-6389
▁sormak	-6390
▁soruda	-6391
▁sorunu	-6392
▁sorusu	-6393
▁suçunu	-6394
▁söndür	-6395
▁sözler	-6396
▁sözümü	-6397
▁tahsil	-6398
▁takmış	-6399
ibin	-6400
sorma	-6401
▁fasl	-6402
▁söle	-6403
beyler	-6404
boşuna	-6405
cesine	-6406
ecekti	-6407
tambur	-6408
▁böğür	-6409
▁duman	-6410
▁engel	-6411
▁hamle	-6412
▁mırıl	-6413
▁odana	-6414
▁perde	-6415
▁sisli	-6416
▁âdeta	-6417
▁çimen	-6418
▁çorap	-6419
▁ögren	-6420
izliğin	-6421
▁acıyan	-6422
▁adresi	-6423
▁arapça	-6424
▁burcum	-6425
▁burcun	-6426
▁desene	-6427
▁imamın	-6428
▁içmeyi	-6429
▁mızrap	-6430
▁sudana	-6431
▁sustur	-6432
▁takumu	-6433
▁takımı	-6434
▁tarife	-6435
▁tarifi	-6436
▁tasını	-6437
▁tatili	-6438
▁tavana	-6439
▁telsiz	-6440
▁toktor	-6441
▁tooopp	-6442
▁toplam	-6443
▁trende	-6444
▁turist	-6445
▁tüccar	-6446
▁tümüne	-6447
▁uyanır	-6448
▁uyarır	-6449
▁uyudum	-6450
▁uyumak	-6451
▁uzattı	-6452
▁uçağın	-6453
▁uçurum	-6454
▁uşağum	-6455
▁vardur	-6456
▁varmıs	-6457
▁versen	-6458
▁vurdun	-6459
▁vurmuş	-6460
▁yalanı	-6461
▁yangın	-6462
▁yanlis	-6463
▁yapmam	-6464
▁yapsın	-6465
▁yaptım	-6466
▁yasını	-6467
▁yatıya	-6468
▁yaşına	-6469
▁yetkil	-6470
▁yollar	-6471
▁yuları	-6472
▁yuttur	-6473
▁zahmet	-6474
▁zamana	-6475
▁zamanı	-6476
▁zilini	-6477
▁çadırı	-6478
▁çaldın	-6479
▁çareyi	-6480
▁çağıra	-6481
▁çektim	-6482
▁çikmis	-6483
▁çivisi	-6484
▁çiğnem	-6485
▁çözdüm	-6486
▁çözdün	-6487
▁çırağı	-6488
▁ödesin	-6489
▁öpücük	-6490
▁üstlük	-6491
▁üzülen	-6492
▁üzülme	-6493
▁ısırdı	-6494
▁ısırır	-6495
▁ışıkta	-6496
▁şakaya	-6497
▁şehire	-6498
▁şehrin	-6499
kapı	-6500
▁ogl	-6501
duysa	-6502
essüm	-6503
okula	-6504
soğuk	-6505
▁hiss	-6506
▁ulaş	-6507
▁umut	-6508
▁vade	-6509
▁adliy	-6510
▁ciddi	-6511
▁cirit	-6512
▁mülki	-6513
▁nemli	-6514
▁tayin	-6515
▁çekip	-6516
▁çoban	-6517
▁ördek	-6518
biletçi	-6519
▁acente	-6520
▁başvur	-6521
▁bomboş	-6522
▁eğitim	-6523
▁haykır	-6524
▁i̇flas	-6525
▁i̇smet	-6526
▁milyar	-6527
▁subayı	-6528
▁teğmen	-6529
▁tıklım	-6530
▁vitesi	-6531
▁çalıyo	-6532
▁üzüntü	-6533
▁şişmiş	-6534
▁şoföre	-6535
▁şurası	-6536
elerimiz	-6537
ememişti	-6538
görmüyor	-6539
haklısın	-6540
hemşerim	-6541
iyorumki	-6542
lerimizi	-6543
luluktan	-6544
lıyorsun	-6545
malarına	-6546
masından	-6547
mazdınız	-6548
mediğini	-6549
melerini	-6550
memektir	-6551
sormayın	-6552
tirmeden	-6553
▁albayın	-6554
▁almadım	-6555
▁almamış	-6556
▁alırsam	-6557
▁alırsın	-6558
▁amerika	-6559
▁annemle	-6560
▁ararken	-6561
▁arasına	-6562
▁araştır	-6563
▁artınca	-6564
▁asılayi	-6565
▁avucunu	-6566
▁ayakkab	-6567
▁ayağını	-6568
▁ağlamış	-6569
▁ağrımaz	-6570
▁bacağın	-6571
▁bakakal	-6572
▁bakalum	-6573
▁bakiyor	-6574
▁barışın	-6575
▁batırıp	-6576
▁batırır	-6577
▁bağırdı	-6578
▁bağırış	-6579
▁başlaya	-6580
▁bebeğim	-6581
▁benimki	-6582
▁berbere	-6583
▁bildiği	-6584
▁biletim	-6585
▁bileyim	-6586
▁bilgiyi	-6587
▁biliriz	-6588
▁binanın	-6589
▁birader	-6590
▁biridir	-6591
▁bitirip	-6592
▁bittiii	-6593
▁bi̇tti̇	-6594
▁boynuna	-6595
▁boyunca	-6596
▁boğulur	-6597
▁bulurum	-6598
▁buranın	-6599
▁tüh	-6600
blebi	-6601
buyur	-6602
▁agır	-6603
▁come	-6604
▁grup	-6605
▁icat	-6606
▁lüks	-6607
▁notu	-6608
ahürat	-6609
casına	-6610
doktor	-6611
faiyec	-6612
humeyi	-6613
itanum	-6614
▁alkol	-6615
▁avust	-6616
▁ehmet	-6617
▁ganem	-6618
▁köfte	-6619
▁leziz	-6620
▁mazer	-6621
▁pelki	-6622
▁rakib	-6623
▁rapor	-6624
▁ödünç	-6625
▁özgür	-6626
baharda	-6627
banttır	-6628
eseydim	-6629
illiams	-6630
pteşamb	-6631
▁aniden	-6632
▁denuza	-6633
▁kırıta	-6634
▁sadaka	-6635
▁salkım	-6636
▁sünnet	-6637
▁teslim	-6638
▁tespih	-6639
▁yatayü	-6640
▁zeynep	-6641
öğretmen	-6642
▁bandıra	-6643
▁bağışla	-6644
▁bismark	-6645
▁bölgede	-6646
▁bükerek	-6647
▁cebimde	-6648
▁cinayet	-6649
▁ciğerin	-6650
▁dağıtıp	-6651
▁deftere	-6652
▁delilik	-6653
▁denedim	-6654
▁denemek	-6655
▁denizde	-6656
▁derdini	-6657
▁dersler	-6658
▁devamlı	-6659
▁değilmi	-6660
▁değişik	-6661
▁dilerim	-6662
▁diyordu	-6663
▁dizilir	-6664
▁doğrusu	-6665
▁doğunca	-6666
▁duruşma	-6667
▁duyuldu	-6668
▁dönemin	-6669
▁dönmeye	-6670
▁dükkanı	-6671
▁dünyada	-6672
▁düşünce	-6673
▁edersin	-6674
▁edilmiş	-6675
▁eklemiş	-6676
▁elmalar	-6677
▁emaneti	-6678
▁etmedin	-6679
▁etmemek	-6680
▁ettiniz	-6681
▁evlerin	-6682
▁falanca	-6683
▁gardrop	-6684
▁garsonu	-6685
▁gecenin	-6686
▁geldiği	-6687
▁gelemem	-6688
▁geliyom	-6689
▁gelmedi	-6690
▁geriden	-6691
▁getirdi	-6692
▁gezmeye	-6693
▁geçelim	-6694
▁gidemez	-6695
▁gideriz	-6696
▁girince	-6697
▁gitmeye	-6698
▁göreyim	-6699
▁fıkra	-6700
▁menej	-6701
irlayip	-6702
▁acıgöl	-6703
▁ayular	-6704
▁gayret	-6705
▁mendil	-6706
▁miktar	-6707
▁ocağum	-6708
▁rağmen	-6709
▁sonucu	-6710
▁ülkede	-6711
arudadur	-6712
lanmayin	-6713
▁asaydum	-6714
▁gururla	-6715
▁gülüyor	-6716
▁gülüşme	-6717
▁gününde	-6718
▁hafifçe	-6719
▁haftada	-6720
▁hakimin	-6721
▁hamamın	-6722
▁hancıya	-6723
▁hareket	-6724
▁harfini	-6725
▁hastaya	-6726
▁hatunla	-6727
▁havuzun	-6728
▁hayatım	-6729
▁hazreti	-6730
▁hazırdı	-6731
▁hepimiz	-6732
▁herkesi	-6733
▁hocamız	-6734
▁hırsızı	-6735
▁ikinizi	-6736
▁ileride	-6737
▁ilgilen	-6738
▁inceler	-6739
▁inerken	-6740
▁intihar	-6741
▁istemem	-6742
▁isterse	-6743
▁isteğim	-6744
▁isteğin	-6745
▁içmeden	-6746
▁işareti	-6747
▁kabahat	-6748
▁kahkaha	-6749
▁kalbine	-6750
▁kapatın	-6751
▁kaptanı	-6752
▁karıştı	-6753
▁karşıki	-6754
▁katırın	-6755
▁kavanoz	-6756
▁kavuğun	-6757
▁kepçeyi	-6758
▁kesmeye	-6759
▁kestiği	-6760
▁kimseye	-6761
▁kişiyle	-6762
▁konulur	-6763
▁konumam	-6764
▁kopacak	-6765
▁korkmuş	-6766
▁kurulur	-6767
▁kuyudan	-6768
▁köydeki	-6769
▁küplere	-6770
▁kırarım	-6771
▁kısmını	-6772
▁kızarak	-6773
▁leblebi	-6774
▁makbule	-6775
▁manevra	-6776
▁masanın	-6777
▁menfaat	-6778
▁meraklı	-6779
▁metresi	-6780
▁metreyi	-6781
▁meyhane	-6782
▁milyonu	-6783
▁mutfağa	-6784
▁muzibin	-6785
▁mübarek	-6786
▁müjdemi	-6787
▁mızrağı	-6788
▁nasihat	-6789
▁nefsime	-6790
▁niyetim	-6791
▁olduğum	-6792
▁olmadan	-6793
▁olmamak	-6794
▁olmuyor	-6795
▁olurlar	-6796
▁olurmuş	-6797
▁olursak	-6798
▁olursan	-6799
▁ormanın	-6800
▁ortalık	-6801
▁oynayan	-6802
▁oynayın	-6803
▁oynuyor	-6804
▁oğlunun	-6805
▁pamuklu	-6806
▁papagan	-6807
▁parayla	-6808
▁parçası	-6809
▁parçayı	-6810
▁patırtı	-6811
▁pazarın	-6812
▁pencere	-6813
▁pilotun	-6814
▁pirenin	-6815
▁poynima	-6816
▁puanlık	-6817
▁rastlar	-6818
▁saatini	-6819
▁sabahın	-6820
▁sanarak	-6821
▁sanıyor	-6822
▁satarım	-6823
▁satmaya	-6824
▁sayfada	-6825
▁sağında	-6826
▁sebeple	-6827
▁senelik	-6828
▁sergide	-6829
▁sevgili	-6830
▁sevinen	-6831
▁sevinir	-6832
▁silince	-6833
▁sirkeyi	-6834
▁si̇gara	-6835
▁sonunun	-6836
▁sorayım	-6837
▁sormaya	-6838
▁sorsana	-6839
▁söylene	-6840
▁tabutun	-6841
▁takımın	-6842
▁tanıyor	-6843
▁tanıyıp	-6844
▁tarafta	-6845
▁tarafın	-6846
▁tarlası	-6847
▁taşiyun	-6848
▁taşınır	-6849
▁tencere	-6850
▁tepeden	-6851
▁topkapı	-6852
▁toprağı	-6853
▁torbası	-6854
▁tutarak	-6855
▁tuvalet	-6856
▁tüyleri	-6857
▁tıraşın	-6858
▁ustanın	-6859
▁uyandım	-6860
▁uyanmış	-6861
▁uyumayı	-6862
▁uzaklaş	-6863
▁uzatmış	-6864
▁uğramış	-6865
▁uğrardı	-6866
▁uğursuz	-6867
▁vakitte	-6868
▁varınca	-6869
▁veririm	-6870
▁veririz	-6871
▁vurmaya	-6872
▁yamazan	-6873
▁yanıbaş	-6874
▁yanımda	-6875
▁yapayum	-6876
▁yarışma	-6877
▁yatakta	-6878
▁yayılır	-6879
▁yazacak	-6880
▁yazayım	-6881
▁yazmamı	-6882
▁yediyuz	-6883
▁yetişir	-6884
▁yetkili	-6885
▁yiyelim	-6886
▁yiyemem	-6887
▁yolumuz	-6888
▁yönelir	-6889
▁yörüğün	-6890
▁yünleri	-6891
▁zamanda	-6892
▁zamanın	-6893
▁zeytine	-6894
▁çakmaya	-6895
▁çalacak	-6896
▁çalındı	-6897
▁çarıklı	-6898
▁çatladi	-6899
▁çavuşum	-6900
▁çayınız	-6901
▁çekelim	-6902
▁çekince	-6903
▁çekiyor	-6904
▁çevreyi	-6905
▁çorbası	-6906
▁çıkarak	-6907
▁çınarın	-6908
▁öldürür	-6909
▁önemsiz	-6910
▁öyledir	-6911
▁öğrenen	-6912
▁üzgünüm	-6913
▁ırmağın	-6914
▁şaşkına	-6915
▁şehirde	-6916
▁şekerim	-6917
▁şekerli	-6918
▁şeyleri	-6919
▁şüpheli	-6920
dıklarını	-6921
ebilirsin	-6922
ediğinden	-6923
efendiler	-6924
iliğinden	-6925
komşusunu	-6926
ladıkları	-6927
laştırmak	-6928
yürüyelim	-6929
ıştırmaya	-6930
▁aceleyle	-6931
▁adamları	-6932
▁afiyetle	-6933
▁ahirette	-6934
▁alacaklı	-6935
▁aldıktan	-6936
▁almasına	-6937
▁alınacak	-6938
▁anahtarı	-6939
▁ankaraya	-6940
▁anlarlar	-6941
▁anırmağa	-6942
▁arabalar	-6943
▁aramakta	-6944
▁askerini	-6945
▁açlıktan	-6946
▁açmışken	-6947
▁açmışlar	-6948
▁açıklama	-6949
▁ağlamaya	-6950
▁bahçeden	-6951
▁bakanlar	-6952
▁başlayan	-6953
▁başımdan	-6954
▁başımıza	-6955
▁başından	-6956
▁bedelini	-6957
▁bekliyor	-6958
▁belinden	-6959
▁birazdan	-6960
▁biriktir	-6961
▁bozmadan	-6962
▁boğazına	-6963
▁bulabilm	-6964
▁burayıda	-6965
▁büyüksün	-6966
▁bıraktım	-6967
▁cebinden	-6968
▁cübbenin	-6969
▁cümlenle	-6970
▁dedikodu	-6971
▁demesine	-6972
▁demiştim	-6973
▁devekusu	-6974
▁dikkatle	-6975
▁dilersen	-6976
▁diyorsun	-6977
▁doldurur	-6978
▁doydunuz	-6979
▁durmadan	-6980
▁dursunla	-6981
▁durumdan	-6982
▁duvarına	-6983
▁duymuyor	-6984
▁dövüşmek	-6985
▁dövüştük	-6986
▁düşündüm	-6987
▁dışarıda	-6988
▁eczaneye	-6989
▁ediyordu	-6990
▁ellerini	-6991
▁eriyecek	-6992
▁esnemeye	-6993
▁evlerine	-6994
▁eşyaları	-6995
▁faturası	-6996
▁fiyatını	-6997
▁fırlatır	-6998
▁gardiyan	-6999
▁gazeteye	-7000
▁gecikmez	-7001
▁gelirken	-7002
▁gereksiz	-7003
▁geçmiyor	-7004
▁gittiler	-7005
▁göbeğini	-7006
▁gömleğim	-7007
▁görseniz	-7008
▁görürler	-7009
▁gösterdi	-7010
▁gösteren	-7011
▁gösterin	-7012
▁gözlerin	-7013
▁gözünden	-7014
▁güzeldir	-7015
▁haftanın	-7016
▁hakkınız	-7017
▁haklısın	-7018
▁haklıyım	-7019
▁hatırdan	-7020
▁hayatını	-7021
▁hayretle	-7022
▁hayvandı	-7023
▁hesabını	-7024
▁hoplayıp	-7025
▁huzuruna	-7026
▁ikisinin	-7027
▁ilaçları	-7028
▁inmişler	-7029
▁istasyon	-7030
▁istediği	-7031
▁istemeyi	-7032
▁içiyorum	-7033
▁işlerine	-7034
▁i̇zleyen	-7035
▁kafesten	-7036
▁kahvaltı	-7037
▁kalkamam	-7038
▁kalkarım	-7039
▁kalmamış	-7040
▁kamuflaj	-7041
▁karalara	-7042
▁kararını	-7043
▁karsilas	-7044
▁karışmış	-7045
▁karşılar	-7046
▁katılmış	-7047
▁kavuğunu	-7048
▁kaybolan	-7049
▁kazanmak	-7050
▁kepçeyle	-7051
▁keserler	-7052
▁kokusunu	-7053
▁konuşmuş	-7054
▁korkarak	-7055
▁korkutup	-7056
▁korkuyor	-7057
▁koymayın	-7058
▁kulaktır	-7059
▁kulağımı	-7060
▁kulağına	-7061
▁kurbanla	-7062
▁kurtarır	-7063
▁kurtuluş	-7064
▁kuruması	-7065
▁kürsüden	-7066
▁kırılmış	-7067
▁kısacası	-7068
▁kıymetli	-7069
▁lüzumsuz	-7070
▁makamına	-7071
▁mektubun	-7072
▁memleket	-7073
▁moralini	-7074
▁namazdan	-7075
▁nasildur	-7076
▁nasuldur	-7077
▁nasıldur	-7078
▁nasılsun	-7079
▁numarası	-7080
▁oduncuya	-7081
▁okyanusu	-7082
▁olacağız	-7083
▁olanlara	-7084
▁olanları	-7085
▁olmuştur	-7086
▁onlardan	-7087
▁otobüste	-7088
▁oturduğu	-7089
▁oyalamak	-7090
▁pantolon	-7091
▁papagana	-7092
▁papağana	-7093
▁paraları	-7094
▁parmağın	-7095
▁petshopa	-7096
▁pildiğum	-7097
▁profesör	-7098
▁rahmetli	-7099
▁randevum	-7100
▁rüzgârlı	-7101
▁saatinde	-7102
▁sakinleş	-7103
▁salaklar	-7104
▁saniyede	-7105
▁satarken	-7106
▁sessizce	-7107
▁sonradan	-7108
▁sormayın	-7109
▁suyundan	-7110
▁söylemek	-7111
▁söylemis	-7112
▁söylenen	-7113
▁söylerim	-7114
▁söylüyor	-7115
▁sıcaktan	-7116
▁sıçrıyor	-7117
▁takılmış	-7118
▁tebessüm	-7119
▁telefonu	-7120
▁temizler	-7121
▁terörist	-7122
▁toplamış	-7123
▁toplayıp	-7124
▁torbadan	-7125
▁torununa	-7126
▁tutuştur	-7127
▁tıpasını	-7128
▁vaktiyle	-7129
▁valizine	-7130
▁vaziyeti	-7131
▁verdiniz	-7132
▁verdiğin	-7133
▁vermeyen	-7134
▁yaptınız	-7135
▁yarısını	-7136
▁yaslanır	-7137
▁yaşlılık	-7138
▁yemekten	-7139
▁yenisini	-7140
▁yetiştir	-7141
▁yiyorsun	-7142
▁yurtları	-7143
▁yüksekçe	-7144
▁yıkamaya	-7145
▁zamandan	-7146
▁çagirmis	-7147
▁çalmakla	-7148
▁çalışmış	-7149
▁çaresine	-7150
▁çarşamba	-7151
▁çarşıdan	-7152
▁çağrılır	-7153
▁çağırmış	-7154
▁çengelin	-7155
▁çevreden	-7156
▁çorbanın	-7157
▁çıkacağı	-7158
▁çıkarmaz	-7159
▁ödeyeyim	-7160
▁ögretmen	-7161
▁öldüğünü	-7162
▁ölmediği	-7163
▁önceleri	-7164
▁önlerine	-7165
▁öğrendim	-7166
▁ücretini	-7167
▁üstünden	-7168
▁üzülerek	-7169
▁şahitler	-7170
▁şehirden	-7171
▁şekerini	-7172
▁şeylerin	-7173
duklarında	-7174
eceklermiş	-7175
iyorlarmis	-7176
i̇i̇i̇i̇i̇	-7177
i̇nanmıyor	-7178
lamaktadır	-7179
larımızdan	-7180
verirsiniz	-7181
▁ablasının	-7182
▁ahbapları	-7183
▁alamayrum	-7184
▁almıyoruz	-7185
▁ameliyatı	-7186
▁arabasını	-7187
▁araştırma	-7188
▁arıyorsun	-7189
▁avukatını	-7190
▁aylarında	-7191
▁açtığımda	-7192
▁açılmıştı	-7193
▁bahçedeki	-7194
▁bahçesine	-7195
▁balondaki	-7196
▁bardaktan	-7197
▁barışırız	-7198
▁bağırarak	-7199
▁başlarına	-7200
▁belirtisi	-7201
▁beraberce	-7202
▁beğendiği	-7203
▁bilmediği	-7204
▁bilmezsin	-7205
▁bilseydim	-7206
▁bineceğim	-7207
▁birisiyle	-7208
▁birkaçını	-7209
▁birşeyler	-7210
▁bittikten	-7211
▁büyüyünce	-7212
▁cenazenin	-7213
▁cevapladı	-7214
▁cevapları	-7215
▁cübbesini	-7216
▁davacıyım	-7217
▁davalının	-7218
▁demokrasi	-7219
▁değirmene	-7220
▁değişiyor	-7221
▁değiştirm	-7222
▁dikmişler	-7223
▁diliyorum	-7224
▁doktoruna	-7225
▁duvardaki	-7226
▁dökmüşler	-7227
▁dükkânına	-7228
▁düşünceli	-7229
▁edilirken	-7230
▁edilmenin	-7231
▁ediyormus	-7232
▁ediyorsun	-7233
▁ellerinde	-7234
▁etkisiyle	-7235
▁etmeyiniz	-7236
▁fırtınaya	-7237
▁geleceğim	-7238
▁gelenlere	-7239
▁gelenleri	-7240
▁gelinceye	-7241
▁geliyorsa	-7242
▁gelmişler	-7243
▁gelmiştir	-7244
▁generalin	-7245
▁getirdiği	-7246
▁getirebil	-7247
▁getirerek	-7248
▁getirmeye	-7249
▁gevşeklik	-7250
▁geçeceğiz	-7251
▁geçmesine	-7252
▁geçtiğini	-7253
▁gideceğim	-7254
▁gidiyordu	-7255
▁girdiğini	-7256
▁gitmesine	-7257
▁gittiğini	-7258
▁göremedik	-7259
▁görevliye	-7260
▁görsünler	-7261
▁görüşürüz	-7262
▁götürmeye	-7263
▁hastaları	-7264
▁hemşehrim	-7265
▁hemşerisi	-7266
▁heyecanla	-7267
▁hoşlanmış	-7268
▁ingiltere	-7269
▁istekleri	-7270
▁i̇ngilize	-7271
▁i̇stersen	-7272
▁kafasında	-7273
▁kalanlara	-7274
▁kalkmamış	-7275
▁kapanırsa	-7276
▁kardeşine	-7277
▁karısının	-7278
▁kazılarda	-7279
▁kaşlarını	-7280
▁kendinden	-7281
▁kesilecek	-7282
▁kirlileri	-7283
▁kollarını	-7284
▁koltunuzu	-7285
▁komadadır	-7286
▁komadayım	-7287
▁komitanum	-7288
▁konuşurum	-7289
▁koparıyor	-7290
▁koyuverir	-7291
▁kulaklığı	-7292
▁kurtarmak	-7293
▁kuyruksuz	-7294
▁köpekleri	-7295
▁köylerden	-7296
▁kıracağız	-7297
▁kızgınlık	-7298
▁madalyayı	-7299
▁mahkemede	-7300
▁misafirim	-7301
▁müşteriye	-7302
▁nerelisun	-7303
▁odacisini	-7304
▁odalarına	-7305
▁olacakmış	-7306
▁olmayacak	-7307
▁oradaydın	-7308
▁ortasında	-7309
▁otobüsüne	-7310
▁oturdular	-7311
▁oturmakta	-7312
▁oymakbeyi	-7313
▁padişahım	-7314
▁parmaklık	-7315
▁parmağımı	-7316
▁parmağını	-7317
▁pazartesi	-7318
▁pilmeyrum	-7319
▁poynundan	-7320
▁ramazanla	-7321
▁röpteşamb	-7322
▁rüyasında	-7323
▁saatlerce	-7324
▁saatlerde	-7325
▁sabahları	-7326
▁sanmıştım	-7327
▁sayesinde	-7328
▁sağındaki	-7329
▁seferinde	-7330
▁sessizlik	-7331
▁soracağım	-7332
▁sormuslar	-7333
▁sorununuz	-7334
▁söylerler	-7335
▁söylersin	-7336
▁söylesene	-7337
▁sözlerine	-7338
▁tanıyorum	-7339
▁tarladaki	-7340
▁taşlardan	-7341
▁tekrardan	-7342
▁temizleye	-7343
▁tencereyi	-7344
▁tezahürat	-7345
▁teşhisini	-7346
▁toprağını	-7347
▁torbasına	-7348
▁ucuzlamış	-7349
▁unutmamak	-7350
▁utanmadan	-7351
▁utanmıyor	-7352
▁uyandırır	-7353
▁uğraşamam	-7354
▁veriyordu	-7355
▁veriyorum	-7356
▁vermiştin	-7357
▁yakalamış	-7358
▁yakalanır	-7359
▁yalnızken	-7360
▁yanındaki	-7361
▁yapabilir	-7362
▁yapacağum	-7363
▁yapayudun	-7364
▁yaptığını	-7365
▁yapıyorum	-7366
▁yarışmaya	-7367
▁yattığını	-7368
▁yaylasına	-7369
▁yazdığını	-7370
▁yazıyorum	-7371
▁yemekleri	-7372
▁yolculuğu	-7373
▁yumurtlam	-7374
▁yürüyerek	-7375
▁zamanının	-7376
▁zenginlik	-7377
▁zıplamaya	-7378
▁çaldığını	-7379
▁çalmasını	-7380
▁çantasını	-7381
▁çarparsak	-7382
▁çarpmasun	-7383
▁çağırarak	-7384
▁çağırılır	-7385
▁çekmişler	-7386
▁çevirerek	-7387
▁çorapları	-7388
▁çorbasını	-7389
▁çıkarınca	-7390
▁öfkelenen	-7391
▁önlerinde	-7392
▁ötekileri	-7393
▁ülkemizde	-7394
abilirsiniz	-7395
▁adamlardan	-7396
▁akşamüzeri	-7397
▁ameri̇kaya	-7398
▁anladığını	-7399
▁anlaşılmış	-7400
▁arabasıyla	-7401
▁atalarımız	-7402
▁ağaçlardan	-7403
▁babasından	-7404
▁bakıyormuş	-7405
▁bakıyorsun	-7406
▁bakışlarla	-7407
▁bağlayarak	-7408
▁başladınız	-7409
▁belirtilen	-7410
▁beğenmedim	-7411
▁biniyorsun	-7412
▁bizimkiler	-7413
▁böylelikle	-7414
▁cephanelik	-7415
▁delikanlıl	-7416
▁delilerden	-7417
▁değiştirin	-7418
▁dinleyeyim	-7419
▁doktorlara	-7420
▁durdurarak	-7421
▁dövüyorlar	-7422
▁esnemeleri	-7423
▁esniyorsun	-7424
▁etmesinler	-7425
▁fırtınadan	-7426
▁geçenlerde	-7427
▁gidecekmiş	-7428
▁gidecektim	-7429
▁gidecektir	-7430
▁gittikleri	-7431
▁gittiğinde	-7432
▁giyiyorsun	-7433
▁gizleyemez	-7434
▁göndererek	-7435
▁görevliler	-7436
▁görünmüyor	-7437
▁görüyorsun	-7438
▁gösteriyor	-7439
▁gülümsemiş	-7440
▁harcanınca	-7441
▁hastalanır	-7442
▁hatırlayıp	-7443
▁havlayarak	-7444
▁hayvanları	-7445
▁ilerlerken	-7446
▁ilgilendir	-7447
▁insanların	-7448
▁isterseniz	-7449
▁istersiniz	-7450
▁izliyormuş	-7451
▁i̇ndiğinde	-7452
▁i̇ngilizce	-7453
▁kademesine	-7454
▁kaldırarak	-7455
▁kapalıymış	-7456
▁kapısından	-7457
▁karanlıkta	-7458
▁karşılaştı	-7459
▁karşılıklı	-7460
▁kaybederim	-7461
▁kaçıyorsun	-7462
▁kendisiyle	-7463
▁kesinlikle	-7464
▁konservatu	-7465
▁konuşmayın	-7466
▁konuşmuyor	-7467
▁kovulduğum	-7468
▁koyulaştır	-7469
▁koşamazsın	-7470
▁kullanmaya	-7471
▁kurtulmağa	-7472
▁küçüğünden	-7473
▁memlekette	-7474
▁motorundan	-7475
▁nalbanttır	-7476
▁namazından	-7477
▁pağladığum	-7478
▁sabahleyin	-7479
▁sahibinden	-7480
▁salıyorlar	-7481
▁sesleniyor	-7482
▁sivrihisar	-7483
▁soracaktım	-7484
▁soruyorlar	-7485
▁söylenmeye	-7486
▁söyleyecek	-7487
▁söyleyerek	-7488
▁söyleyeyim	-7489
▁sıklaşınca	-7490
▁sıralardan	-7491
▁tanımayrum	-7492
▁tarafından	-7493
▁temizlemek	-7494
▁tencerenin	-7495
▁tezgahtara	-7496
▁tezgahtarı	-7497
▁uykusuzluk	-7498
▁uyurlarken	-7499
▁uyuyamadım	-7500
▁uçağımızın	-7501
▁uğradığını	-7502
▁vardığında	-7503
▁vurulduğum	-7504
▁yaklaşınca	-7505
▁yakınından	-7506
▁yanlarında	-7507
▁yapmişudum	-7508
▁yaptığımız	-7509
▁yapıştırdı	-7510
▁yaylamızın	-7511
▁yazıyorsun	-7512
▁yaşındasın	-7513
▁yedi̇recek	-7514
▁yürüyorlar	-7515
▁zamanlarda	-7516
▁zannederek	-7517
▁zannediyor	-7518
▁ziyaretine	-7519
▁zıplayarak	-7520
▁çadırımızı	-7521
▁çalışanlar	-7522
▁çekilirler	-7523
▁çocuklarun	-7524
▁çıkarırlar	-7525
▁çıkmıyordu	-7526
▁çıktığında	-7527
▁ödeyeceğim	-7528
▁öğrencinin	-7529
▁üzerindeki	-7530
hemşerilerim	-7531
▁adamlardaki	-7532
▁anlayamadım	-7533
▁aralarından	-7534
▁ayakkabılar	-7535
▁bağırmışlar	-7536
▁beklemekten	-7537
▁bilemeyecek	-7538
▁bilmediğini	-7539
▁birbirinden	-7540
▁bitirdikten	-7541
▁burunlarına	-7542
▁dayanamayan	-7543
▁değerlendir	-7544
▁değiştirdim	-7545
▁değiştirmem	-7546
▁dinledikten	-7547
▁dostlarıyla	-7548
▁dısarudadur	-7549
▁efendimizin	-7550
▁emrediyorum	-7551
▁eşeklerinin	-7552
▁gazeteciler	-7553
▁gazetelerde	-7554
▁gelmediğini	-7555
▁giderlerken	-7556
▁gitmelerini	-7557
▁göstermeyen	-7558
▁güzelliğine	-7559
▁hastanesini	-7560
▁hemşerisine	-7561
▁huysuzlanır	-7562
▁hınklarının	-7563
▁indirdikten	-7564
▁iskeletidir	-7565
▁izleyeceğum	-7566
▁i̇ngilizler	-7567
▁kanatlarını	-7568
▁kayseriliye	-7569
▁mayalıyorum	-7570
▁misafirlere	-7571
▁mollalarına	-7572
▁müslümanlar	-7573
▁oturdukları	-7574
▁oyuncağının	-7575
▁pazarlıktan	-7576
▁sandalyeyle	-7577
▁satıldığını	-7578
▁sonuçlarına	-7579
▁televizyonu	-7580
▁yanlarından	-7581
▁yapabilirim	-7582
▁yapıştırmış	-7583
▁yetmiyormuş	-7584
▁yıldızların	-7585
▁zehirlenmiş	-7586
▁çarpışmadan	-7587
▁çevirmezsen	-7588
▁çıkardıktan	-7589
▁çıkarmışlar	-7590
▁öğrenememiş	-7591
▁şahitlerden	-7592
▁şişireceğim	-7593
▁alışverişten	-7594
▁anlatmayayım	-7595
▁bahçesindeki	-7596
▁başucumdasın	-7597
▁beyendinizmi	-7598
▁boşaltıyorum	-7599
▁diyeceklerin	-7600
▁düşünüyorsun	-7601
▁ediyorlarmış	-7602
▁elbiselerini	-7603
▁erzurumluyum	-7604
▁gazetecilere	-7605
▁gerekiyormuş	-7606
▁geçirdiğimde	-7607
▁gidiyorsunuz	-7608
▁görüyorsunuz	-7609
▁hemşerilerim	-7610
▁ilgisizliğin	-7611
▁incelediğini	-7612
▁kaldıramadım	-7613
▁kayseriliden	-7614
▁kayınvalidem	-7615
▁konuşulurken	-7616
▁konuşuyorlar	-7617
▁lokantaların	-7618
▁mendillerini	-7619
▁merdivenleri	-7620
▁mevsimlerden	-7621
▁mutluluğunda	-7622
▁mırıldanarak	-7623
▁okuyamıyorum	-7624
▁papağanların	-7625
▁parmaklarını	-7626
▁soruyorsunuz	-7627
▁yapılacaktır	-7628
▁yatıştırmaya	-7629
▁yaylamızdaki	-7630
▁arkadaşlardan	-7631
▁başucumdaydın	-7632
▁birbirleriyle	-7633
▁bıldırcınları	-7634
▁dayanamayarak	-7635
▁dinliyorlardı	-7636
▁düşüncelerimi	-7637
▁düşünmektedir	-7638
▁geldiklerinde	-7639
▁gerekmektedir	-7640
▁göremiyorumki	-7641
▁hastanesinden	-7642
▁karadenizliye	-7643
▁karşılaşırlar	-7644
▁kendiliğinden	-7645
▁kompartımanda	-7646
▁müşterilerden	-7647
▁söylemektedir	-7648
▁uzaklaştırmak	-7649
▁yakalanışında	-7650
▁yürüyorlarmış	-7651
i̇nanmıyorsanız	-7652
▁arkadaşlarıyla	-7653
▁düşünüyorsunuz	-7654
▁etrafındakiler	-7655
▁götürüyorlardı	-7656
▁karadenizliler	-7657
▁karadenizlinin	-7658
▁konuşuyorlardı	-7659
▁kızıldereliler	-7660
▁oturuyorlarmış	-7661
▁salıverirsiniz	-7662
▁sevdirememişti	-7663
▁arkadaşlarından	-7664
▁hemşerilerinden	-7665
▁karıştırıyormuş	-7666
▁karşılaştıkları	-7667
▁kullanmışlardır	-7668
▁motorlarımızdan	-7669
▁çalışanlarından	-7670
,1	-7671
.’	-7672
0,	-7673
1.	-7674
13	-7675
2'	-7676
5.	-7677
bö	-7678
cö	-7679
dd	-7680
dy	-7681
gz	-7682
hh	-7683
hr	-7684
ie	-7685
ig	-7686
mz	-7687
na	-7688
ni	-7689
no	-7690
od	-7691
og	-7692
pe	-7693
pi	-7694
ua	-7695
vo	-7696
yu	-7697
yy	-7698
yü	-7699
.1	-7700
to	-7701
zü	-7702
zı	-7703
âd	-7704
âm	-7705
çü	-7706
ök	-7707
öt	-7708
ıh	-7709
ıı	-7710
şı	-7711
̇ğ	-7712
▁'	-7713
adi	-7714
ale	-7715
amp	-7716
ard	-7717
arl	-7718
bas	-7719
bim	-7720
bin	-7721
cin	-7722
cüm	-7723
dah	-7724
def	-7725
ekm	-7726
ese	-7727
eyh	-7728
eyv	-7729
fer	-7730
fin	-7731
fir	-7732
him	-7733
hir	-7734
hor	-7735
iir	-7736
inm	-7737
irr	-7738
irt	-7739
iym	-7740
i̇d	-7741
kas	-7742
kta	-7743
lal	-7744
mar	-7745
maç	-7746
mda	-7747
oop	-7748
ova	-7749
oşu	-7750
per	-7751
pin	-7752
rek	-7753
rım	-7754
sir	-7755
tab	-7756
tok	-7757
tüü	-7758
ulu	-7759
unç	-7760
yaj	-7761
yam	-7762
yük	-7763
zem	-7764
zen	-7765
zor	-7766
âli	-7767
çar	-7768
çtü	-7769
ükr	-7770
üth	-7771
üzü	-7772
ğuş	-7773
ınt	-7774
şın	-7775
▁ci	-7776
▁cm	-7777
▁ee	-7778
▁go	-7779
▁gı	-7780
▁hz	-7781
▁hü	-7782
▁ii	-7783
▁iğ	-7784
▁kl	-7785
▁na	-7786
▁oh	-7787
▁sh	-7788
▁vb	-7789
▁yi	-7790
aben	-7791
adir	-7792
adta	-7793
ahta	-7794
alat	-7795
alim	-7796
alya	-7797
amay	-7798
amuy	-7799
akk	-7800
gis	-7801
iza	-7802
işi	-7803
kal	-7804
ore	-7805
pol	-7806
vam	-7807
vel	-7808
yun	-7809
üyi	-7810
ıca	-7811
ıır	-7812
▁15	-7813
▁to	-7814
▁üm	-7815
anun	-7816
anış	-7817
ardı	-7818
asıy	-7819
atma	-7820
atum	-7821
atur	-7822
atıp	-7823
ayır	-7824
ayıt	-7825
açaç	-7826
ağım	-7827
burt	-7828
deme	-7829
desi	-7830
di̇m	-7831
dığo	-7832
eman	-7833
emed	-7834
emel	-7835
enem	-7836
enge	-7837
erey	-7838
esik	-7839
gele	-7840
gını	-7841
idir	-7842
idur	-7843
iker	-7844
ilce	-7845
ileş	-7846
imli	-7847
iriz	-7848
isan	-7849
iyak	-7850
iyes	-7851
iğer	-7852
iğin	-7853
ksiz	-7854
kını	-7855
lana	-7856
larm	-7857
ldun	-7858
liya	-7859
mişe	-7860
ones	-7861
plik	-7862
rmuş	-7863
sede	-7864
si̇z	-7865
sule	-7866
teke	-7867
tika	-7868
tmiş	-7869
ucak	-7870
umda	-7871
unce	-7872
unur	-7873
uzce	-7874
yook	-7875
zden	-7876
önce	-7877
ütun	-7878
ılar	-7879
ıllı	-7880
ınma	-7881
ışık	-7882
̇ği̇	-7883
▁12'	-7884
▁afr	-7885
▁ala	-7886
▁alı	-7887
▁amp	-7888
▁bad	-7889
▁bem	-7890
▁bre	-7891
▁dar	-7892
▁day	-7893
▁dom	-7894
▁edi	-7895
▁ert	-7896
▁fbi	-7897
▁gib	-7898
▁gul	-7899
ami	-7900
atı	-7901
eyy	-7902
gay	-7903
lee	-7904
lil	-7905
teş	-7906
tüğ	-7907
üle	-7908
şim	-7909
▁20	-7910
▁va	-7911
aray	-7912
asam	-7913
bilm	-7914
grul	-7915
iyan	-7916
koca	-7917
likt	-7918
olar	-7919
staf	-7920
ti̇m	-7921
uyuk	-7922
▁dır	-7923
▁hen	-7924
▁huk	-7925
▁ing	-7926
▁iyp	-7927
▁i̇t	-7928
▁kef	-7929
▁kel	-7930
▁kud	-7931
▁meg	-7932
▁nah	-7933
▁naz	-7934
▁nuh	-7935
▁olt	-7936
▁ooo	-7937
▁pur	-7938
▁pür	-7939
▁rol	-7940
▁sem	-7941
▁sun	-7942
▁sül	-7943
▁sım	-7944
▁sıy	-7945
▁tap	-7946
▁tir	-7947
▁ton	-7948
▁tım	-7949
▁vil	-7950
▁vir	-7951
▁vıy	-7952
▁yel	-7953
▁yik	-7954
▁yin	-7955
▁çut	-7956
▁çıt	-7957
▁öğü	-7958
▁şiç	-7959
abbet	-7960
abına	-7961
adama	-7962
ahayı	-7963
andan	-7964
ansiz	-7965
areyi	-7966
asini	-7967
ayağı	-7968
banın	-7969
berim	-7970
biden	-7971
deniz	-7972
deril	-7973
derse	-7974
desin	-7975
desun	-7976
dince	-7977
duyla	-7978
dırıp	-7979
efsiz	-7980
eketi	-7981
ektin	-7982
enmiş	-7983
eraya	-7984
eriye	-7985
eri̇ç	-7986
eteor	-7987
etmiş	-7988
falar	-7989
geldi	-7990
grult	-7991
gılan	-7992
gımız	-7993
haklı	-7994
iiirr	-7995
imasi	-7996
indir	-7997
inmey	-7998
islar	-7999
eks	-8000
fuz	-8001
hek	-8002
res	-8003
sta	-8004
tal	-8005
üşü	-8006
ğru	-8007
▁nö	-8008
▁nı	-8009
atür	-8010
buna	-8011
hane	-8012
irum	-8013
izat	-8014
otun	-8015
oşup	-8016
üfek	-8017
ılız	-8018
▁buj	-8019
▁dad	-8020
▁dah	-8021
▁ell	-8022
▁hom	-8023
▁önü	-8024
adana	-8025
ahmak	-8026
canım	-8027
doğru	-8028
edres	-8029
hizat	-8030
itmiş	-8031
iycek	-8032
iyken	-8033
iylan	-8034
işine	-8035
i̇men	-8036
i̇ni̇	-8037
kence	-8038
kudur	-8039
lamın	-8040
larca	-8041
ledim	-8042
lerun	-8043
luğum	-8044
metik	-8045
miyes	-8046
mzuna	-8047
nedil	-8048
olulu	-8049
ondan	-8050
onluk	-8051
opter	-8052
orada	-8053
redur	-8054
stafa	-8055
stemi	-8056
sunda	-8057
sunde	-8058
tanrı	-8059
tingi	-8060
tiram	-8061
tliğe	-8062
tuğum	-8063
umayı	-8064
urgan	-8065
urmet	-8066
ussuz	-8067
uğumu	-8068
uşunu	-8069
ymi̇ş	-8070
âffuz	-8071
üsten	-8072
üydüm	-8073
ıptır	-8074
ıtını	-8075
ışırd	-8076
̇mdi̇	-8077
▁...”	-8078
▁100'	-8079
▁acır	-8080
▁adem	-8081
▁aksi	-8082
▁alab	-8083
▁alda	-8084
▁alun	-8085
▁anad	-8086
▁aral	-8087
▁arke	-8088
▁atin	-8089
▁ayla	-8090
▁bili	-8091
▁bina	-8092
▁bini	-8093
▁bire	-8094
▁bişe	-8095
▁boğa	-8096
▁cell	-8097
▁dair	-8098
▁dörd	-8099
ase	-8100
has	-8101
pta	-8102
sit	-8103
sol	-8104
yas	-8105
adin	-8106
ikam	-8107
ikan	-8108
imay	-8109
işti	-8110
usuz	-8111
ükür	-8112
üşür	-8113
▁aya	-8114
▁hım	-8115
▁kuc	-8116
irtti	-8117
kipta	-8118
memiz	-8119
serum	-8120
solos	-8121
tüşür	-8122
yassı	-8123
ülere	-8124
▁aşka	-8125
▁bela	-8126
▁bula	-8127
▁eyip	-8128
▁eğir	-8129
▁fırt	-8130
▁geze	-8131
▁gunu	-8132
▁göst	-8133
▁herh	-8134
▁hoce	-8135
▁hoşn	-8136
▁ikis	-8137
▁i̇çi	-8138
▁kahr	-8139
▁kaşı	-8140
▁kili	-8141
▁körü	-8142
▁köse	-8143
▁kılç	-8144
▁lazi	-8145
▁mahv	-8146
▁minb	-8147
▁nede	-8148
▁nice	-8149
▁oken	-8150
▁onda	-8151
▁park	-8152
▁pirz	-8153
▁soyl	-8154
▁suna	-8155
▁sürg	-8156
▁sütü	-8157
▁taks	-8158
▁vali	-8159
▁yazi	-8160
▁zümr	-8161
▁çaba	-8162
▁ölüm	-8163
▁özgü	-8164
▁özne	-8165
▁öğün	-8166
▁şart	-8167
▁şöyl	-8168
acaktı	-8169
acımız	-8170
ademiş	-8171
adıkça	-8172
alanan	-8173
alyaya	-8174
amanın	-8175
ametin	-8176
amının	-8177
antaya	-8178
apalım	-8179
arzdır	-8180
asaray	-8181
asebet	-8182
asinin	-8183
ayacak	-8184
ayetum	-8185
babamı	-8186
birine	-8187
buldum	-8188
caksın	-8189
cekler	-8190
cektin	-8191
dadına	-8192
dirici	-8193
duğumu	-8194
ediğim	-8195
elemiş	-8196
emişçi	-8197
endeki	-8198
esiniz	-8199
avi	-8200
buk	-8201
eda	-8202
niz	-8203
taş	-8204
çil	-8205
ülb	-8206
üya	-8207
▁pl	-8208
adad	-8209
adet	-8210
alik	-8211
avat	-8212
aşir	-8213
aşın	-8214
buki	-8215
edek	-8216
ediy	-8217
ende	-8218
ilır	-8219
leme	-8220
ıyız	-8221
▁bag	-8222
▁büs	-8223
▁iad	-8224
▁maş	-8225
▁pi̇	-8226
erdim	-8227
ilmaz	-8228
lemiş	-8229
remiş	-8230
çiluk	-8231
ülbül	-8232
ışlar	-8233
▁büsb	-8234
▁huyi	-8235
▁imza	-8236
▁mavi	-8237
▁plân	-8238
▁rüya	-8239
▁seda	-8240
adadur	-8241
alıyız	-8242
delide	-8243
eyerek	-8244
eyidun	-8245
eyisun	-8246
eyyusu	-8247
hekime	-8248
ifatur	-8249
ilinin	-8250
ilırum	-8251
irahat	-8252
iterek	-8253
izliye	-8254
izliğa	-8255
iğudur	-8256
i̇ni̇n	-8257
karpin	-8258
kimdir	-8259
lemdir	-8260
leymiş	-8261
lülere	-8262
lıkken	-8263
lığına	-8264
meleri	-8265
orunuz	-8266
retmiş	-8267
stadta	-8268
sundan	-8269
takine	-8270
terimi	-8271
turmaz	-8272
ucuğum	-8273
ukları	-8274
usunda	-8275
usunun	-8276
verdim	-8277
âdişah	-8278
çekten	-8279
ökmeye	-8280
übeyle	-8281
ümeden	-8282
ümüzde	-8283
ılınca	-8284
ınmaya	-8285
ışıdır	-8286
şındır	-8287
▁affet	-8288
▁alını	-8289
▁aradı	-8290
▁astık	-8291
▁atlet	-8292
▁attan	-8293
▁açmis	-8294
▁badem	-8295
▁bakim	-8296
▁bakra	-8297
▁basta	-8298
▁bekar	-8299
ath	-8300
bat	-8301
bi̇	-8302
izi	-8303
pte	-8304
ude	-8305
yet	-8306
çlı	-8307
alet	-8308
aset	-8309
atay	-8310
else	-8311
ence	-8312
eriz	-8313
eten	-8314
etur	-8315
eyet	-8316
eğun	-8317
i̇yi	-8318
kedi	-8319
▁izc	-8320
▁kiz	-8321
▁nik	-8322
athro	-8323
izeye	-8324
iğimi	-8325
laştı	-8326
▁dili	-8327
▁odas	-8328
▁terl	-8329
▁yusu	-8330
▁şeri	-8331
bilmiş	-8332
cağizi	-8333
elsefi	-8334
ibinde	-8335
olojik	-8336
ulurmi	-8337
▁aksam	-8338
▁bilip	-8339
▁biran	-8340
▁boyar	-8341
▁bozul	-8342
▁bozup	-8343
▁boşun	-8344
▁calay	-8345
▁cidey	-8346
▁cılız	-8347
▁daima	-8348
▁damat	-8349
▁dedem	-8350
▁demez	-8351
▁demin	-8352
▁deney	-8353
▁deriz	-8354
▁desem	-8355
▁desin	-8356
▁değul	-8357
▁dille	-8358
▁dinle	-8359
▁diyey	-8360
▁dolar	-8361
▁dosta	-8362
▁dükkâ	-8363
▁elekt	-8364
▁elime	-8365
▁erler	-8366
▁evini	-8367
▁eşoğl	-8368
▁eşraf	-8369
▁fadim	-8370
▁fadum	-8371
▁farkı	-8372
▁fikra	-8373
▁filme	-8374
▁fiyak	-8375
▁getur	-8376
▁gevez	-8377
▁geçim	-8378
▁geçin	-8379
▁gitse	-8380
▁giyip	-8381
▁gömül	-8382
▁göriy	-8383
▁güldü	-8384
▁gülme	-8385
▁halik	-8386
▁handa	-8387
▁hayra	-8388
▁hâlin	-8389
▁hüsam	-8390
▁imkan	-8391
▁inler	-8392
▁içsem	-8393
▁içtik	-8394
▁işler	-8395
▁i̇nan	-8396
▁kabil	-8397
▁kalbi	-8398
▁kalma	-8399
ciz	-8400
cım	-8401
ide	-8402
ona	-8403
yap	-8404
ıms	-8405
▁ög	-8406
afat	-8407
akla	-8408
amız	-8409
asta	-8410
elum	-8411
irip	-8412
iyon	-8413
lıdı	-8414
ohum	-8415
umin	-8416
ümün	-8417
▁31.	-8418
▁hic	-8419
▁mum	-8420
▁çap	-8421
agona	-8422
amıza	-8423
daydı	-8424
etine	-8425
leriz	-8426
uklar	-8427
ulsun	-8428
▁aker	-8429
▁değm	-8430
▁olir	-8431
▁öbur	-8432
ayiler	-8433
cizesi	-8434
durlar	-8435
ememis	-8436
latmak	-8437
ümünde	-8438
▁anıms	-8439
▁galat	-8440
▁ilanı	-8441
▁kapıl	-8442
▁kaçir	-8443
▁kerim	-8444
▁kesti	-8445
▁kirli	-8446
▁kişis	-8447
▁kişiy	-8448
▁klini	-8449
▁kokan	-8450
▁konan	-8451
▁kopya	-8452
▁kulaç	-8453
▁kuruy	-8454
▁kıyas	-8455
▁kızdı	-8456
▁lamba	-8457
▁liram	-8458
▁makas	-8459
▁miden	-8460
▁midir	-8461
▁minik	-8462
▁miyum	-8463
▁muzik	-8464
▁mükem	-8465
▁nişan	-8466
▁nöbet	-8467
▁oksit	-8468
▁onunu	-8469
▁oğlun	-8470
▁paska	-8471
▁piraz	-8472
▁pozuk	-8473
▁receb	-8474
▁ricam	-8475
▁satıy	-8476
▁sağol	-8477
▁sağır	-8478
▁sezin	-8479
▁silip	-8480
▁sizde	-8481
▁sorum	-8482
▁subay	-8483
▁suçlu	-8484
▁sürüc	-8485
▁sırıl	-8486
▁taşit	-8487
▁taşım	-8488
▁temek	-8489
▁terli	-8490
▁tohum	-8491
▁tükür	-8492
▁varan	-8493
▁varın	-8494
▁vurur	-8495
▁yakut	-8496
▁yanay	-8497
▁yapap	-8498
▁yapış	-8499
dit	-8500
iğe	-8501
yle	-8502
abet	-8503
aşla	-8504
ereç	-8505
esen	-8506
esim	-8507
▁bud	-8508
▁deş	-8509
▁pan	-8510
▁pay	-8511
▁pin	-8512
▁çes	-8513
▁şar	-8514
arişi	-8515
dilar	-8516
yaşlı	-8517
ükken	-8518
ımdır	-8519
▁atta	-8520
▁huyu	-8521
▁hâlâ	-8522
▁kaçı	-8523
▁olağ	-8524
▁tarl	-8525
▁usan	-8526
duymaz	-8527
eyirum	-8528
unuzun	-8529
ısıyım	-8530
▁deşik	-8531
▁gereç	-8532
▁kapar	-8533
▁ordun	-8534
▁tutup	-8535
▁yanda	-8536
▁yaram	-8537
▁yazdı	-8538
▁yazsa	-8539
▁yaşta	-8540
▁yemin	-8541
▁yerse	-8542
▁yorma	-8543
▁yorum	-8544
▁yunur	-8545
▁yüklü	-8546
▁zilin	-8547
▁ziyan	-8548
▁zorla	-8549
▁çabal	-8550
▁çatır	-8551
▁çeşme	-8552
▁çıksa	-8553
▁ödlek	-8554
▁öttür	-8555
▁üçünc	-8556
▁şubat	-8557
▁şunun	-8558
adandır	-8559
alarına	-8560
allahi̇	-8561
anamadı	-8562
anlarda	-8563
anıştın	-8564
ayanlar	-8565
bakanın	-8566
cısıyım	-8567
dalalık	-8568
danmaya	-8569
ebildin	-8570
ecektin	-8571
edirgin	-8572
ekteydi	-8573
esizluk	-8574
etirler	-8575
etmenin	-8576
eyirmuş	-8577
eğinden	-8578
eğinizi	-8579
gulamak	-8580
hayrola	-8581
ilirsin	-8582
i̇rsi̇n	-8583
kapının	-8584
katında	-8585
lasıyla	-8586
layamay	-8587
lenirim	-8588
liğimde	-8589
lüğünde	-8590
lıyordu	-8591
lığınız	-8592
meliyim	-8593
raaaaya	-8594
ranonun	-8595
sizliği	-8596
tiğinin	-8597
unuzdan	-8598
unuzdur	-8599
ida	-8600
▁ür	-8601
amda	-8602
gaha	-8603
ipor	-8604
orik	-8605
ymiş	-8606
ıldi	-8607
▁efe	-8608
▁sag	-8609
aline	-8610
asimi	-8611
enlik	-8612
fanın	-8613
hepsi	-8614
mağin	-8615
tamal	-8616
çiler	-8617
ırmış	-8618
▁buda	-8619
▁derd	-8620
▁elli	-8621
▁erin	-8622
▁iyic	-8623
▁kura	-8624
▁sora	-8625
▁sorg	-8626
▁sırr	-8627
▁teli	-8628
▁çayl	-8629
▁üret	-8630
ayurum	-8631
ayısun	-8632
deli̇m	-8633
idymiş	-8634
ipordr	-8635
mişsun	-8636
ralmış	-8637
tıları	-8638
▁adamu	-8639
▁bunca	-8640
▁dalar	-8641
▁defol	-8642
▁derdi	-8643
▁eğmiş	-8644
▁hanno	-8645
▁kaldi	-8646
▁kaçıp	-8647
▁kâfir	-8648
▁nefis	-8649
▁paşka	-8650
▁sakat	-8651
▁sıvar	-8652
▁tasla	-8653
▁vuran	-8654
▁yüreğ	-8655
▁yürüt	-8656
▁çıkın	-8657
▁üstün	-8658
duğunuz	-8659
ipordro	-8660
kenleri	-8661
veceğiz	-8662
çilerin	-8663
ümesten	-8664
ışından	-8665
▁adamak	-8666
▁adamdi	-8667
▁adamım	-8668
▁adanın	-8669
▁akadaş	-8670
▁albaya	-8671
▁almayı	-8672
▁alınca	-8673
▁alınır	-8674
▁amelim	-8675
▁anırma	-8676
▁ayşeyi	-8677
▁ağabey	-8678
▁ağacık	-8679
▁ağlama	-8680
▁ağzımı	-8681
▁baksın	-8682
▁basvur	-8683
▁bağlas	-8684
▁bağrış	-8685
▁bağına	-8686
▁başıma	-8687
▁belirl	-8688
▁beraat	-8689
▁berbat	-8690
▁beyenm	-8691
▁bilgin	-8692
▁bilsen	-8693
▁bilsin	-8694
▁bi̇ttt	-8695
▁branda	-8696
▁buzağı	-8697
▁canlan	-8698
▁cemale	-8699
cuk	-8700
▁üy	-8701
ağab	-8702
ceuk	-8703
dest	-8704
diyi	-8705
gıya	-8706
stir	-8707
stır	-8708
▁alo	-8709
▁hüc	-8710
▁oğr	-8711
▁tec	-8712
aleli	-8713
arlör	-8714
ecede	-8715
inize	-8716
stlar	-8717
urmuş	-8718
▁alel	-8719
▁beey	-8720
▁hi̇ç	-8721
▁paşa	-8722
▁spor	-8723
▁tecr	-8724
▁verd	-8725
aniler	-8726
dakine	-8727
dığımı	-8728
faktan	-8729
yormuş	-8730
▁boylu	-8731
▁böldü	-8732
▁diyip	-8733
▁evire	-8734
▁geliy	-8735
▁hücum	-8736
▁istop	-8737
▁kilit	-8738
▁mucuk	-8739
▁neyse	-8740
▁verem	-8741
▁veril	-8742
▁veriş	-8743
▁yolun	-8744
ağabeyi	-8745
birinin	-8746
dostlar	-8747
ehaneye	-8748
ledemiş	-8749
ışmıştı	-8750
▁abdest	-8751
▁alelac	-8752
▁belleğ	-8753
▁cümlem	-8754
▁daldır	-8755
▁dedeye	-8756
▁defnet	-8757
▁delide	-8758
▁demesi	-8759
▁denizc	-8760
▁derman	-8761
▁dersem	-8762
▁dersen	-8763
▁deği̇l	-8764
▁dilini	-8765
▁direği	-8766
▁doysun	-8767
▁dumanı	-8768
▁durduk	-8769
▁durmaz	-8770
▁dursin	-8771
▁duydun	-8772
▁duymaz	-8773
▁dışını	-8774
▁ekeyim	-8775
▁ekledi	-8776
▁evimde	-8777
▁eşşeğe	-8778
▁farklı	-8779
▁fiziği	-8780
▁gecede	-8781
▁gecesi	-8782
▁gelmek	-8783
▁gelsem	-8784
▁gezint	-8785
▁giydim	-8786
▁görmem	-8787
▁haksız	-8788
▁haline	-8789
▁handan	-8790
▁havlar	-8791
▁helada	-8792
▁hoşgel	-8793
▁ibadet	-8794
▁inelim	-8795
▁ininin	-8796
▁inmeye	-8797
▁insanı	-8798
▁içeyim	-8799
iki	-8800
zik	-8801
üze	-8802
▁li	-8803
amis	-8804
eris	-8805
hini	-8806
isiz	-8807
isur	-8808
iyla	-8809
jına	-8810
muda	-8811
nini	-8812
onla	-8813
umla	-8814
unla	-8815
▁kip	-8816
▁urk	-8817
amadı	-8818
deler	-8819
denin	-8820
muşum	-8821
nasıl	-8822
üzdan	-8823
üzden	-8824
üğünü	-8825
▁ayda	-8826
▁ilki	-8827
▁sini	-8828
afonla	-8829
indaki	-8830
patron	-8831
ınladı	-8832
▁affed	-8833
▁almuş	-8834
▁amacı	-8835
▁azami	-8836
▁beyin	-8837
▁büktü	-8838
▁durdu	-8839
▁emzik	-8840
▁günüm	-8841
▁kalit	-8842
▁lider	-8843
▁sargı	-8844
▁seven	-8845
▁çakam	-8846
aceraya	-8847
arajına	-8848
ayalara	-8849
diyeris	-8850
retmeye	-8851
ücüğünü	-8852
ımızdır	-8853
▁aynada	-8854
▁babaan	-8855
▁bildin	-8856
▁cüzdan	-8857
▁geçmen	-8858
▁hakiki	-8859
▁içince	-8860
▁içmeye	-8861
▁işimiz	-8862
▁i̇kisi	-8863
▁i̇sted	-8864
▁i̇çeri	-8865
▁kahret	-8866
▁kalanı	-8867
▁kaldığ	-8868
▁kaliyi	-8869
▁kaplat	-8870
▁karmak	-8871
▁karnın	-8872
▁karına	-8873
▁kaynan	-8874
▁kaynat	-8875
▁kaynağ	-8876
▁kaçtır	-8877
▁kimsem	-8878
▁konmuş	-8879
▁kopmuş	-8880
▁korkup	-8881
▁koymak	-8882
▁koymus	-8883
▁kulağa	-8884
▁küpüne	-8885
▁kürsüs	-8886
▁kırkın	-8887
▁lastik	-8888
▁lesini	-8889
▁miydim	-8890
▁muhtaç	-8891
▁muydum	-8892
▁nerdey	-8893
▁nettin	-8894
▁niçini	-8895
▁oduncu	-8896
▁okunup	-8897
▁okuyor	-8898
▁olanın	-8899
oli	-8900
uyk	-8901
▁ra	-8902
anıp	-8903
eruz	-8904
evam	-8905
imuz	-8906
inti	-8907
irla	-8908
uzun	-8909
öbür	-8910
üydü	-8911
▁aaa	-8912
▁bra	-8913
▁tüş	-8914
ataya	-8915
dayız	-8916
ladim	-8917
uzler	-8918
▁elim	-8919
▁etin	-8920
▁içun	-8921
▁mert	-8922
▁onur	-8923
▁poli	-8924
▁sonu	-8925
▁çaya	-8926
etiyor	-8927
evamli	-8928
iliyor	-8929
likler	-8930
uykumu	-8931
uyoruz	-8932
öbürün	-8933
▁ayran	-8934
▁bravo	-8935
▁dicek	-8936
▁ikinc	-8937
▁köpür	-8938
▁raund	-8939
▁savcı	-8940
▁tüşti	-8941
▁yaaaa	-8942
▁yiyor	-8943
▁yırtı	-8944
▁öküzü	-8945
undayız	-8946
▁antika	-8947
▁avluda	-8948
▁başini	-8949
▁dişimi	-8950
▁eleman	-8951
▁gezmiş	-8952
▁iyiluk	-8953
▁kalmak	-8954
▁olsuna	-8955
▁olumlu	-8956
▁olurmu	-8957
▁omzuna	-8958
▁onurlu	-8959
▁oturum	-8960
▁oğulum	-8961
▁pamuğu	-8962
▁parlar	-8963
▁paslat	-8964
▁pastır	-8965
▁patlat	-8966
▁postan	-8967
▁rektif	-8968
▁renkli	-8969
▁sahtek	-8970
▁sandım	-8971
▁santim	-8972
▁savaşa	-8973
▁sayısı	-8974
▁sağdan	-8975
▁sensin	-8976
▁sersem	-8977
▁sesine	-8978
▁silahi	-8979
▁siyaha	-8980
▁sokmuş	-8981
▁sollan	-8982
▁sorduğ	-8983
▁söndüğ	-8984
▁söyliy	-8985
▁sürgüs	-8986
▁sürçtü	-8987
▁tamamı	-8988
▁tamire	-8989
▁tastan	-8990
▁tatlıy	-8991
▁tazıya	-8992
▁temekt	-8993
▁temeyi	-8994
▁tesene	-8995
▁tokmağ	-8996
▁tuzluk	-8997
▁töreni	-8998
▁tıpayı	-8999
ayi̇	-9000
olda	-9001
oley	-9002
uyak	-9003
uyon	-9004
ızda	-9005
▁anı	-9006
▁evr	-9007
▁keb	-9008
▁üçü	-9009
dıyor	-9010
eceye	-9011
gayan	-9012
i̇ren	-9013
lüğüm	-9014
madem	-9015
olmuş	-9016
uymuş	-9017
▁anan	-9018
▁hari	-9019
▁ikaz	-9020
▁karg	-9021
▁kari	-9022
▁kart	-9023
▁shop	-9024
▁yerd	-9025
▁ölüy	-9026
eselam	-9027
lanmaz	-9028
lüğümü	-9029
taneye	-9030
üyordu	-9031
▁amele	-9032
▁bagir	-9033
▁gıdık	-9034
▁karın	-9035
▁kaçış	-9036
▁tahat	-9037
▁voley	-9038
mesidir	-9039
▁ahiret	-9040
▁burayı	-9041
▁dalmis	-9042
▁dauyak	-9043
▁denmez	-9044
▁derdin	-9045
▁günden	-9046
▁koşuya	-9047
▁köşede	-9048
▁taştan	-9049
▁unutum	-9050
▁usulca	-9051
▁uyanık	-9052
▁uçmaya	-9053
▁vermis	-9054
▁yamalı	-9055
▁yanağı	-9056
▁yanuma	-9057
▁yanıma	-9058
▁yanıtı	-9059
▁yaprak	-9060
▁yararl	-9061
▁yarışa	-9062
▁yatmış	-9063
▁yaşlıl	-9064
▁yeller	-9065
▁yemi̇n	-9066
▁yinede	-9067
▁yokken	-9068
▁yordum	-9069
▁yükler	-9070
▁yürüdü	-9071
▁çaktım	-9072
▁çaldım	-9073
▁çapraz	-9074
▁çarpar	-9075
▁çatalı	-9076
▁çevire	-9077
▁çürüğü	-9078
▁çıkana	-9079
▁çıkmak	-9080
▁ödemek	-9081
▁öfkeli	-9082
▁ölmedi	-9083
▁ölüyor	-9084
▁ötmeye	-9085
▁öğüdüm	-9086
▁öğütür	-9087
▁ücreti	-9088
▁üzerin	-9089
▁ısırıp	-9090
abilirse	-9091
adakiler	-9092
adıkları	-9093
afiyetle	-9094
allaması	-9095
ayademiş	-9096
ayırrrrr	-9097
aşmasını	-9098
dakileri	-9099
▁fa	-9100
amma	-9101
tira	-9102
ışma	-9103
şeye	-9104
▁sük	-9105
▁çığ	-9106
▁ömr	-9107
ander	-9108
cunun	-9109
derek	-9110
edigi	-9111
minde	-9112
zadan	-9113
▁arit	-9114
▁atıl	-9115
▁dolm	-9116
▁faci	-9117
▁görr	-9118
▁iğne	-9119
▁senu	-9120
▁yayı	-9121
alyada	-9122
iletir	-9123
onunce	-9124
usuyla	-9125
▁akınt	-9126
▁barii	-9127
▁durma	-9128
▁facia	-9129
▁görun	-9130
▁içtim	-9131
▁katık	-9132
▁mantı	-9133
▁varda	-9134
▁yapan	-9135
▁yapıl	-9136
▁yapın	-9137
▁yılda	-9138
ilerken	-9139
▁ayşeye	-9140
▁başlas	-9141
▁dereye	-9142
▁gelene	-9143
▁gördin	-9144
▁iftira	-9145
▁konfer	-9146
▁makyaj	-9147
▁sükret	-9148
▁tutmay	-9149
▁tıraşı	-9150
▁yokuşa	-9151
▁yıldır	-9152
▁çığlık	-9153
aaaander	-9154
dekilere	-9155
değirmen	-9156
dururmuş	-9157
edresede	-9158
etlerini	-9159
genlerin	-9160
iyleymiş	-9161
i̇meni̇n	-9162
i̇pi̇li̇	-9163
lacaktım	-9164
lemişler	-9165
luyorsun	-9166
mışsınız	-9167
stirmeye	-9168
teşelere	-9169
uralyada	-9170
uşturmuş	-9171
ücüsünün	-9172
üvereyim	-9173
ıklarını	-9174
ırlarken	-9175
ızılarsa	-9176
ışırdadı	-9177
▁abidine	-9178
▁acizliğ	-9179
▁adaleti	-9180
▁adaylar	-9181
▁akılıyı	-9182
▁alabi̇l	-9183
▁alamaya	-9184
▁altının	-9185
▁anladun	-9186
▁anlamam	-9187
▁anlamaz	-9188
▁anlarım	-9189
▁anlatan	-9190
▁anlatma	-9191
▁anlattı	-9192
▁aramayı	-9193
▁asırmış	-9194
▁atlamam	-9195
▁atmanın	-9196
▁avcunun	-9197
▁ağzında	-9198
▁ağırlar	-9199
yav	-9200
▁2'	-9201
avra	-9202
eliğ	-9203
emki	-9204
etli	-9205
ti̇d	-9206
▁ere	-9207
▁eşe	-9208
▁seğ	-9209
▁şef	-9210
atmaz	-9211
etten	-9212
ilmis	-9213
lenen	-9214
tanin	-9215
taniy	-9216
uktan	-9217
usuya	-9218
yaşım	-9219
âtsız	-9220
▁dana	-9221
▁onca	-9222
▁prom	-9223
▁yari	-9224
▁çözü	-9225
▁şaha	-9226
kasaba	-9227
manlık	-9228
yavrum	-9229
▁alana	-9230
▁ayına	-9231
▁basıp	-9232
▁diyal	-9233
▁kalir	-9234
▁kışın	-9235
▁çaldı	-9236
▁öğrer	-9237
eliğine	-9238
ti̇dars	-9239
▁alıver	-9240
▁burara	-9241
▁cevapı	-9242
▁kanlar	-9243
▁kösede	-9244
▁promos	-9245
▁pusuya	-9246
▁rızası	-9247
▁sürede	-9248
▁yaşıma	-9249
▁şemsiy	-9250
edesemki	-9251
taniyeyi	-9252
▁atlılar	-9253
▁ayağıma	-9254
▁bakinca	-9255
▁baktığı	-9256
▁bakıyım	-9257
▁başları	-9258
▁baştaki	-9259
▁berberi	-9260
▁bininin	-9261
▁bitmedi	-9262
▁boşaldı	-9263
▁bugünkü	-9264
▁bulundu	-9265
▁bunalan	-9266
▁büzülür	-9267
▁cemalin	-9268
▁cidince	-9269
▁cübbeye	-9270
▁damında	-9271
▁defolup	-9272
▁degilmi	-9273
▁demedum	-9274
▁demenin	-9275
▁denemiş	-9276
▁dermanı	-9277
▁deyisun	-9278
▁deyiver	-9279
▁değişuk	-9280
▁dilemek	-9281
▁diliyle	-9282
▁diyalog	-9283
▁doktoru	-9284
▁dolaşan	-9285
▁domates	-9286
▁doğacak	-9287
▁doğmaya	-9288
▁duyması	-9289
▁dönerse	-9290
▁dörtten	-9291
▁dövmeye	-9292
▁dövüyor	-9293
▁düşürdü	-9294
▁düşürüp	-9295
▁ederduk	-9296
▁edersen	-9297
▁edilmez	-9298
▁evladim	-9299
i̇t	-9300
▁cö	-9301
afık	-9302
atta	-9303
dedi	-9304
ıkta	-9305
ısıl	-9306
ısız	-9307
▁bos	-9308
▁cit	-9309
▁cık	-9310
▁egz	-9311
▁i̇h	-9312
▁i̇y	-9313
▁mi̇	-9314
▁rom	-9315
dirim	-9316
ginse	-9317
▁bi̇l	-9318
▁cini	-9319
▁etek	-9320
▁idum	-9321
▁sıca	-9322
▁yank	-9323
▁yi̇t	-9324
amları	-9325
kisini	-9326
tarını	-9327
unuzla	-9328
ırları	-9329
▁armağ	-9330
▁cevab	-9331
▁citti	-9332
▁cömer	-9333
▁egzoz	-9334
▁fısıl	-9335
▁istes	-9336
▁istey	-9337
▁istur	-9338
▁paran	-9339
▁romat	-9340
▁saran	-9341
▁uykun	-9342
▁öttüğ	-9343
ersiniz	-9344
mayınız	-9345
ralyaya	-9346
▁anında	-9347
▁bakmaz	-9348
▁başlan	-9349
▁duyduk	-9350
▁edecek	-9351
▁inanır	-9352
▁içimin	-9353
▁i̇htiy	-9354
▁kadını	-9355
▁kararı	-9356
▁statta	-9357
▁yaptır	-9358
arkadaşı	-9359
hekimlik	-9360
incisine	-9361
memesine	-9362
▁alayrum	-9363
▁binmeye	-9364
▁bi̇llah	-9365
▁cıkacak	-9366
▁enginse	-9367
▁farklar	-9368
▁farzdır	-9369
▁geliriz	-9370
▁gelmist	-9371
▁gençler	-9372
▁geçerek	-9373
▁giderim	-9374
▁gidesun	-9375
▁gitmemi	-9376
▁gövdeli	-9377
▁gülücük	-9378
▁gülüşün	-9379
▁gününün	-9380
▁güvenip	-9381
▁haddimi	-9382
▁halimiz	-9383
▁hedefin	-9384
▁hemşeru	-9385
▁heybemi	-9386
▁hocalar	-9387
▁horozun	-9388
▁hoşafın	-9389
▁iddiaya	-9390
▁ikincis	-9391
▁ikisude	-9392
▁ilaçlar	-9393
▁ilgiyle	-9394
▁inandır	-9395
▁inanmaz	-9396
▁ismimuz	-9397
▁istenir	-9398
▁içeriyi	-9399
dada	-9400
erip	-9401
kada	-9402
omob	-9403
ukta	-9404
ümde	-9405
üpür	-9406
▁akc	-9407
▁eri	-9408
▁teç	-9409
endre	-9410
tünçü	-9411
▁araç	-9412
▁ocak	-9413
▁vası	-9414
▁ömür	-9415
amazdı	-9416
endreu	-9417
i̇ncil	-9418
omobil	-9419
▁anada	-9420
▁asmak	-9421
▁bucak	-9422
▁cemil	-9423
▁dağcı	-9424
▁geçil	-9425
▁geçiş	-9426
▁minib	-9427
▁süpür	-9428
▁teyup	-9429
▁ttttt	-9430
▁turan	-9431
▁vasıt	-9432
▁yaman	-9433
▁yokta	-9434
ikamete	-9435
samayan	-9436
▁akıyor	-9437
▁buymuş	-9438
▁kaçtığ	-9439
▁savmak	-9440
▁soldan	-9441
▁trenin	-9442
▁yaptık	-9443
▁şiiirr	-9444
eri̇kada	-9445
eyimizin	-9446
▁akciğer	-9447
▁bozamam	-9448
▁bulunup	-9449
▁geçince	-9450
▁güzelim	-9451
▁içerler	-9452
▁içersen	-9453
▁işitmiş	-9454
▁işkence	-9455
▁işliyor	-9456
▁i̇nanma	-9457
▁i̇çkiyi	-9458
▁kadıdan	-9459
▁kahvalt	-9460
▁kaldigi	-9461
▁kaldığı	-9462
▁kaliyor	-9463
▁kalkmak	-9464
▁kalkmaz	-9465
▁kalıyor	-9466
▁kapatır	-9467
▁karatay	-9468
▁karışık	-9469
▁kasapta	-9470
▁katarak	-9471
▁katilim	-9472
▁kavgası	-9473
▁kaybetm	-9474
▁kazandı	-9475
▁kazımış	-9476
▁kaçacak	-9477
▁kağıdın	-9478
▁kediyle	-9479
▁kekemem	-9480
▁keramet	-9481
▁keserim	-9482
▁kisiden	-9483
▁kitapta	-9484
▁kişiliğ	-9485
▁komşuya	-9486
▁konuşul	-9487
▁koşarım	-9488
▁kutuyum	-9489
▁köpekle	-9490
▁köpekte	-9491
▁köylüsü	-9492
▁kürekle	-9493
▁kürsüde	-9494
▁kıymaya	-9495
▁kıymeti	-9496
▁kızacak	-9497
▁kızınız	-9498
▁mahalle	-9499
gut	-9500
i̇ğ	-9501
aaar	-9502
assa	-9503
ekti	-9504
i̇de	-9505
kuyu	-9506
lügü	-9507
tısı	-9508
utta	-9509
utun	-9510
uğuk	-9511
▁ti̇	-9512
▁çıp	-9513
dırıl	-9514
filak	-9515
meniz	-9516
▁amac	-9517
▁isar	-9518
▁yırt	-9519
i̇ği̇m	-9520
ıcılar	-9521
▁arası	-9522
▁aydır	-9523
▁ektin	-9524
▁guğuk	-9525
▁kedin	-9526
▁kılık	-9527
▁mıydı	-9528
▁rusun	-9529
▁sözde	-9530
▁tablo	-9531
▁vaaar	-9532
▁yanıp	-9533
düzleri	-9534
tabutun	-9535
▁beklen	-9536
▁bilyon	-9537
▁hanlar	-9538
▁inşaat	-9539
▁isutta	-9540
▁kaplar	-9541
▁kızına	-9542
▁nasırı	-9543
▁sabunu	-9544
▁sirada	-9545
▁turgut	-9546
▁versem	-9547
▁zamane	-9548
▁çıplak	-9549
▁ölçmüş	-9550
▁özneyi	-9551
dırıldığ	-9552
▁adamdır	-9553
▁alışmış	-9554
▁attığım	-9555
▁başının	-9556
▁boşanır	-9557
▁erkekti	-9558
▁erkence	-9559
▁evlilik	-9560
▁evlisin	-9561
▁giderse	-9562
▁infilak	-9563
▁inşaata	-9564
▁isareti	-9565
▁i̇lerde	-9566
▁i̇çi̇de	-9567
▁kovayla	-9568
▁körlügü	-9569
▁kılıklı	-9570
▁mazeret	-9571
▁mektebi	-9572
▁mektuba	-9573
▁merkezi	-9574
▁minibüs	-9575
▁misunuz	-9576
▁motorda	-9577
▁motorun	-9578
▁muhtarı	-9579
▁mükafat	-9580
▁napalım	-9581
▁nasiyat	-9582
▁nikahta	-9583
▁niyetin	-9584
▁oflarsa	-9585
▁oglunun	-9586
▁okullar	-9587
▁okunsun	-9588
▁olanına	-9589
▁olaydan	-9590
▁olmadık	-9591
▁oluğuna	-9592
▁onlarla	-9593
▁orayıda	-9594
▁orhanla	-9595
▁oğludur	-9596
▁palasta	-9597
▁paşanun	-9598
▁penguen	-9599
tli	-9600
zeli	-9601
▁ele	-9602
▁inz	-9603
▁siç	-9604
▁tit	-9605
▁umu	-9606
anlaş	-9607
ekkep	-9608
lidir	-9609
linin	-9610
litur	-9611
oloji	-9612
tandı	-9613
▁atla	-9614
▁atma	-9615
▁atıp	-9616
▁cimr	-9617
▁ci̇n	-9618
▁elde	-9619
▁evli	-9620
▁inad	-9621
▁kony	-9622
▁pağa	-9623
▁star	-9624
atmaya	-9625
hocaya	-9626
▁inden	-9627
▁inzib	-9628
▁kapıc	-9629
▁kaybo	-9630
▁peki̇	-9631
▁yandı	-9632
samadan	-9633
ıtmadan	-9634
▁binmis	-9635
▁diysun	-9636
▁raporu	-9637
▁yersen	-9638
vetlidir	-9639
▁cevapta	-9640
▁ci̇nsel	-9641
▁değiliz	-9642
▁inzibat	-9643
▁içerdin	-9644
▁konyalı	-9645
▁oynamak	-9646
▁paranın	-9647
▁pasaklı	-9648
▁peşinde	-9649
▁pişeler	-9650
▁postacı	-9651
▁rafları	-9652
▁rastlay	-9653
▁rekabet	-9654
▁renktir	-9655
▁sabikan	-9656
▁salonun	-9657
▁salıver	-9658
▁sananee	-9659
▁sarıkta	-9660
▁sarıldı	-9661
▁saygıya	-9662
▁sebzeli	-9663
▁senedir	-9664
▁sesimin	-9665
▁sevinme	-9666
▁sigaral	-9667
▁sininin	-9668
▁sizinki	-9669
▁sizinle	-9670
▁siçti̇m	-9671
▁sorarım	-9672
▁sorarız	-9673
▁sormayı	-9674
▁sorumlu	-9675
▁soruver	-9676
▁sunulan	-9677
▁sıkıntı	-9678
▁sınıfın	-9679
▁tadıyla	-9680
▁takarım	-9681
▁tambura	-9682
▁tanimad	-9683
▁tanımak	-9684
▁tanırım	-9685
▁tanıyan	-9686
▁tarifin	-9687
▁tasında	-9688
▁taşının	-9689
▁taşıyor	-9690
▁tekidir	-9691
▁telaşın	-9692
▁topladı	-9693
▁tttttto	-9694
▁tutulma	-9695
▁tutuyor	-9696
▁tıkayan	-9697
▁ufaktan	-9698
▁unutmaz	-9699
▁22	-9700
ayıf	-9701
emit	-9702
ifet	-9703
mmet	-9704
▁meş	-9705
▁oto	-9706
abası	-9707
abere	-9708
salar	-9709
sinin	-9710
▁222'	-9711
▁buni	-9712
▁dalı	-9713
▁kası	-9714
▁çalk	-9715
▁ölçü	-9716
deydim	-9717
imizde	-9718
irinin	-9719
lamayı	-9720
▁bağın	-9721
▁cinin	-9722
▁kirpi	-9723
▁lanet	-9724
▁otobu	-9725
▁sırtı	-9726
▁yerdi	-9727
▁zayıf	-9728
i̇mi̇ze	-9729
silerin	-9730
▁ahmmet	-9731
▁haydin	-9732
▁içerek	-9733
▁kıştır	-9734
▁mecbur	-9735
▁meşgul	-9736
▁neymiş	-9737
▁sezilm	-9738
▁söylet	-9739
▁uçakla	-9740
▁ağırbaş	-9741
▁göremez	-9742
▁gülünce	-9743
▁hastane	-9744
▁kemirir	-9745
▁kiremit	-9746
▁marifet	-9747
▁pişirdi	-9748
▁taksiye	-9749
▁unuttum	-9750
▁usandım	-9751
▁usulüne	-9752
▁uydurur	-9753
▁uyurest	-9754
▁uzandım	-9755
▁uzundur	-9756
▁vaktine	-9757
▁valiler	-9758
▁verince	-9759
▁vuramaz	-9760
▁vurunca	-9761
▁yalamış	-9762
▁yamalak	-9763
▁yanaydi	-9764
▁yandığı	-9765
▁yapamam	-9766
▁yaparak	-9767
▁yapiyor	-9768
▁yatağın	-9769
▁yatıyor	-9770
▁yazalım	-9771
▁yazılar	-9772
▁yağacak	-9773
▁yaşayan	-9774
▁yaşları	-9775
▁yaşında	-9776
▁yediniz	-9777
▁yemesem	-9778
▁yerlere	-9779
▁yetenek	-9780
▁yeterli	-9781
▁yetmişe	-9782
▁yiyesin	-9783
▁yi̇ti̇p	-9784
▁yoldaki	-9785
▁yutarım	-9786
▁yüklemi	-9787
▁yüzbaşı	-9788
▁yüzünde	-9789
▁yüzüver	-9790
▁yüzüyor	-9791
▁yıkanır	-9792
▁yılında	-9793
▁yırtıcı	-9794
▁zamanki	-9795
▁zekiyum	-9796
▁zıplaya	-9797
▁çabucak	-9798
▁çakıyor	-9799
ledi	-9800
vere	-9801
▁kev	-9802
azsin	-9803
bürat	-9804
luyor	-9805
mişse	-9806
verdi	-9807
verin	-9808
▁asma	-9809
▁nakl	-9810
▁nesi	-9811
▁oysa	-9812
▁sizu	-9813
birden	-9814
metmem	-9815
▁burda	-9816
▁delir	-9817
▁hemse	-9818
▁kaşır	-9819
▁külle	-9820
▁poşet	-9821
▁verse	-9822
▁yakıt	-9823
▁yazan	-9824
▁yazık	-9825
▁yazın	-9826
▁yıkay	-9827
emiştir	-9828
▁ayagin	-9829
▁buralı	-9830
▁dönmem	-9831
▁hakemi	-9832
▁halsiz	-9833
▁içesim	-9834
▁kevser	-9835
▁kâğıda	-9836
▁neyine	-9837
▁oldimi	-9838
▁turşuu	-9839
▁yazmak	-9840
▁yersin	-9841
büratörü	-9842
ektiğini	-9843
iliverdi	-9844
▁akdeniz	-9845
▁akıllan	-9846
▁babanın	-9847
▁bakanın	-9848
▁demişse	-9849
▁döneyim	-9850
▁düşünen	-9851
▁erkekle	-9852
▁genelde	-9853
▁girmeye	-9854
▁gürledi	-9855
▁hemsehr	-9856
▁köpeğim	-9857
▁olduysa	-9858
▁sararak	-9859
▁tarlada	-9860
▁yazının	-9861
▁çaldığı	-9862
▁çaliyor	-9863
▁çalılar	-9864
▁çalıştı	-9865
▁çarşısı	-9866
▁çekerek	-9867
▁çekerim	-9868
▁çekilen	-9869
▁çekmece	-9870
▁çekmeye	-9871
▁çorbada	-9872
▁çorbaya	-9873
▁çıkamaz	-9874
▁çıkaran	-9875
▁çıkarıl	-9876
▁çıkarın	-9877
▁çıkatıp	-9878
▁çıkılan	-9879
▁çıkıyor	-9880
▁ödevini	-9881
▁öldürüp	-9882
▁ölmeden	-9883
▁ölmedim	-9884
▁ölümden	-9885
▁önceden	-9886
▁öğrendi	-9887
▁üzerime	-9888
▁üzerini	-9889
▁üzgünüz	-9890
▁üzüldük	-9891
▁şapkayı	-9892
▁şaşırdı	-9893
▁şehirli	-9894
▁şemsiye	-9895
▁şeylere	-9896
▁şişenin	-9897
▁şoförün	-9898
▁şunlara	-9899
gile	-9900
▁köç	-9901
mazdı	-9902
mazsa	-9903
olmaz	-9904
tırıp	-9905
▁acım	-9906
▁ağuk	-9907
▁ağuz	-9908
▁diyo	-9909
▁emmi	-9910
▁musa	-9911
▁ölen	-9912
emedun	-9913
inecek	-9914
mazmış	-9915
▁ağlam	-9916
▁ipini	-9917
▁kolun	-9918
▁tasın	-9919
▁trene	-9920
▁uluma	-9921
▁yadır	-9922
dikleri	-9923
timgile	-9924
upasını	-9925
▁askeru	-9926
▁ederdi	-9927
▁ederse	-9928
▁ederum	-9929
▁hakime	-9930
▁hanıma	-9931
▁köçeği	-9932
▁sıraya	-9933
▁tehlik	-9934
▁yapayi	-9935
acakları	-9936
edikleri	-9937
▁acısını	-9938
▁bakalim	-9939
▁edermiş	-9940
▁etinden	-9941
▁hanımım	-9942
▁hitaben	-9943
▁i̇nsanı	-9944
▁oğlumun	-9945
▁soracak	-9946
▁takılan	-9947
▁yardıma	-9948
▁ıslanır	-9949
▁ışığına	-9950
▁şimdide	-9951
acakmışım	-9952
▁	-9953
a	-9954
e	-9955
i	-9956
r	-9957
n	-9958
d	-9959
l	-9960
m	-9961
ı	-9962
k	-9963
u	-9964
y	-9965
o	-9966
s	-9967
t	-9968
b	-9969
ş	-9970
h	-9971
ü	-9972
.	-9973
c	-9974
z	-9975
g	-9976
v	-9977
ç	-9978
ğ	-9979
p	-9980
,	-9981
ö	-9982
f	-9983
”	-9984
“	-9985
̇	-9986
’	-9987
'	-9988
0	-9989
1	-9990
â	-9991
2	-9992
3	-9993
5	-9994
j	-9995
‘	-9996
